{
  "version": "1.0",
  "truncation": null,
  "padding": null,
  "added_tokens": [
    {
      "id": 0,
      "content": "[PAD]",
      "single_word": false,
      "lstrip": false,
      "rstrip": false,
      "normalized": false,
      "special": true
    },
    {
      "id": 1,
      "content": "[UNK]",
      "single_word": false,
      "lstrip": false,
      "rstrip": false,
      "normalized": false,
      "special": true
    },
    {
      "id": 2,
      "content": "[CLS]",
      "single_word": false,
      "lstrip": false,
      "rstrip": false,
      "normalized": false,
      "special": true
    },
    {
      "id": 3,
      "content": "[SEP]",
      "single_word": false,
      "lstrip": false,
      "rstrip": false,
      "normalized": false,
      "special": true
    },
    {
      "id": 4,
      "content": "[MASK]",
      "single_word": false,
      "lstrip": false,
      "rstrip": false,
      "normalized": false,
      "special": true
    }
  ],
  "normalizer": null,
  "pre_tokenizer": {
    "type": "Whitespace"
  },
  "post_processor": null,
  "decoder": null,
  "model": {
    "type": "BPE",
    "dropout": null,
    "unk_token": "[UNK]",
    "continuing_subword_prefix": null,
    "end_of_word_suffix": null,
    "fuse_unk": false,
    "byte_fallback": false,
    "ignore_merges": false,
    "vocab": {
      "[PAD]": 0,
      "[UNK]": 1,
      "[CLS]": 2,
      "[SEP]": 3,
      "[MASK]": 4,
      "0": 5,
      "1": 6,
      "2": 7,
      "3": 8,
      "4": 9,
      "5": 10,
      "6": 11,
      "7": 12,
      "8": 13,
      "9": 14,
      "a": 15,
      "b": 16,
      "c": 17,
      "d": 18,
      "e": 19,
      "f": 20,
      "g": 21,
      "h": 22,
      "i": 23,
      "j": 24,
      "k": 25,
      "l": 26,
      "m": 27,
      "n": 28,
      "o": 29,
      "p": 30,
      "q": 31,
      "r": 32,
      "s": 33,
      "t": 34,
      "u": 35,
      "v": 36,
      "w": 37,
      "x": 38,
      "y": 39,
      "z": 40,
      "th": 41,
      "the": 42,
      "in": 43,
      "an": 44,
      "er": 45,
      "on": 46,
      "ed": 47,
      "es": 48,
      "en": 49,
      "at": 50,
      "or": 51,
      "st": 52,
      "al": 53,
      "and": 54,
      "ar": 55,
      "it": 56,
      "of": 57,
      "ion": 58,
      "re": 59,
      "ic": 60,
      "to": 61,
      "as": 62,
      "ro": 63,
      "ent": 64,
      "is": 65,
      "ou": 66,
      "de": 67,
      "ing": 68,
      "am": 69,
      "le": 70,
      "ol": 71,
      "se": 72,
      "con": 73,
      "il": 74,
      "un": 75,
      "om": 76,
      "ad": 77,
      "for": 78,
      "ation": 79,
      "ac": 80,
      "res": 81,
      "ver": 82,
      "be": 83,
      "ly": 84,
      "ve": 85,
      "ment": 86,
      "ce": 87,
      "was": 88,
      "ut": 89,
      "wer": 90,
      "fi": 91,
      "ri": 92,
      "ne": 93,
      "ain": 94,
      "ch": 95,
      "stat": 96,
      "gh": 97,
      "id": 98,
      "ts": 99,
      "amer": 100,
      "op": 101,
      "americ": 102,
      "ir": 103,
      "ge": 104,
      "im": 105,
      "pro": 106,
      "ter": 107,
      "su": 108,
      "wh": 109,
      "were": 110,
      "oc": 111,
      "states": 112,
      "pe": 113,
      "ies": 114,
      "ur": 115,
      "la": 116,
      "over": 117,
      "li": 118,
      "pres": 119,
      "com": 120,
      "that": 121,
      "ans": 122,
      "ct": 123,
      "us": 124,
      "ther": 125,
      "ers": 126,
      "ap": 127,
      "col": 128,
      "ist": 129,
      "ot": 130,
      "ex": 131,
      "ld": 132,
      "unit": 133,
      "ag": 134,
      "wi": 135,
      "by": 136,
      "po": 137,
      "end": 138,
      "they": 139,
      "mo": 140,
      "ow": 141,
      "ul": 142,
      "united": 143,
      "br": 144,
      "ear": 145,
      "war": 146,
      "new": 147,
      "19": 148,
      "man": 149,
      "nation": 150,
      "ish": 151,
      "with": 152,
      "00": 153,
      "had": 154,
      "et": 155,
      "he": 156,
      "rom": 157,
      "from": 158,
      "wor": 159,
      "all": 160,
      "tr": 161,
      "gover": 162,
      "ia": 163,
      "govern": 164,
      "em": 165,
      "pl": 166,
      "pol": 167,
      "ght": 168,
      "di": 169,
      "ig": 170,
      "oun": 171,
      "their": 172,
      "ab": 173,
      "fr": 174,
      "ial": 175,
      "ef": 176,
      "government": 177,
      "ive": 178,
      "par": 179,
      "brit": 180,
      "ber": 181,
      "land": 182,
      "nor": 183,
      "ted": 184,
      "ate": 185,
      "ity": 186,
      "ical": 187,
      "cl": 188,
      "ces": 189,
      "cont": 190,
      "ution": 191,
      "colon": 192,
      "17": 193,
      "but": 194,
      "18": 195,
      "ay": 196,
      "sh": 197,
      "sou": 198,
      "americans": 199,
      "iz": 200,
      "per": 201,
      "year": 202,
      "reat": 203,
      "ould": 204,
      "presid": 205,
      "est": 206,
      "str": 207,
      "led": 208,
      "qu": 209,
      "tt": 210,
      "we": 211,
      "ant": 212,
      "ong": 213,
      "ence": 214,
      "american": 215,
      "president": 216,
      "por": 217,
      "our": 218,
      "act": 219,
      "fl": 220,
      "ved": 221,
      "ary": 222,
      "ame": 223,
      "most": 224,
      "af": 225,
      "not": 226,
      "other": 227,
      "ton": 228,
      "ore": 229,
      "ous": 230,
      "ill": 231,
      "national": 232,
      "ph": 233,
      "so": 234,
      "years": 235,
      "bl": 236,
      "ci": 237,
      "cent": 238,
      "gro": 239,
      "sed": 240,
      "vent": 241,
      "would": 242,
      "att": 243,
      "its": 244,
      "ions": 245,
      "ade": 246,
      "ated": 247,
      "arm": 248,
      "comm": 249,
      "many": 250,
      "fe": 251,
      "me": 252,
      "up": 253,
      "leg": 254,
      "polit": 255,
      "ign": 256,
      "rst": 257,
      "te": 258,
      "one": 259,
      "ress": 260,
      "contin": 261,
      "ast": 262,
      "du": 263,
      "gress": 264,
      "od": 265,
      "vi": 266,
      "ance": 267,
      "are": 268,
      "union": 269,
      "form": 270,
      "ack": 271,
      "sup": 272,
      "british": 273,
      "co": 274,
      "eu": 275,
      "ip": 276,
      "sp": 277,
      "sy": 278,
      "eral": 279,
      "stit": 280,
      "ass": 281,
      "dep": 282,
      "who": 283,
      "world": 284,
      "north": 285,
      "political": 286,
      "stitution": 287,
      "ced": 288,
      "came": 289,
      "mis": 290,
      "rope": 291,
      "out": 292,
      "constitution": 293,
      "ach": 294,
      "eff": 295,
      "au": 296,
      "ave": 297,
      "dis": 298,
      "his": 299,
      "mar": 300,
      "ves": 301,
      "ict": 302,
      "again": 303,
      "europe": 304,
      "fre": 305,
      "gr": 306,
      "lin": 307,
      "min": 308,
      "pu": 309,
      "red": 310,
      "sett": 311,
      "ome": 312,
      "work": 313,
      "depend": 314,
      "der": 315,
      "fed": 316,
      "jo": 317,
      "more": 318,
      "ser": 319,
      "sion": 320,
      "soc": 321,
      "vid": 322,
      "inter": 323,
      "independ": 324,
      "lect": 325,
      "ilit": 326,
      "righ": 327,
      "america": 328,
      "part": 329,
      "south": 330,
      "against": 331,
      "rights": 332,
      "ose": 333,
      "tim": 334,
      "ure": 335,
      "wo": 336,
      "these": 337,
      "reg": 338,
      "ments": 339,
      "geor": 340,
      "thern": 341,
      "own": 342,
      "colonies": 343,
      "after": 344,
      "0s": 345,
      "ak": 346,
      "bo": 347,
      "econ": 348,
      "ger": 349,
      "gen": 350,
      "ju": 351,
      "ll": 352,
      "les": 353,
      "loc": 354,
      "sla": 355,
      "ual": 356,
      "ich": 357,
      "dem": 358,
      "vel": 359,
      "ists": 360,
      "ult": 361,
      "ound": 362,
      "port": 363,
      "publ": 364,
      "independence": 365,
      "econom": 366,
      "gu": 367,
      "gin": 368,
      "great": 369,
      "main": 370,
      "pt": 371,
      "vir": 372,
      "into": 373,
      "ice": 374,
      "ism": 375,
      "dec": 376,
      "ington": 377,
      "congress": 378,
      "peop": 379,
      "power": 380,
      "britain": 381,
      "public": 382,
      "av": 383,
      "ever": 384,
      "ft": 385,
      "gan": 386,
      "ide": 387,
      "nat": 388,
      "pre": 389,
      "son": 390,
      "ty": 391,
      "ten": 392,
      "tri": 393,
      "ace": 394,
      "ural": 395,
      "law": 396,
      "ized": 397,
      "people": 398,
      "cour": 399,
      "ect": 400,
      "have": 401,
      "ifi": 402,
      "pr": 403,
      "ra": 404,
      "some": 405,
      "vol": 406,
      "vil": 407,
      "yor": 408,
      "ild": 409,
      "bet": 410,
      "been": 411,
      "chan": 412,
      "when": 413,
      "present": 414,
      "time": 415,
      "york": 416,
      "age": 417,
      "bu": 418,
      "elect": 419,
      "hn": 420,
      "how": 421,
      "mon": 422,
      "milit": 423,
      "rit": 424,
      "um": 425,
      "van": 426,
      "ine": 427,
      "ater": 428,
      "ory": 429,
      "fore": 430,
      "beli": 431,
      "chi": 432,
      "liber": 433,
      "pos": 434,
      "group": 435,
      "john": 436,
      "bas": 437,
      "batt": 438,
      "coun": 439,
      "go": 440,
      "hington": 441,
      "ious": 442,
      "king": 443,
      "ped": 444,
      "pen": 445,
      "tro": 446,
      "two": 447,
      "way": 448,
      "yet": 449,
      "revol": 450,
      "acy": 451,
      "washington": 452,
      "ocr": 453,
      "ury": 454,
      "trade": 455,
      "polic": 456,
      "cess": 457,
      "ween": 458,
      "freed": 459,
      "economic": 460,
      "between": 461,
      "revolution": 462,
      "20": 463,
      "air": 464,
      "bor": 465,
      "cor": 466,
      "cre": 467,
      "des": 468,
      "ges": 469,
      "ho": 470,
      "lar": 471,
      "mill": 472,
      "ran": 473,
      "sign": 474,
      "tain": 475,
      "ud": 476,
      "ue": 477,
      "use": 478,
      "vot": 479,
      "them": 480,
      "ered": 481,
      "ess": 482,
      "ors": 483,
      "rou": 484,
      "issu": 485,
      "amp": 486,
      "left": 487,
      "right": 488,
      "state": 489,
      "imm": 490,
      "produ": 491,
      "sur": 492,
      "uring": 493,
      "come": 494,
      "ction": 495,
      "ages": 496,
      "posed": 497,
      "clar": 498,
      "186": 499,
      "continent": 500,
      "viet": 501,
      "george": 502,
      "general": 503,
      "democr": 504,
      "virgin": 505,
      "however": 506,
      "freedom": 507,
      "13": 508,
      "bus": 509,
      "farm": 510,
      "jap": 511,
      "lo": 512,
      "lish": 513,
      "treat": 514,
      "wes": 515,
      "there": 516,
      "indi": 517,
      "incl": 518,
      "ates": 519,
      "stem": 520,
      "art": 521,
      "represent": 522,
      "ought": 523,
      "devel": 524,
      "declar": 525,
      "under": 526,
      "ations": 527,
      "became": 528,
      "images": 529,
      "what": 530,
      "which": 531,
      "lay": 532,
      "early": 533,
      "hel": 534,
      "france": 535,
      "lands": 536,
      "southern": 537,
      "peri": 538,
      "strong": 539,
      "civil": 540,
      "grow": 541,
      "system": 542,
      "settle": 543,
      "social": 544,
      "virginia": 545,
      "15": 546,
      "cur": 547,
      "cult": 548,
      "ec": 549,
      "found": 550,
      "har": 551,
      "ib": 552,
      "ian": 553,
      "ile": 554,
      "iet": 555,
      "ks": 556,
      "lf": 557,
      "men": 558,
      "pop": 559,
      "ral": 560,
      "ric": 561,
      "sa": 562,
      "sol": 563,
      "ving": 564,
      "this": 565,
      "throu": 566,
      "ere": 567,
      "ons": 568,
      "enc": 569,
      "also": 570,
      "arri": 571,
      "ree": 572,
      "ents": 573,
      "deleg": 574,
      "lead": 575,
      "confed": 576,
      "forces": 577,
      "ops": 578,
      "tern": 579,
      "used": 580,
      "move": 581,
      "nations": 582,
      "000": 583,
      "ghting": 584,
      "able": 585,
      "contro": 586,
      "178": 587,
      "ship": 588,
      "others": 589,
      "phil": 590,
      "vided": 591,
      "just": 592,
      "ually": 593,
      "court": 594,
      "military": 595,
      "belie": 596,
      "penn": 597,
      "troops": 598,
      "japan": 599,
      "western": 600,
      "includ": 601,
      "develop": 602,
      "popul": 603,
      "through": 604,
      "confeder": 605,
      "16": 606,
      "afr": 607,
      "bal": 608,
      "call": 609,
      "cial": 610,
      "day": 611,
      "during": 612,
      "ee": 613,
      "equ": 614,
      "event": 615,
      "now": 616,
      "ta": 617,
      "ting": 618,
      "ven": 619,
      "vis": 620,
      "west": 621,
      "than": 622,
      "ests": 623,
      "ories": 624,
      "organ": 625,
      "ite": 626,
      "ital": 627,
      "rew": 628,
      "too": 629,
      "defe": 630,
      "very": 631,
      "become": 632,
      "comp": 633,
      "plan": 634,
      "ablish": 635,
      "177": 636,
      "ize": 637,
      "establish": 638,
      "army": 639,
      "commun": 640,
      "federal": 641,
      "continental": 642,
      "democracy": 643,
      "delegates": 644,
      "control": 645,
      "afric": 646,
      "can": 647,
      "city": 648,
      "ff": 649,
      "ful": 650,
      "has": 651,
      "hist": 652,
      "ii": 653,
      "ject": 654,
      "low": 655,
      "long": 656,
      "lph": 657,
      "lvan": 658,
      "no": 659,
      "nav": 660,
      "pi": 661,
      "ry": 662,
      "tre": 663,
      "uc": 664,
      "vict": 665,
      "thom": 666,
      "those": 667,
      "only": 668,
      "eded": 669,
      "eng": 670,
      "ition": 671,
      "republic": 672,
      "road": 673,
      "isl": 674,
      "ough": 675,
      "ams": 676,
      "amil": 677,
      "ades": 678,
      "before": 679,
      "ains": 680,
      "process": 681,
      "coln": 682,
      "exp": 683,
      "colonists": 684,
      "stru": 685,
      "soviet": 686,
      "century": 687,
      "central": 688,
      "adelph": 689,
      "legisl": 690,
      "continu": 691,
      "sylvan": 692,
      "lincoln": 693,
      "slavery": 694,
      "decades": 695,
      "native": 696,
      "prevent": 697,
      "prin": 698,
      "change": 699,
      "chief": 700,
      "liberty": 701,
      "policy": 702,
      "immig": 703,
      "help": 704,
      "settlement": 705,
      "leaders": 706,
      "philadelph": 707,
      "believed": 708,
      "pennsylvan": 709,
      "equal": 710,
      "thomas": 711,
      "philadelphia": 712,
      "pennsylvania": 713,
      "ben": 714,
      "cit": 715,
      "dist": 716,
      "even": 717,
      "four": 718,
      "got": 719,
      "hi": 720,
      "jam": 721,
      "mass": 722,
      "rat": 723,
      "rend": 724,
      "sm": 725,
      "ures": 726,
      "wil": 727,
      "youn": 728,
      "thor": 729,
      "indu": 730,
      "any": 731,
      "orts": 732,
      "alth": 733,
      "along": 734,
      "almost": 735,
      "ands": 736,
      "anded": 737,
      "offi": 738,
      "remain": 739,
      "deb": 740,
      "deal": 741,
      "old": 742,
      "sept": 743,
      "self": 744,
      "cept": 745,
      "pros": 746,
      "progress": 747,
      "promis": 748,
      "territ": 749,
      "peace": 750,
      "pression": 751,
      "expl": 752,
      "194": 753,
      "ember": 754,
      "northern": 755,
      "antic": 756,
      "supre": 757,
      "free": 758,
      "serv": 759,
      "societ": 760,
      "interests": 761,
      "build": 762,
      "johnson": 763,
      "large": 764,
      "surrend": 765,
      "farmers": 766,
      "treaty": 767,
      "movement": 768,
      "developed": 769,
      "tax": 770,
      "established": 771,
      "african": 772,
      "young": 773,
      "september": 774,
      "30": 775,
      "50": 776,
      "bur": 777,
      "cal": 778,
      "cla": 779,
      "cap": 780,
      "fact": 781,
      "ged": 782,
      "gia": 783,
      "grew": 784,
      "hop": 785,
      "ie": 786,
      "io": 787,
      "ives": 788,
      "ke": 789,
      "kn": 790,
      "lim": 791,
      "later": 792,
      "lantic": 793,
      "ms": 794,
      "mid": 795,
      "pon": 796,
      "put": 797,
      "play": 798,
      "ration": 799,
      "tts": 800,
      "val": 801,
      "won": 802,
      "then": 803,
      "infl": 804,
      "iness": 805,
      "anish": 806,
      "era": 807,
      "atlantic": 808,
      "ort": 809,
      "ored": 810,
      "ste": 811,
      "ston": 812,
      "ander": 813,
      "arch": 814,
      "reach": 815,
      "roose": 816,
      "def": 817,
      "amend": 818,
      "ilt": 819,
      "und": 820,
      "omen": 821,
      "add": 822,
      "admin": 823,
      "force": 824,
      "bell": 825,
      "began": 826,
      "near": 827,
      "never": 828,
      "ida": 829,
      "gett": 830,
      "imes": 831,
      "prote": 832,
      "sure": 833,
      "while": 834,
      "where": 835,
      "last": 836,
      "liam": 837,
      "life": 838,
      "preser": 839,
      "compromis": 840,
      "post": 841,
      "00s": 842,
      "tru": 843,
      "diff": 844,
      "about": 845,
      "fran": 846,
      "colonial": 847,
      "ported": 848,
      "attack": 849,
      "meas": 850,
      "formation": 851,
      "support": 852,
      "coast": 853,
      "spanish": 854,
      "achuse": 855,
      "author": 856,
      "regul": 857,
      "georgia": 858,
      "germany": 859,
      "local": 860,
      "guar": 861,
      "decis": 862,
      "built": 863,
      "groups": 864,
      "battle": 865,
      "battles": 866,
      "vote": 867,
      "growing": 868,
      "cially": 869,
      "organized": 870,
      "defeat": 871,
      "history": 872,
      "jected": 873,
      "continued": 874,
      "massachuse": 875,
      "prosper": 876,
      "supreme": 877,
      "society": 878,
      "roosevel": 879,
      "administ": 880,
      "massachusetts": 881,
      "21": 882,
      "ather": 883,
      "ban": 884,
      "bri": 885,
      "back": 886,
      "cr": 887,
      "car": 888,
      "cts": 889,
      "den": 890,
      "dle": 891,
      "did": 892,
      "doc": 893,
      "east": 894,
      "fol": 895,
      "fac": 896,
      "fri": 897,
      "fought": 898,
      "hu": 899,
      "hap": 900,
      "ians": 901,
      "jeff": 902,
      "kore": 903,
      "lt": 904,
      "lit": 905,
      "lers": 906,
      "ma": 907,
      "met": 908,
      "nes": 909,
      "nal": 910,
      "nam": 911,
      "og": 912,
      "oce": 913,
      "ood": 914,
      "ps": 915,
      "pri": 916,
      "pain": 917,
      "ril": 918,
      "sc": 919,
      "sen": 920,
      "ti": 921,
      "tle": 922,
      "tur": 923,
      "voc": 924,
      "wan": 925,
      "writ": 926,
      "women": 927,
      "xt": 928,
      "yal": 929,
      "thought": 930,
      "three": 931,
      "inv": 932,
      "another": 933,
      "atic": 934,
      "atives": 935,
      "orida": 936,
      "als": 937,
      "often": 938,
      "recon": 939,
      "reli": 940,
      "rect": 941,
      "reform": 942,
      "role": 943,
      "ison": 944,
      "depart": 945,
      "depression": 946,
      "sem": 947,
      "set": 948,
      "secur": 949,
      "cond": 950,
      "confl": 951,
      "convent": 952,
      "aded": 953,
      "river": 954,
      "needed": 955,
      "next": 956,
      "ained": 957,
      "child": 958,
      "prot": 959,
      "provided": 960,
      "ters": 961,
      "sub": 962,
      "sus": 963,
      "such": 964,
      "pect": 965,
      "labor": 966,
      "erson": 967,
      "appe": 968,
      "april": 969,
      "collect": 970,
      "experi": 971,
      "poin": 972,
      "193": 973,
      "196": 974,
      "emp": 975,
      "176": 976,
      "florida": 977,
      "attemp": 978,
      "legal": 979,
      "supported": 980,
      "miss": 981,
      "mark": 982,
      "europeans": 983,
      "settlers": 984,
      "vidual": 985,
      "ilities": 986,
      "region": 987,
      "both": 988,
      "boston": 989,
      "maintain": 990,
      "natural": 991,
      "tries": 992,
      "laws": 993,
      "rail": 994,
      "foreign": 995,
      "poss": 996,
      "based": 997,
      "countries": 998,
      "ways": 999,
      "million": 1000,
      "millions": 1001,
      "rants": 1002,
      "signed": 1003,
      "issue": 1004,
      "produced": 1005,
      "business": 1006,
      "individual": 1007,
      "declaration": 1008,
      "ible": 1009,
      "ency": 1010,
      "including": 1011,
      "confederate": 1012,
      "called": 1013,
      "eventually": 1014,
      "took": 1015,
      "struction": 1016,
      "immigrants": 1017,
      "ratifi": 1018,
      "small": 1019,
      "debate": 1020,
      "building": 1021,
      "taxes": 1022,
      "claim": 1023,
      "known": 1024,
      "middle": 1025,
      "getty": 1026,
      "compromise": 1027,
      "measures": 1028,
      "guarant": 1029,
      "prosperity": 1030,
      "roosevelt": 1031,
      "follow": 1032,
      "wanted": 1033,
      "10": 1034,
      "12": 1035,
      "14": 1036,
      "100": 1037,
      "38": 1038,
      "ah": 1039,
      "cu": 1040,
      "cer": 1041,
      "could": 1042,
      "cau": 1043,
      "camp": 1044,
      "do": 1045,
      "dr": 1046,
      "don": 1047,
      "far": 1048,
      "fair": 1049,
      "gl": 1050,
      "gar": 1051,
      "hen": 1052,
      "hal": 1053,
      "hamil": 1054,
      "hold": 1055,
      "ied": 1056,
      "jor": 1057,
      "klin": 1058,
      "mu": 1059,
      "mary": 1060,
      "mak": 1061,
      "ning": 1062,
      "ob": 1063,
      "oy": 1064,
      "pas": 1065,
      "ren": 1066,
      "rich": 1067,
      "sin": 1068,
      "sci": 1069,
      "sip": 1070,
      "will": 1071,
      "water": 1072,
      "thous": 1073,
      "ins": 1074,
      "ann": 1075,
      "educ": 1076,
      "espe": 1077,
      "ened": 1078,
      "ench": 1079,
      "ences": 1080,
      "enough": 1081,
      "oral": 1082,
      "star": 1083,
      "stop": 1084,
      "still": 1085,
      "stamp": 1086,
      "alex": 1087,
      "ard": 1088,
      "ited": 1089,
      "itions": 1090,
      "rel": 1091,
      "reed": 1092,
      "ick": 1093,
      "asing": 1094,
      "asia": 1095,
      "assem": 1096,
      "isol": 1097,
      "issip": 1098,
      "ley": 1099,
      "see": 1100,
      "separ": 1101,
      "ility": 1102,
      "une": 1103,
      "adop": 1104,
      "adams": 1105,
      "rest": 1106,
      "resol": 1107,
      "restr": 1108,
      "becau": 1109,
      "lyn": 1110,
      "negot": 1111,
      "opol": 1112,
      "opposed": 1113,
      "americas": 1114,
      "get": 1115,
      "gether": 1116,
      "white": 1117,
      "press": 1118,
      "uss": 1119,
      "except": 1120,
      "expect": 1121,
      "agric": 1122,
      "wide": 1123,
      "ended": 1124,
      "newly": 1125,
      "195": 1126,
      "manent": 1127,
      "try": 1128,
      "empl": 1129,
      "divided": 1130,
      "direct": 1131,
      "fron": 1132,
      "french": 1133,
      "bert": 1134,
      "ization": 1135,
      "permanent": 1136,
      "stry": 1137,
      "wel": 1138,
      "black": 1139,
      "common": 1140,
      "commit": 1141,
      "felt": 1142,
      "areas": 1143,
      "former": 1144,
      "spain": 1145,
      "mission": 1146,
      "constitutional": 1147,
      "european": 1148,
      "grap": 1149,
      "minut": 1150,
      "worked": 1151,
      "german": 1152,
      "less": 1153,
      "slave": 1154,
      "slaves": 1155,
      "ultural": 1156,
      "economy": 1157,
      "tens": 1158,
      "raw": 1159,
      "elected": 1160,
      "good": 1161,
      "policies": 1162,
      "20th": 1163,
      "represented": 1164,
      "declared": 1165,
      "period": 1166,
      "curr": 1167,
      "culture": 1168,
      "said": 1169,
      "arrived": 1170,
      "1787": 1171,
      "justice": 1172,
      "included": 1173,
      "popular": 1174,
      "population": 1175,
      "visions": 1176,
      "italy": 1177,
      "communist": 1178,
      "legislat": 1179,
      "princi": 1180,
      "cities": 1181,
      "james": 1182,
      "industry": 1183,
      "territories": 1184,
      "explor": 1185,
      "postwar": 1186,
      "franklin": 1187,
      "docu": 1188,
      "little": 1189,
      "major": 1190,
      "ocean": 1191,
      "reconstruction": 1192,
      "relig": 1193,
      "security": 1194,
      "convention": 1195,
      "children": 1196,
      "attempts": 1197,
      "mississip": 1198,
      "following": 1199,
      "hamilton": 1200,
      "much": 1201,
      "passed": 1202,
      "thousands": 1203,
      "especially": 1204,
      "alexander": 1205,
      "because": 1206,
      "negoti": 1207,
      "employ": 1208,
      "11": 1209,
      "25": 1210,
      "200": 1211,
      "35": 1212,
      "39": 1213,
      "90": 1214,
      "ath": 1215,
      "ait": 1216,
      "aid": 1217,
      "aign": 1218,
      "bit": 1219,
      "bre": 1220,
      "bir": 1221,
      "bul": 1222,
      "bill": 1223,
      "ca": 1224,
      "cle": 1225,
      "cover": 1226,
      "cot": 1227,
      "cred": 1228,
      "din": 1229,
      "done": 1230,
      "draw": 1231,
      "ew": 1232,
      "fa": 1233,
      "ffi": 1234,
      "fear": 1235,
      "fav": 1236,
      "fused": 1237,
      "famil": 1238,
      "gri": 1239,
      "gather": 1240,
      "home": 1241,
      "if": 1242,
      "iv": 1243,
      "ifor": 1244,
      "igh": 1245,
      "kil": 1246,
      "ls": 1247,
      "mber": 1248,
      "may": 1249,
      "made": 1250,
      "nia": 1251,
      "num": 1252,
      "oto": 1253,
      "ool": 1254,
      "pac": 1255,
      "si": 1256,
      "ss": 1257,
      "sent": 1258,
      "som": 1259,
      "sch": 1260,
      "til": 1261,
      "tak": 1262,
      "uence": 1263,
      "var": 1264,
      "ths": 1265,
      "threat": 1266,
      "inc": 1267,
      "ines": 1268,
      "incre": 1269,
      "eration": 1270,
      "erences": 1271,
      "ens": 1272,
      "enced": 1273,
      "ating": 1274,
      "attr": 1275,
      "orm": 1276,
      "order": 1277,
      "orious": 1278,
      "ordin": 1279,
      "stri": 1280,
      "stoc": 1281,
      "alism": 1282,
      "around": 1283,
      "argu": 1284,
      "archi": 1285,
      "real": 1286,
      "reas": 1287,
      "rejected": 1288,
      "refused": 1289,
      "ics": 1290,
      "icles": 1291,
      "together": 1292,
      "ask": 1293,
      "asury": 1294,
      "royal": 1295,
      "robert": 1296,
      "dead": 1297,
      "lee": 1298,
      "lex": 1299,
      "olog": 1300,
      "secre": 1301,
      "second": 1302,
      "conserv": 1303,
      "uni": 1304,
      "ada": 1305,
      "ady": 1306,
      "forced": 1307,
      "aced": 1308,
      "acted": 1309,
      "respon": 1310,
      "vers": 1311,
      "versus": 1312,
      "being": 1313,
      "begin": 1314,
      "ched": 1315,
      "char": 1316,
      "chance": 1317,
      "opport": 1318,
      "ired": 1319,
      "impro": 1320,
      "terr": 1321,
      "terms": 1322,
      "suc": 1323,
      "lied": 1324,
      "living": 1325,
      "compe": 1326,
      "ansion": 1327,
      "aper": 1328,
      "bring": 1329,
      "earth": 1330,
      "newsp": 1331,
      "192": 1332,
      "ished": 1333,
      "0000": 1334,
      "etimes": 1335,
      "trad": 1336,
      "trans": 1337,
      "emer": 1338,
      "emen": 1339,
      "place": 1340,
      "plains": 1341,
      "diers": 1342,
      "abo": 1343,
      "paris": 1344,
      "souri": 1345,
      "quick": 1346,
      "aft": 1347,
      "photo": 1348,
      "commer": 1349,
      "cost": 1350,
      "missouri": 1351,
      "augu": 1352,
      "disput": 1353,
      "disappe": 1354,
      "redu": 1355,
      "partic": 1356,
      "wood": 1357,
      "greater": 1358,
      "idea": 1359,
      "ective": 1360,
      "changes": 1361,
      "election": 1362,
      "belief": 1363,
      "revolutionary": 1364,
      "design": 1365,
      "host": 1366,
      "issued": 1367,
      "vietnam": 1368,
      "generally": 1369,
      "bush": 1370,
      "indians": 1371,
      "articles": 1372,
      "representatives": 1373,
      "cultural": 1374,
      "saw": 1375,
      "soldiers": 1376,
      "ships": 1377,
      "throughout": 1378,
      "full": 1379,
      "treasury": 1380,
      "republican": 1381,
      "expanded": 1382,
      "legislation": 1383,
      "chiefl": 1384,
      "high": 1385,
      "wilson": 1386,
      "william": 1387,
      "selfgovernment": 1388,
      "service": 1389,
      "surrender": 1390,
      "surrendered": 1391,
      "burg": 1392,
      "califor": 1393,
      "played": 1394,
      "reached": 1395,
      "protect": 1396,
      "preserve": 1397,
      "authority": 1398,
      "administration": 1399,
      "brid": 1400,
      "facilities": 1401,
      "protest": 1402,
      "1960s": 1403,
      "railroad": 1404,
      "possible": 1405,
      "guarantee": 1406,
      "campaign": 1407,
      "henry": 1408,
      "half": 1409,
      "maryland": 1410,
      "education": 1411,
      "graph": 1412,
      "minutemen": 1413,
      "religious": 1414,
      "mississippi": 1415,
      "favored": 1416,
      "gathering": 1417,
      "ivism": 1418,
      "pacifi": 1419,
      "sometimes": 1420,
      "school": 1421,
      "increasing": 1422,
      "archives": 1423,
      "ological": 1424,
      "secret": 1425,
      "opportunit": 1426,
      "august": 1427,
      "disputes": 1428,
      "disappear": 1429,
      "california": 1430,
      "23": 1431,
      "36": 1432,
      "300": 1433,
      "40": 1434,
      "44": 1435,
      "92": 1436,
      "aw": 1437,
      "az": 1438,
      "abr": 1439,
      "bs": 1440,
      "bin": 1441,
      "bro": 1442,
      "bis": 1443,
      "bol": 1444,
      "bom": 1445,
      "ball": 1446,
      "big": 1447,
      "ck": 1448,
      "cy": 1449,
      "cro": 1450,
      "cing": 1451,
      "cul": 1452,
      "creat": 1453,
      "cup": 1454,
      "care": 1455,
      "clay": 1456,
      "dc": 1457,
      "ds": 1458,
      "dom": 1459,
      "dut": 1460,
      "down": 1461,
      "el": 1462,
      "eas": 1463,
      "eld": 1464,
      "fo": 1465,
      "fer": 1466,
      "foc": 1467,
      "fur": 1468,
      "gg": 1469,
      "gun": 1470,
      "give": 1471,
      "gave": 1472,
      "glo": 1473,
      "gained": 1474,
      "hin": 1475,
      "her": 1476,
      "hall": 1477,
      "hip": 1478,
      "here": 1479,
      "iation": 1480,
      "ight": 1481,
      "iate": 1482,
      "jour": 1483,
      "jack": 1484,
      "ky": 1485,
      "lu": 1486,
      "late": 1487,
      "mt": 1488,
      "med": 1489,
      "mit": 1490,
      "mex": 1491,
      "moun": 1492,
      "mater": 1493,
      "ned": 1494,
      "nical": 1495,
      "nine": 1496,
      "ots": 1497,
      "pat": 1498,
      "pal": 1499,
      "pun": 1500,
      "pur": 1501,
      "pus": 1502,
      "pass": 1503,
      "pict": 1504,
      "rm": 1505,
      "rad": 1506,
      "rac": 1507,
      "rup": 1508,
      "russ": 1509,
      "sl": 1510,
      "san": 1511,
      "sit": 1512,
      "sil": 1513,
      "spe": 1514,
      "sli": 1515,
      "she": 1516,
      "same": 1517,
      "sav": 1518,
      "tw": 1519,
      "task": 1520,
      "ues": 1521,
      "ustr": 1522,
      "vast": 1523,
      "wn": 1524,
      "went": 1525,
      "yon": 1526,
      "theast": 1527,
      "ina": 1528,
      "invent": 1529,
      "inated": 1530,
      "ang": 1531,
      "erent": 1532,
      "onment": 1533,
      "edison": 1534,
      "ese": 1535,
      "esy": 1536,
      "ense": 1537,
      "envir": 1538,
      "enorm": 1539,
      "orical": 1540,
      "stand": 1541,
      "aled": 1542,
      "always": 1543,
      "rever": 1544,
      "ico": 1545,
      "icts": 1546,
      "tom": 1547,
      "tower": 1548,
      "tober": 1549,
      "today": 1550,
      "town": 1551,
      "ase": 1552,
      "ash": 1553,
      "ases": 1554,
      "rop": 1555,
      "row": 1556,
      "ross": 1557,
      "robin": 1558,
      "rock": 1559,
      "enter": 1560,
      "ential": 1561,
      "ise": 1562,
      "island": 1563,
      "islands": 1564,
      "demo": 1565,
      "among": 1566,
      "lege": 1567,
      "lebr": 1568,
      "sel": 1569,
      "sever": 1570,
      "seize": 1571,
      "search": 1572,
      "conne": 1573,
      "concl": 1574,
      "illegal": 1575,
      "until": 1576,
      "advoc": 1577,
      "acts": 1578,
      "acef": 1579,
      "across": 1580,
      "reser": 1581,
      "resour": 1582,
      "ressed": 1583,
      "bett": 1584,
      "ceeded": 1585,
      "celebr": 1586,
      "utive": 1587,
      "fighting": 1588,
      "need": 1589,
      "chall": 1590,
      "status": 1591,
      "ided": 1592,
      "open": 1593,
      "operation": 1594,
      "irit": 1595,
      "import": 1596,
      "imposed": 1597,
      "progr": 1598,
      "proposed": 1599,
      "tered": 1600,
      "termin": 1601,
      "occup": 1602,
      "october": 1603,
      "peacef": 1604,
      "lap": 1605,
      "lives": 1606,
      "coming": 1607,
      "uses": 1608,
      "apers": 1609,
      "apons": 1610,
      "appoin": 1611,
      "colum": 1612,
      "college": 1613,
      "isted": 1614,
      "istance": 1615,
      "exped": 1616,
      "exec": 1617,
      "ago": 1618,
      "agree": 1619,
      "agreed": 1620,
      "ward": 1621,
      "198": 1622,
      "19th": 1623,
      "withdraw": 1624,
      "head": 1625,
      "headed": 1626,
      "worn": 1627,
      "plom": 1628,
      "placed": 1629,
      "died": 1630,
      "diver": 1631,
      "divisions": 1632,
      "diplom": 1633,
      "ably": 1634,
      "ability": 1635,
      "park": 1636,
      "parliam": 1637,
      "landed": 1638,
      "northeast": 1639,
      "1812": 1640,
      "1890": 1641,
      "shall": 1642,
      "short": 1643,
      "estic": 1644,
      "streng": 1645,
      "quest": 1646,
      "welf": 1647,
      "weapons": 1648,
      "presidential": 1649,
      "ously": 1650,
      "soil": 1651,
      "center": 1652,
      "armies": 1653,
      "fell": 1654,
      "tea": 1655,
      "tele": 1656,
      "tech": 1657,
      "continue": 1658,
      "viol": 1659,
      "view": 1660,
      "area": 1661,
      "formed": 1662,
      "spirit": 1663,
      "assoc": 1664,
      "achie": 1665,
      "disc": 1666,
      "marshall": 1667,
      "grant": 1668,
      "line": 1669,
      "settled": 1670,
      "works": 1671,
      "working": 1672,
      "workers": 1673,
      "series": 1674,
      "international": 1675,
      "party": 1676,
      "boy": 1677,
      "gency": 1678,
      "july": 1679,
      "demanded": 1680,
      "powers": 1681,
      "every": 1682,
      "preced": 1683,
      "tennes": 1684,
      "tried": 1685,
      "tribal": 1686,
      "electoral": 1687,
      "monopol": 1688,
      "months": 1689,
      "liberal": 1690,
      "posing": 1691,
      "base": 1692,
      "counter": 1693,
      "corpor": 1694,
      "voted": 1695,
      "issues": 1696,
      "products": 1697,
      "1860": 1698,
      "helped": 1699,
      "growth": 1700,
      "settlements": 1701,
      "ects": 1702,
      "founded": 1703,
      "harbor": 1704,
      "courtesy": 1705,
      "calls": 1706,
      "events": 1707,
      "defeated": 1708,
      "1775": 1709,
      "federalists": 1710,
      "canada": 1711,
      "navy": 1712,
      "naval": 1713,
      "victory": 1714,
      "victorious": 1715,
      "england": 1716,
      "expansion": 1717,
      "leadership": 1718,
      "equally": 1719,
      "bene": 1720,
      "benjam": 1721,
      "citiz": 1722,
      "industri": 1723,
      "although": 1724,
      "remained": 1725,
      "capital": 1726,
      "factories": 1727,
      "hope": 1728,
      "limited": 1729,
      "values": 1730,
      "archy": 1731,
      "defend": 1732,
      "defense": 1733,
      "amendment": 1734,
      "amendments": 1735,
      "addressed": 1736,
      "lasted": 1737,
      "truman": 1738,
      "attacks": 1739,
      "decision": 1740,
      "decisive": 1741,
      "friend": 1742,
      "huge": 1743,
      "korea": 1744,
      "nessed": 1745,
      "nally": 1746,
      "painting": 1747,
      "writer": 1748,
      "department": 1749,
      "departments": 1750,
      "experienced": 1751,
      "1765": 1752,
      "regional": 1753,
      "aham": 1754,
      "certain": 1755,
      "since": 1756,
      "scient": 1757,
      "started": 1758,
      "stopped": 1759,
      "relations": 1760,
      "assemb": 1761,
      "isolation": 1762,
      "adopted": 1763,
      "resolved": 1764,
      "agricultural": 1765,
      "directly": 1766,
      "fronti": 1767,
      "committe": 1768,
      "currency": 1769,
      "legislative": 1770,
      "principal": 1771,
      "exploration": 1772,
      "document": 1773,
      "majority": 1774,
      "employed": 1775,
      "break": 1776,
      "cotton": 1777,
      "fail": 1778,
      "families": 1779,
      "killed": 1780,
      "number": 1781,
      "take": 1782,
      "threatened": 1783,
      "argued": 1784,
      "reasons": 1785,
      "deadly": 1786,
      "lexington": 1787,
      "response": 1788,
      "terror": 1789,
      "succeeded": 1790,
      "compet": 1791,
      "newspaper": 1792,
      "1920s": 1793,
      "emerged": 1794,
      "above": 1795,
      "quickly": 1796,
      "commerce": 1797,
      "reduce": 1798,
      "particip": 1799,
      "designed": 1800,
      "bridge": 1801,
      "graphic": 1802,
      "schools": 1803,
      "increasingly": 1804,
      "opportunity": 1805,
      "disappeared": 1806,
      "azi": 1807,
      "domestic": 1808,
      "easy": 1809,
      "further": 1810,
      "global": 1811,
      "mexico": 1812,
      "punish": 1813,
      "purch": 1814,
      "ustration": 1815,
      "environment": 1816,
      "enormous": 1817,
      "robinson": 1818,
      "demographic": 1819,
      "several": 1820,
      "connect": 1821,
      "advocated": 1822,
      "resources": 1823,
      "challen": 1824,
      "programs": 1825,
      "peaceful": 1826,
      "expedition": 1827,
      "executive": 1828,
      "agreements": 1829,
      "welfare": 1830,
      "tennessee": 1831,
      "monopolies": 1832,
      "benjamin": 1833,
      "industries": 1834,
      "22": 1835,
      "26": 1836,
      "27": 1837,
      "34": 1838,
      "37": 1839,
      "46": 1840,
      "48": 1841,
      "51": 1842,
      "52": 1843,
      "54": 1844,
      "55": 1845,
      "58": 1846,
      "59": 1847,
      "70s": 1848,
      "88": 1849,
      "98": 1850,
      "aer": 1851,
      "aaf": 1852,
      "ba": 1853,
      "bed": 1854,
      "bes": 1855,
      "bil": 1856,
      "bac": 1857,
      "bers": 1858,
      "bot": 1859,
      "bled": 1860,
      "bass": 1861,
      "brou": 1862,
      "broad": 1863,
      "bold": 1864,
      "cand": 1865,
      "cis": 1866,
      "cation": 1867,
      "cow": 1868,
      "cab": 1869,
      "cast": 1870,
      "carri": 1871,
      "ccle": 1872,
      "dan": 1873,
      "ded": 1874,
      "dou": 1875,
      "drop": 1876,
      "ek": 1877,
      "ees": 1878,
      "ele": 1879,
      "ech": 1880,
      "each": 1881,
      "evid": 1882,
      "fin": 1883,
      "fan": 1884,
      "fam": 1885,
      "fun": 1886,
      "fall": 1887,
      "fine": 1888,
      "fue": 1889,
      "father": 1890,
      "gi": 1891,
      "gn": 1892,
      "ging": 1893,
      "gate": 1894,
      "gest": 1895,
      "gence": 1896,
      "game": 1897,
      "greg": 1898,
      "gree": 1899,
      "gains": 1900,
      "hou": 1901,
      "hol": 1902,
      "hun": 1903,
      "hous": 1904,
      "hors": 1905,
      "hib": 1906,
      "hands": 1907,
      "hired": 1908,
      "ith": 1909,
      "ior": 1910,
      "ire": 1911,
      "ived": 1912,
      "ike": 1913,
      "jr": 1914,
      "june": 1915,
      "ko": 1916,
      "kent": 1917,
      "kans": 1918,
      "lan": 1919,
      "lle": 1920,
      "mm": 1921,
      "my": 1922,
      "mat": 1923,
      "mal": 1924,
      "mil": 1925,
      "mad": 1926,
      "mus": 1927,
      "mot": 1928,
      "mem": 1929,
      "mone": 1930,
      "mach": 1931,
      "mound": 1932,
      "mccle": 1933,
      "ncor": 1934,
      "nological": 1935,
      "nazi": 1936,
      "ok": 1937,
      "oil": 1938,
      "py": 1939,
      "pent": 1940,
      "ping": 1941,
      "pil": 1942,
      "ply": 1943,
      "pay": 1944,
      "pite": 1945,
      "pgetty": 1946,
      "ru": 1947,
      "rong": 1948,
      "rated": 1949,
      "rict": 1950,
      "race": 1951,
      "rural": 1952,
      "sw": 1953,
      "sar": 1954,
      "sid": 1955,
      "size": 1956,
      "slow": 1957,
      "sburg": 1958,
      "sworn": 1959,
      "skilled": 1960,
      "tin": 1961,
      "tal": 1962,
      "tion": 1963,
      "tent": 1964,
      "tam": 1965,
      "tation": 1966,
      "tex": 1967,
      "twork": 1968,
      "ufact": 1969,
      "ww": 1970,
      "wro": 1971,
      "wine": 1972,
      "ya": 1973,
      "ye": 1974,
      "yed": 1975,
      "ying": 1976,
      "thir": 1977,
      "threed": 1978,
      "theor": 1979,
      "theod": 1980,
      "int": 1981,
      "ined": 1982,
      "inst": 1983,
      "inct": 1984,
      "inton": 1985,
      "inte": 1986,
      "invol": 1987,
      "insur": 1988,
      "income": 1989,
      "information": 1990,
      "intens": 1991,
      "inconcl": 1992,
      "infan": 1993,
      "anim": 1994,
      "anies": 1995,
      "ances": 1996,
      "anced": 1997,
      "ern": 1998,
      "ery": 1999,
      "erto": 2000,
      "erly": 2001,
      "ona": 2002,
      "once": 2003,
      "edit": 2004,
      "ediate": 2005,
      "ested": 2006,
      "escap": 2007,
      "enjo": 2008,
      "encour": 2009,
      "ensure": 2010,
      "enacted": 2011,
      "orig": 2012,
      "orial": 2013,
      "stre": 2014,
      "stay": 2015,
      "stance": 2016,
      "start": 2017,
      "stee": 2018,
      "stood": 2019,
      "stability": 2020,
      "alli": 2021,
      "alike": 2022,
      "andy": 2023,
      "arl": 2024,
      "arly": 2025,
      "arts": 2026,
      "aries": 2027,
      "itan": 2028,
      "ities": 2029,
      "itself": 2030,
      "off": 2031,
      "rebe": 2032,
      "reve": 2033,
      "rece": 2034,
      "repe": 2035,
      "reag": 2036,
      "refl": 2037,
      "reco": 2038,
      "rebell": 2039,
      "remark": 2040,
      "ready": 2041,
      "ices": 2042,
      "icted": 2043,
      "ications": 2044,
      "icians": 2045,
      "toward": 2046,
      "asion": 2047,
      "roe": 2048,
      "rout": 2049,
      "roll": 2050,
      "round": 2051,
      "ised": 2052,
      "oux": 2053,
      "dece": 2054,
      "deta": 2055,
      "devis": 2056,
      "determin": 2057,
      "ings": 2058,
      "ames": 2059,
      "amation": 2060,
      "amph": 2061,
      "ambass": 2062,
      "leag": 2063,
      "lete": 2064,
      "olish": 2065,
      "sea": 2066,
      "sec": 2067,
      "seas": 2068,
      "seem": 2069,
      "seized": 2070,
      "section": 2071,
      "conqu": 2072,
      "concent": 2073,
      "concept": 2074,
      "concer": 2075,
      "confron": 2076,
      "ily": 2077,
      "unfair": 2078,
      "omic": 2079,
      "ado": 2080,
      "adv": 2081,
      "ador": 2082,
      "adually": 2083,
      "fort": 2084,
      "resear": 2085,
      "beyon": 2086,
      "vement": 2087,
      "vember": 2088,
      "uts": 2089,
      "rist": 2090,
      "ribut": 2091,
      "rimin": 2092,
      "ney": 2093,
      "necess": 2094,
      "network": 2095,
      "aining": 2096,
      "chers": 2097,
      "chec": 2098,
      "china": 2099,
      "statue": 2100,
      "ghter": 2101,
      "ghters": 2102,
      "idate": 2103,
      "tscom": 2104,
      "oppress": 2105,
      "irc": 2106,
      "ima": 2107,
      "ime": 2108,
      "imp": 2109,
      "impo": 2110,
      "image": 2111,
      "imposing": 2112,
      "procl": 2113,
      "proved": 2114,
      "provi": 2115,
      "provid": 2116,
      "propos": 2117,
      "term": 2118,
      "tering": 2119,
      "suff": 2120,
      "sugar": 2121,
      "suffi": 2122,
      "whom": 2123,
      "whist": 2124,
      "ock": 2125,
      "iest": 2126,
      "ured": 2127,
      "urban": 2128,
      "lages": 2129,
      "libr": 2130,
      "light": 2131,
      "lift": 2132,
      "pressed": 2133,
      "pressure": 2134,
      "commo": 2135,
      "usive": 2136,
      "cold": 2137,
      "color": 2138,
      "collap": 2139,
      "istence": 2140,
      "examp": 2141,
      "extre": 2142,
      "expressed": 2143,
      "existence": 2144,
      "aged": 2145,
      "moved": 2146,
      "moder": 2147,
      "moving": 2148,
      "ows": 2149,
      "owed": 2150,
      "ults": 2151,
      "wars": 2152,
      "197": 2153,
      "1918": 2154,
      "1920": 2155,
      "1921": 2156,
      "1992": 2157,
      "manncor": 2158,
      "manufact": 2159,
      "held": 2160,
      "health": 2161,
      "words": 2162,
      "trave": 2163,
      "trait": 2164,
      "governor": 2165,
      "governors": 2166,
      "empi": 2167,
      "ples": 2168,
      "plies": 2169,
      "plant": 2170,
      "poll": 2171,
      "poland": 2172,
      "diffi": 2173,
      "ignor": 2174,
      "ounced": 2175,
      "abolish": 2176,
      "frame": 2177,
      "frustration": 2178,
      "ials": 2179,
      "ively": 2180,
      "parts": 2181,
      "berlin": 2182,
      "norse": 2183,
      "ately": 2184,
      "clo": 2185,
      "clim": 2186,
      "clinton": 2187,
      "cession": 2188,
      "colony": 2189,
      "colonize": 2190,
      "175": 2191,
      "1700s": 2192,
      "180": 2193,
      "1819": 2194,
      "1820": 2195,
      "1850": 2196,
      "1800s": 2197,
      "shut": 2198,
      "shot": 2199,
      "should": 2200,
      "share": 2201,
      "shots": 2202,
      "izing": 2203,
      "percent": 2204,
      "perhap": 2205,
      "permit": 2206,
      "perately": 2207,
      "strains": 2208,
      "que": 2209,
      "quo": 2210,
      "quar": 2211,
      "quite": 2212,
      "weak": 2213,
      "well": 2214,
      "wealth": 2215,
      "antiet": 2216,
      "portrait": 2217,
      "ourished": 2218,
      "action": 2219,
      "active": 2220,
      "actions": 2221,
      "activism": 2222,
      "mostly": 2223,
      "aff": 2224,
      "affi": 2225,
      "nationalities": 2226,
      "blies": 2227,
      "blood": 2228,
      "block": 2229,
      "cient": 2230,
      "centers": 2231,
      "ground": 2232,
      "commander": 2233,
      "few": 2234,
      "mel": 2235,
      "mely": 2236,
      "viously": 2237,
      "acked": 2238,
      "supply": 2239,
      "supplies": 2240,
      "coordin": 2241,
      "cooperation": 2242,
      "space": 2243,
      "assistance": 2244,
      "whose": 2245,
      "politically": 2246,
      "aust": 2247,
      "marine": 2248,
      "mario": 2249,
      "martin": 2250,
      "marily": 2251,
      "iction": 2252,
      "grain": 2253,
      "gradually": 2254,
      "minchi": 2255,
      "puerto": 2256,
      "reds": 2257,
      "jobs": 2258,
      "joined": 2259,
      "serve": 2260,
      "serra": 2261,
      "interior": 2262,
      "independent": 2263,
      "southwest": 2264,
      "times": 2265,
      "regimes": 2266,
      "aked": 2267,
      "jud": 2268,
      "juan": 2269,
      "llan": 2270,
      "llors": 2271,
      "lock": 2272,
      "demand": 2273,
      "portion": 2274,
      "virt": 2275,
      "decided": 2276,
      "powerful": 2277,
      "ideas": 2278,
      "idealism": 2279,
      "ideological": 2280,
      "previously": 2281,
      "type": 2282,
      "tyran": 2283,
      "tribes": 2284,
      "lawmak": 2285,
      "courts": 2286,
      "ected": 2287,
      "prof": 2288,
      "pract": 2289,
      "ville": 2290,
      "villages": 2291,
      "better": 2292,
      "changed": 2293,
      "presented": 2294,
      "agement": 2295,
      "mond": 2296,
      "monu": 2297,
      "monarchy": 2298,
      "monroe": 2299,
      "militant": 2300,
      "positions": 2301,
      "basic": 2302,
      "basis": 2303,
      "county": 2304,
      "country": 2305,
      "goals": 2306,
      "pening": 2307,
      "troian": 2308,
      "border": 2309,
      "corrup": 2310,
      "creation": 2311,
      "deser": 2312,
      "despite": 2313,
      "desperately": 2314,
      "gescal": 2315,
      "hood": 2316,
      "largest": 2317,
      "largescal": 2318,
      "signs": 2319,
      "signifi": 2320,
      "tains": 2321,
      "uel": 2322,
      "voting": 2323,
      "themsel": 2324,
      "essential": 2325,
      "statehood": 2326,
      "immediate": 2327,
      "producing": 2328,
      "1862": 2329,
      "1863": 2330,
      "1865": 2331,
      "democratic": 2332,
      "lost": 2333,
      "loose": 2334,
      "loyal": 2335,
      "treatment": 2336,
      "indian": 2337,
      "artists": 2338,
      "represents": 2339,
      "understood": 2340,
      "southerner": 2341,
      "southerners": 2342,
      "strongly": 2343,
      "grown": 2344,
      "1500s": 2345,
      "founding": 2346,
      "foundation": 2347,
      "harry": 2348,
      "harnessed": 2349,
      "iana": 2350,
      "rico": 2351,
      "sold": 2352,
      "solid": 2353,
      "1783": 2354,
      "1789": 2355,
      "shipping": 2356,
      "believe": 2357,
      "penns": 2358,
      "japanese": 2359,
      "confederation": 2360,
      "confederacy": 2361,
      "nowled": 2362,
      "companies": 2363,
      "complete": 2364,
      "planes": 2365,
      "1773": 2366,
      "1776": 2367,
      "communal": 2368,
      "communism": 2369,
      "cannot": 2370,
      "longterm": 2371,
      "november": 2372,
      "navies": 2373,
      "trees": 2374,
      "ucky": 2375,
      "victories": 2376,
      "english": 2377,
      "republicans": 2378,
      "expand": 2379,
      "strugg": 2380,
      "nativeamerican": 2381,
      "prevented": 2382,
      "printscom": 2383,
      "immigration": 2384,
      "equality": 2385,
      "distant": 2386,
      "district": 2387,
      "distribut": 2388,
      "fourth": 2389,
      "selfsuffi": 2390,
      "progressive": 2391,
      "progressivism": 2392,
      "territory": 2393,
      "1944": 2394,
      "1945": 2395,
      "1948": 2396,
      "northerners": 2397,
      "largely": 2398,
      "hoped": 2399,
      "ponents": 2400,
      "valley": 2401,
      "stein": 2402,
      "stead": 2403,
      "reaching": 2404,
      "nearby": 2405,
      "protects": 2406,
      "preserved": 2407,
      "truce": 2408,
      "francis": 2409,
      "attacked": 2410,
      "authorized": 2411,
      "regulation": 2412,
      "regulate": 2413,
      "germanys": 2414,
      "21st": 2415,
      "banks": 2416,
      "brief": 2417,
      "craft": 2418,
      "carol": 2419,
      "cargo": 2420,
      "denied": 2421,
      "eastman": 2422,
      "faced": 2423,
      "fried": 2424,
      "human": 2425,
      "happening": 2426,
      "korean": 2427,
      "primarily": 2428,
      "paine": 2429,
      "sense": 2430,
      "tire": 2431,
      "vocal": 2432,
      "writers": 2433,
      "invaded": 2434,
      "invasion": 2435,
      "reforms": 2436,
      "conditions": 2437,
      "submarine": 2438,
      "laborers": 2439,
      "collected": 2440,
      "collection": 2441,
      "point": 2442,
      "1930s": 2443,
      "1764": 2444,
      "market": 2445,
      "maintained": 2446,
      "naturally": 2447,
      "possess": 2448,
      "businesses": 2449,
      "claims": 2450,
      "claimed": 2451,
      "gettysburg": 2452,
      "guarantees": 2453,
      "cust": 2454,
      "cuba": 2455,
      "holding": 2456,
      "make": 2457,
      "objected": 2458,
      "richmond": 2459,
      "willing": 2460,
      "insisted": 2461,
      "annah": 2462,
      "announced": 2463,
      "assemblies": 2464,
      "separation": 2465,
      "separate": 2466,
      "unea": 2467,
      "restricted": 2468,
      "lyndon": 2469,
      "exception": 2470,
      "expected": 2471,
      "1950s": 2472,
      "wellyn": 2473,
      "tensions": 2474,
      "goods": 2475,
      "curring": 2476,
      "legislature": 2477,
      "principles": 2478,
      "explorers": 2479,
      "documents": 2480,
      "negotiated": 2481,
      "negotiations": 2482,
      "employment": 2483,
      "2001": 2484,
      "aiting": 2485,
      "bitter": 2486,
      "birth": 2487,
      "bull": 2488,
      "covered": 2489,
      "credit": 2490,
      "credits": 2491,
      "fears": 2492,
      "feared": 2493,
      "grip": 2494,
      "six": 2495,
      "sioux": 2496,
      "various": 2497,
      "varied": 2498,
      "attract": 2499,
      "attracted": 2500,
      "ordered": 2501,
      "ordinary": 2502,
      "stock": 2503,
      "stocks": 2504,
      "conservatives": 2505,
      "univers": 2506,
      "charge": 2507,
      "chancellors": 2508,
      "improve": 2509,
      "improved": 2510,
      "transformation": 2511,
      "costs": 2512,
      "woodrow": 2513,
      "hostilities": 2514,
      "1960s70s": 2515,
      "railroads": 2516,
      "secretary": 2517,
      "augustine": 2518,
      "abraham": 2519,
      "broke": 2520,
      "bomb": 2521,
      "crops": 2522,
      "culver": 2523,
      "created": 2524,
      "dutch": 2525,
      "elderly": 2526,
      "focus": 2527,
      "jackie": 2528,
      "luther": 2529,
      "mtv": 2530,
      "mountains": 2531,
      "materials": 2532,
      "patents": 2533,
      "picture": 2534,
      "radical": 2535,
      "racial": 2536,
      "russia": 2537,
      "sitting": 2538,
      "speech": 2539,
      "slide": 2540,
      "shee": 2541,
      "savannah": 2542,
      "twice": 2543,
      "oricalprintscom": 2544,
      "standing": 2545,
      "towers": 2546,
      "ashes": 2547,
      "bettmanncor": 2548,
      "important": 2549,
      "occupation": 2550,
      "appointed": 2551,
      "columbus": 2552,
      "1980s": 2553,
      "divergence": 2554,
      "diplomatic": 2555,
      "parliament": 2556,
      "strengthen": 2557,
      "question": 2558,
      "technological": 2559,
      "violence": 2560,
      "association": 2561,
      "discuss": 2562,
      "precedent": 2563,
      "baseball": 2564,
      "counterculture": 2565,
      "corporation": 2566,
      "benefi": 2567,
      "citizens": 2568,
      "friendly": 2569,
      "departmentnational": 2570,
      "assembly": 2571,
      "isolationism": 2572,
      "frontier": 2573,
      "committee": 2574,
      "failed": 2575,
      "competition": 2576,
      "punishment": 2577,
      "purchase": 2578,
      "environmental": 2579,
      "connected": 2580,
      "challenges": 2581,
      "aafpgetty": 2582,
      "bottom": 2583,
      "brought": 2584,
      "candidate": 2585,
      "cowboy": 2586,
      "doubled": 2587,
      "dropped": 2588,
      "evidence": 2589,
      "finley": 2590,
      "famous": 2591,
      "fueled": 2592,
      "greece": 2593,
      "house": 2594,
      "horses": 2595,
      "kentucky": 2596,
      "llewellyn": 2597,
      "madison": 2598,
      "money": 2599,
      "mcclellan": 2600,
      "payments": 2601,
      "swed": 2602,
      "slowly": 2603,
      "tamaafpgetty": 2604,
      "wwwhist": 2605,
      "wrote": 2606,
      "third": 2607,
      "threeday": 2608,
      "theodore": 2609,
      "integr": 2610,
      "insurgency": 2611,
      "intensifi": 2612,
      "inconclusive": 2613,
      "infantry": 2614,
      "editor": 2615,
      "escaped": 2616,
      "steel": 2617,
      "rebels": 2618,
      "revealed": 2619,
      "received": 2620,
      "recogn": 2621,
      "rebellion": 2622,
      "remarkable": 2623,
      "december": 2624,
      "detail": 2625,
      "devised": 2626,
      "determined": 2627,
      "ambassador": 2628,
      "league": 2629,
      "seemed": 2630,
      "sectional": 2631,
      "conquered": 2632,
      "concentrated": 2633,
      "beyond": 2634,
      "necessary": 2635,
      "checks": 2636,
      "oppressive": 2637,
      "proclamation": 2638,
      "provide": 2639,
      "provides": 2640,
      "library": 2641,
      "commod": 2642,
      "example": 2643,
      "extremely": 2644,
      "manufacturing": 2645,
      "ignored": 2646,
      "framework": 2647,
      "perhaps": 2648,
      "antietam": 2649,
      "bloodiest": 2650,
      "minchih": 2651,
      "tyrannical": 2652,
      "lawmakers": 2653,
      "troiani": 2654,
      "largescale": 2655,
      "themselves": 2656,
      "distributed": 2657,
      "universal": 2658,
      "chancellorsville": 2659,
      "bettmanncorbis": 2660,
      "wwwhistoricalprintscom": 2661,
      "08": 2662,
      "0were": 2663,
      "1which": 2664,
      "1000": 2665,
      "11812": 2666,
      "24": 2667,
      "28": 2668,
      "29": 2669,
      "2main": 2670,
      "2000": 2671,
      "216": 2672,
      "250": 2673,
      "2preserve": 2674,
      "33": 2675,
      "3in": 2676,
      "3political": 2677,
      "311812": 2678,
      "32main": 2679,
      "41": 2680,
      "45": 2681,
      "47": 2682,
      "49": 2683,
      "4th": 2684,
      "4culture": 2685,
      "42preserve": 2686,
      "43political": 2687,
      "56": 2688,
      "57": 2689,
      "500": 2690,
      "5000": 2691,
      "53in": 2692,
      "62": 2693,
      "63": 2694,
      "64": 2695,
      "6000": 2696,
      "60000": 2697,
      "626": 2698,
      "6conquered": 2699,
      "60were": 2700,
      "61which": 2701,
      "76": 2702,
      "7by": 2703,
      "7216": 2704,
      "89": 2705,
      "8thomas": 2706,
      "86000": 2707,
      "93": 2708,
      "95": 2709,
      "90s": 2710,
      "athe": 2711,
      "aver": 2712,
      "abe": 2713,
      "astat": 2714,
      "aim": 2715,
      "avi": 2716,
      "away": 2717,
      "awes": 2718,
      "aii": 2719,
      "ael": 2720,
      "ahead": 2721,
      "aults": 2722,
      "aordinary": 2723,
      "bon": 2724,
      "bar": 2725,
      "bic": 2726,
      "bent": 2727,
      "ble": 2728,
      "bia": 2729,
      "bay": 2730,
      "bure": 2731,
      "bine": 2732,
      "bright": 2733,
      "bile": 2734,
      "barri": 2735,
      "bigh": 2736,
      "bbed": 2737,
      "cen": 2738,
      "cil": 2739,
      "camer": 2740,
      "cop": 2741,
      "cir": 2742,
      "cant": 2743,
      "core": 2744,
      "cci": 2745,
      "catt": 2746,
      "cance": 2747,
      "crit": 2748,
      "cart": 2749,
      "cry": 2750,
      "crest": 2751,
      "cases": 2752,
      "csar": 2753,
      "coff": 2754,
      "cuts": 2755,
      "crimin": 2756,
      "da": 2757,
      "dy": 2758,
      "dre": 2759,
      "dent": 2760,
      "ders": 2761,
      "dwi": 2762,
      "dest": 2763,
      "dod": 2764,
      "dau": 2765,
      "dons": 2766,
      "drew": 2767,
      "dams": 2768,
      "dick": 2769,
      "dating": 2770,
      "dashes": 2771,
      "ey": 2772,
      "eth": 2773,
      "ean": 2774,
      "eis": 2775,
      "ely": 2776,
      "eman": 2777,
      "eet": 2778,
      "eces": 2779,
      "eign": 2780,
      "ell": 2781,
      "evan": 2782,
      "eered": 2783,
      "elim": 2784,
      "eigh": 2785,
      "eight": 2786,
      "egreg": 2787,
      "fth": 2788,
      "fle": 2789,
      "fil": 2790,
      "fut": 2791,
      "fet": 2792,
      "foun": 2793,
      "fay": 2794,
      "fered": 2795,
      "fund": 2796,
      "food": 2797,
      "flap": 2798,
      "gs": 2799,
      "gy": 2800,
      "gon": 2801,
      "gre": 2802,
      "gain": 2803,
      "gid": 2804,
      "gers": 2805,
      "gall": 2806,
      "gary": 2807,
      "gore": 2808,
      "gated": 2809,
      "gone": 2810,
      "gold": 2811,
      "gie": 2812,
      "gio": 2813,
      "gians": 2814,
      "ggl": 2815,
      "hy": 2816,
      "hon": 2817,
      "hed": 2818,
      "hat": 2819,
      "hand": 2820,
      "him": 2821,
      "hur": 2822,
      "hers": 2823,
      "hul": 2824,
      "htt": 2825,
      "hill": 2826,
      "hast": 2827,
      "hmore": 2828,
      "hav": 2829,
      "hum": 2830,
      "hair": 2831,
      "hered": 2832,
      "handed": 2833,
      "hund": 2834,
      "haw": 2835,
      "havi": 2836,
      "ik": 2837,
      "ix": 2838,
      "ier": 2839,
      "ias": 2840,
      "ient": 2841,
      "iment": 2842,
      "iers": 2843,
      "iated": 2844,
      "iwo": 2845,
      "ift": 2846,
      "ifederalists": 2847,
      "jer": 2848,
      "jun": 2849,
      "jac": 2850,
      "jay": 2851,
      "jec": 2852,
      "jew": 2853,
      "jects": 2854,
      "jima": 2855,
      "ker": 2856,
      "kam": 2857,
      "kir": 2858,
      "kho": 2859,
      "kee": 2860,
      "krong": 2861,
      "knowled": 2862,
      "lm": 2863,
      "ler": 2864,
      "lon": 2865,
      "len": 2866,
      "lat": 2867,
      "lic": 2868,
      "lou": 2869,
      "lla": 2870,
      "lli": 2871,
      "lus": 2872,
      "lled": 2873,
      "lum": 2874,
      "lacked": 2875,
      "mer": 2876,
      "mes": 2877,
      "mom": 2878,
      "mans": 2879,
      "map": 2880,
      "munit": 2881,
      "mag": 2882,
      "mul": 2883,
      "mish": 2884,
      "mig": 2885,
      "mast": 2886,
      "mich": 2887,
      "mult": 2888,
      "mild": 2889,
      "mped": 2890,
      "macy": 2891,
      "muse": 2892,
      "mians": 2893,
      "mansion": 2894,
      "mbol": 2895,
      "might": 2896,
      "mandy": 2897,
      "mix": 2898,
      "nd": 2899,
      "ni": 2900,
      "ner": 2901,
      "nand": 2902,
      "nar": 2903,
      "nic": 2904,
      "nas": 2905,
      "nom": 2906,
      "nts": 2907,
      "nag": 2908,
      "nial": 2909,
      "nity": 2910,
      "name": 2911,
      "none": 2912,
      "nance": 2913,
      "nice": 2914,
      "ness": 2915,
      "nuc": 2916,
      "nization": 2917,
      "nigh": 2918,
      "nanced": 2919,
      "oa": 2920,
      "os": 2921,
      "oic": 2922,
      "ois": 2923,
      "ode": 2924,
      "ower": 2925,
      "oot": 2926,
      "osion": 2927,
      "ohi": 2928,
      "oath": 2929,
      "ograph": 2930,
      "pan": 2931,
      "pic": 2932,
      "pation": 2933,
      "pers": 2934,
      "pot": 2935,
      "punit": 2936,
      "pted": 2937,
      "psed": 2938,
      "pace": 2939,
      "page": 2940,
      "pons": 2941,
      "pents": 2942,
      "pains": 2943,
      "piness": 2944,
      "p38": 2945,
      "path": 2946,
      "pines": 2947,
      "plied": 2948,
      "paper": 2949,
      "papers": 2950,
      "pamph": 2951,
      "rd": 2952,
      "ron": 2953,
      "ring": 2954,
      "ram": 2955,
      "run": 2956,
      "rsu": 2957,
      "rus": 2958,
      "rag": 2959,
      "rul": 2960,
      "rces": 2961,
      "rant": 2962,
      "rum": 2963,
      "rho": 2964,
      "rates": 2965,
      "sal": 2966,
      "sand": 2967,
      "sing": 2968,
      "sam": 2969,
      "sne": 2970,
      "sover": 2971,
      "swe": 2972,
      "ssed": 2973,
      "sco": 2974,
      "side": 2975,
      "scor": 2976,
      "scre": 2977,
      "sable": 2978,
      "site": 2979,
      "sort": 2980,
      "sky": 2981,
      "spark": 2982,
      "skir": 2983,
      "tan": 2984,
      "tar": 2985,
      "ties": 2986,
      "tman": 2987,
      "tical": 2988,
      "ture": 2989,
      "tide": 2990,
      "tors": 2991,
      "tile": 2992,
      "tests": 2993,
      "tched": 2994,
      "tired": 2995,
      "taft": 2996,
      "tang": 2997,
      "uit": 2998,
      "ude": 2999,
      "ule": 3000,
      "uation": 3001,
      "uly": 3002,
      "uri": 3003,
      "ugh": 3004,
      "uid": 3005,
      "usu": 3006,
      "ugu": 3007,
      "uenced": 3008,
      "uential": 3009,
      "ugs": 3010,
      "vy": 3011,
      "vz": 3012,
      "von": 3013,
      "vand": 3014,
      "vit": 3015,
      "vic": 3016,
      "vation": 3017,
      "vies": 3018,
      "vig": 3019,
      "vate": 3020,
      "vice": 3021,
      "vations": 3022,
      "vowed": 3023,
      "vastat": 3024,
      "voic": 3025,
      "wa": 3026,
      "wit": 3027,
      "wis": 3028,
      "wall": 3029,
      "wave": 3030,
      "wound": 3031,
      "wild": 3032,
      "wage": 3033,
      "wages": 3034,
      "wise": 3035,
      "wrong": 3036,
      "waiting": 3037,
      "xme": 3038,
      "xury": 3039,
      "yst": 3040,
      "you": 3041,
      "ze": 3042,
      "zo": 3043,
      "zan": 3044,
      "zed": 3045,
      "zuni": 3046,
      "thin": 3047,
      "thon": 3048,
      "thing": 3049,
      "thad": 3050,
      "thres": 3051,
      "thri": 3052,
      "thus": 3053,
      "thical": 3054,
      "thod": 3055,
      "threw": 3056,
      "though": 3057,
      "theory": 3058,
      "inal": 3059,
      "init": 3060,
      "inas": 3061,
      "inet": 3062,
      "inary": 3063,
      "inade": 3064,
      "infe": 3065,
      "institution": 3066,
      "indis": 3067,
      "intim": 3068,
      "intro": 3069,
      "inno": 3070,
      "inchief": 3071,
      "insure": 3072,
      "incts": 3073,
      "instruction": 3074,
      "insecurity": 3075,
      "info": 3076,
      "inery": 3077,
      "instead": 3078,
      "inois": 3079,
      "anor": 3080,
      "anal": 3081,
      "anas": 3082,
      "anch": 3083,
      "ants": 3084,
      "angr": 3085,
      "anger": 3086,
      "anarchy": 3087,
      "ancient": 3088,
      "anthon": 3089,
      "erat": 3090,
      "ering": 3091,
      "erfi": 3092,
      "erman": 3093,
      "erate": 3094,
      "erred": 3095,
      "erich": 3096,
      "erran": 3097,
      "erting": 3098,
      "erog": 3099,
      "erik": 3100,
      "erosion": 3101,
      "ertman": 3102,
      "onoun": 3103,
      "onable": 3104,
      "onomic": 3105,
      "onado": 3106,
      "onzo": 3107,
      "eds": 3108,
      "edy": 3109,
      "edgar": 3110,
      "ession": 3111,
      "escor": 3112,
      "escal": 3113,
      "esca": 3114,
      "ening": 3115,
      "enans": 3116,
      "enland": 3117,
      "enact": 3118,
      "enger": 3119,
      "engin": 3120,
      "enum": 3121,
      "enho": 3122,
      "enship": 3123,
      "enomen": 3124,
      "enada": 3125,
      "enforced": 3126,
      "ennial": 3127,
      "ats": 3128,
      "ator": 3129,
      "atro": 3130,
      "ative": 3131,
      "atical": 3132,
      "atform": 3133,
      "ateral": 3134,
      "atism": 3135,
      "atory": 3136,
      "atio": 3137,
      "atog": 3138,
      "atomic": 3139,
      "orn": 3140,
      "oric": 3141,
      "oring": 3142,
      "oria": 3143,
      "orating": 3144,
      "ordesign": 3145,
      "orships": 3146,
      "orously": 3147,
      "orbac": 3148,
      "orerich": 3149,
      "sting": 3150,
      "stag": 3151,
      "stant": 3152,
      "stone": 3153,
      "steu": 3154,
      "steff": 3155,
      "story": 3156,
      "stud": 3157,
      "stained": 3158,
      "storm": 3159,
      "stalli": 3160,
      "staked": 3161,
      "ald": 3162,
      "aling": 3163,
      "alter": 3164,
      "alive": 3165,
      "alask": 3166,
      "allied": 3167,
      "alonzo": 3168,
      "andrew": 3169,
      "androll": 3170,
      "ars": 3171,
      "arist": 3172,
      "arity": 3173,
      "ariz": 3174,
      "arose": 3175,
      "arian": 3176,
      "arps": 3177,
      "arsen": 3178,
      "arrest": 3179,
      "arization": 3180,
      "arkans": 3181,
      "ites": 3182,
      "itish": 3183,
      "itical": 3184,
      "itary": 3185,
      "itting": 3186,
      "itime": 3187,
      "iterran": 3188,
      "itarian": 3189,
      "ioned": 3190,
      "refi": 3191,
      "rebr": 3192,
      "requ": 3193,
      "reci": 3194,
      "recent": 3195,
      "remin": 3196,
      "recoun": 3197,
      "reestablish": 3198,
      "reject": 3199,
      "rebuild": 3200,
      "recr": 3201,
      "refri": 3202,
      "revoc": 3203,
      "rebuilding": 3204,
      "remed": 3205,
      "reapers": 3206,
      "replaced": 3207,
      "reworks": 3208,
      "recession": 3209,
      "reaffi": 3210,
      "recreation": 3211,
      "retire": 3212,
      "recurring": 3213,
      "rethin": 3214,
      "icol": 3215,
      "icut": 3216,
      "icter": 3217,
      "icial": 3218,
      "ician": 3219,
      "icultural": 3220,
      "top": 3221,
      "told": 3222,
      "tomo": 3223,
      "tobac": 3224,
      "total": 3225,
      "tough": 3226,
      "ased": 3227,
      "asak": 3228,
      "aside": 3229,
      "asively": 3230,
      "room": 3231,
      "rous": 3232,
      "rosh": 3233,
      "roach": 3234,
      "rohun": 3235,
      "royed": 3236,
      "enton": 3237,
      "entum": 3238,
      "entered": 3239,
      "entio": 3240,
      "entang": 3241,
      "entennial": 3242,
      "iser": 3243,
      "isla": 3244,
      "ission": 3245,
      "isiana": 3246,
      "isabe": 3247,
      "del": 3248,
      "defi": 3249,
      "dela": 3250,
      "deus": 3251,
      "dewe": 3252,
      "deci": 3253,
      "deliber": 3254,
      "depos": 3255,
      "deposed": 3256,
      "delay": 3257,
      "death": 3258,
      "devastat": 3259,
      "aments": 3260,
      "ambit": 3261,
      "amines": 3262,
      "ammunit": 3263,
      "amatical": 3264,
      "let": 3265,
      "lear": 3266,
      "lement": 3267,
      "leted": 3268,
      "least": 3269,
      "leave": 3270,
      "lements": 3271,
      "leif": 3272,
      "leases": 3273,
      "levy": 3274,
      "lewis": 3275,
      "olis": 3276,
      "olio": 3277,
      "sey": 3278,
      "sely": 3279,
      "sequ": 3280,
      "seced": 3281,
      "seau": 3282,
      "secess": 3283,
      "seven": 3284,
      "segreg": 3285,
      "secession": 3286,
      "seeds": 3287,
      "confi": 3288,
      "consu": 3289,
      "contr": 3290,
      "condu": 3291,
      "concor": 3292,
      "consc": 3293,
      "consen": 3294,
      "contrad": 3295,
      "confer": 3296,
      "consid": 3297,
      "conserve": 3298,
      "consolid": 3299,
      "consequ": 3300,
      "ilors": 3301,
      "unce": 3302,
      "unli": 3303,
      "uncom": 3304,
      "unions": 3305,
      "uninter": 3306,
      "unges": 3307,
      "unable": 3308,
      "unhap": 3309,
      "unwrit": 3310,
      "unrest": 3311,
      "unless": 3312,
      "unreas": 3313,
      "unched": 3314,
      "unemployed": 3315,
      "unanim": 3316,
      "unhealth": 3317,
      "unwilling": 3318,
      "unemployment": 3319,
      "unquestion": 3320,
      "unfet": 3321,
      "unusu": 3322,
      "oms": 3323,
      "ading": 3324,
      "adap": 3325,
      "advan": 3326,
      "adian": 3327,
      "advers": 3328,
      "adows": 3329,
      "adenans": 3330,
      "ford": 3331,
      "forth": 3332,
      "forgot": 3333,
      "forcing": 3334,
      "ationship": 3335,
      "aces": 3336,
      "acce": 3337,
      "acter": 3338,
      "acade": 3339,
      "access": 3340,
      "accept": 3341,
      "accommod": 3342,
      "aciers": 3343,
      "result": 3344,
      "resum": 3345,
      "resistance": 3346,
      "results": 3347,
      "respons": 3348,
      "verde": 3349,
      "versy": 3350,
      "version": 3351,
      "verra": 3352,
      "versa": 3353,
      "verished": 3354,
      "verstein": 3355,
      "vertical": 3356,
      "bean": 3357,
      "beef": 3358,
      "begun": 3359,
      "behin": 3360,
      "behavi": 3361,
      "lyph": 3362,
      "vez": 3363,
      "cement": 3364,
      "ceton": 3365,
      "ceme": 3366,
      "cease": 3367,
      "uti": 3368,
      "uter": 3369,
      "utal": 3370,
      "utral": 3371,
      "utics": 3372,
      "uttering": 3373,
      "utants": 3374,
      "wers": 3375,
      "wered": 3376,
      "first": 3377,
      "ried": 3378,
      "rime": 3379,
      "ript": 3380,
      "ristop": 3381,
      "rigid": 3382,
      "nether": 3383,
      "nett": 3384,
      "neigh": 3385,
      "neely": 3386,
      "neutral": 3387,
      "ainment": 3388,
      "aints": 3389,
      "ching": 3390,
      "chry": 3391,
      "chuc": 3392,
      "chappe": 3393,
      "chines": 3394,
      "christ": 3395,
      "chvez": 3396,
      "christop": 3397,
      "ids": 3398,
      "iding": 3399,
      "iday": 3400,
      "idated": 3401,
      "amerig": 3402,
      "ope": 3403,
      "opers": 3404,
      "opted": 3405,
      "optim": 3406,
      "opho": 3407,
      "oppression": 3408,
      "opened": 3409,
      "opponents": 3410,
      "ophy": 3411,
      "iran": 3412,
      "irish": 3413,
      "irrevoc": 3414,
      "geable": 3415,
      "geopol": 3416,
      "geograph": 3417,
      "impe": 3418,
      "impl": 3419,
      "imper": 3420,
      "impart": 3421,
      "imported": 3422,
      "prove": 3423,
      "proper": 3424,
      "proced": 3425,
      "project": 3426,
      "proval": 3427,
      "projected": 3428,
      "propri": 3429,
      "provisions": 3430,
      "prohib": 3431,
      "promot": 3432,
      "proponents": 3433,
      "proble": 3434,
      "projec": 3435,
      "tery": 3436,
      "superi": 3437,
      "subur": 3438,
      "summ": 3439,
      "sulli": 3440,
      "sustained": 3441,
      "whel": 3442,
      "whites": 3443,
      "ocide": 3444,
      "ocaust": 3445,
      "occurring": 3446,
      "pearl": 3447,
      "uraf": 3448,
      "urging": 3449,
      "laves": 3450,
      "laps": 3451,
      "lafay": 3452,
      "launched": 3453,
      "overbo": 3454,
      "overseas": 3455,
      "overwhel": 3456,
      "lier": 3457,
      "lians": 3458,
      "lived": 3459,
      "lipsed": 3460,
      "presley": 3461,
      "comers": 3462,
      "compr": 3463,
      "composed": 3464,
      "combine": 3465,
      "ctive": 3466,
      "ctious": 3467,
      "usa": 3468,
      "using": 3469,
      "usko": 3470,
      "apes": 3471,
      "apach": 3472,
      "appre": 3473,
      "applied": 3474,
      "apolis": 3475,
      "approval": 3476,
      "colm": 3477,
      "collaps": 3478,
      "istic": 3479,
      "istice": 3480,
      "istran": 3481,
      "otas": 3482,
      "otland": 3483,
      "expo": 3484,
      "extr": 3485,
      "export": 3486,
      "exten": 3487,
      "express": 3488,
      "extermin": 3489,
      "existed": 3490,
      "exhib": 3491,
      "extent": 3492,
      "examines": 3493,
      "agon": 3494,
      "aging": 3495,
      "agend": 3496,
      "agile": 3497,
      "agged": 3498,
      "agency": 3499,
      "wield": 3500,
      "poor": 3501,
      "potom": 3502,
      "ends": 3503,
      "ending": 3504,
      "endure": 3505,
      "enduring": 3506,
      "endured": 3507,
      "moil": 3508,
      "mother": 3509,
      "mosc": 3510,
      "mobil": 3511,
      "movies": 3512,
      "model": 3513,
      "ularly": 3514,
      "brandy": 3515,
      "branch": 3516,
      "brutal": 3517,
      "earlier": 3518,
      "ware": 3519,
      "wary": 3520,
      "wartime": 3521,
      "warned": 3522,
      "newfound": 3523,
      "newcomers": 3524,
      "19be": 3525,
      "1900": 3526,
      "1917": 3527,
      "1915": 3528,
      "1950": 3529,
      "1914": 3530,
      "1908": 3531,
      "manage": 3532,
      "managed": 3533,
      "managing": 3534,
      "nationwide": 3535,
      "isher": 3536,
      "within": 3537,
      "without": 3538,
      "ette": 3539,
      "etorships": 3540,
      "hev": 3541,
      "heed": 3542,
      "hemis": 3543,
      "height": 3544,
      "hemians": 3545,
      "rome": 3546,
      "romise": 3547,
      "word": 3548,
      "worse": 3549,
      "alled": 3550,
      "allies": 3551,
      "allwhite": 3552,
      "trine": 3553,
      "traced": 3554,
      "trenton": 3555,
      "trends": 3556,
      "governed": 3557,
      "governing": 3558,
      "embo": 3559,
      "embit": 3560,
      "embar": 3561,
      "emorating": 3562,
      "pled": 3563,
      "pluses": 3564,
      "platform": 3565,
      "plunges": 3566,
      "places": 3567,
      "poles": 3568,
      "polls": 3569,
      "polarization": 3570,
      "divers": 3571,
      "igation": 3572,
      "abled": 3573,
      "ables": 3574,
      "abund": 3575,
      "abuses": 3576,
      "fray": 3577,
      "frule": 3578,
      "fragile": 3579,
      "ialism": 3580,
      "effi": 3581,
      "governmentmanaged": 3582,
      "ivegetty": 3583,
      "pare": 3584,
      "partt": 3585,
      "parks": 3586,
      "parents": 3587,
      "pardons": 3588,
      "paratro": 3589,
      "berry": 3590,
      "bernice": 3591,
      "landing": 3592,
      "landown": 3593,
      "norwe": 3594,
      "normal": 3595,
      "normandy": 3596,
      "clack": 3597,
      "class": 3598,
      "close": 3599,
      "clashes": 3600,
      "clanor": 3601,
      "content": 3602,
      "contain": 3603,
      "contained": 3604,
      "contested": 3605,
      "colonized": 3606,
      "colonization": 3607,
      "170": 3608,
      "17000": 3609,
      "1738": 3610,
      "1790s": 3611,
      "1816": 3612,
      "1821": 3613,
      "1835": 3614,
      "1836": 3615,
      "1852": 3616,
      "1898": 3617,
      "1876": 3618,
      "ays": 3619,
      "shing": 3620,
      "show": 3621,
      "shack": 3622,
      "shows": 3623,
      "shift": 3624,
      "shoot": 3625,
      "sherman": 3626,
      "sharps": 3627,
      "shapes": 3628,
      "soup": 3629,
      "sources": 3630,
      "pero": 3631,
      "perse": 3632,
      "perform": 3633,
      "persec": 3634,
      "yearning": 3635,
      "presidenc": 3636,
      "presidency": 3637,
      "struts": 3638,
      "stricter": 3639,
      "ques": 3640,
      "quis": 3641,
      "quate": 3642,
      "quak": 3643,
      "quiet": 3644,
      "quotas": 3645,
      "week": 3646,
      "antage": 3647,
      "antifederalists": 3648,
      "antisla": 3649,
      "presidents": 3650,
      "pork": 3651,
      "ports": 3652,
      "porters": 3653,
      "ourish": 3654,
      "actor": 3655,
      "actors": 3656,
      "actually": 3657,
      "afted": 3658,
      "noted": 3659,
      "notable": 3660,
      "notables": 3661,
      "tons": 3662,
      "oregon": 3663,
      "illo": 3664,
      "illes": 3665,
      "illustration": 3666,
      "illinois": 3667,
      "nationally": 3668,
      "nationality": 3669,
      "phone": 3670,
      "phere": 3671,
      "phases": 3672,
      "phenomen": 3673,
      "soon": 3674,
      "soto": 3675,
      "ciency": 3676,
      "cibol": 3677,
      "cipation": 3678,
      "centrist": 3679,
      "centuri": 3680,
      "growers": 3681,
      "vention": 3682,
      "venturaf": 3683,
      "attentio": 3684,
      "attainment": 3685,
      "armed": 3686,
      "armame": 3687,
      "armaments": 3688,
      "armistice": 3689,
      "command": 3690,
      "commission": 3691,
      "commemorating": 3692,
      "meat": 3693,
      "means": 3694,
      "meant": 3695,
      "mechan": 3696,
      "method": 3697,
      "upt": 3698,
      "upon": 3699,
      "upton": 3700,
      "legi": 3701,
      "legacy": 3702,
      "politics": 3703,
      "politicians": 3704,
      "politician": 3705,
      "onets": 3706,
      "ressing": 3707,
      "continual": 3708,
      "continually": 3709,
      "astrous": 3710,
      "due": 3711,
      "duction": 3712,
      "dubbed": 3713,
      "dumped": 3714,
      "vik": 3715,
      "vious": 3716,
      "forms": 3717,
      "acknowled": 3718,
      "supporters": 3719,
      "cos": 3720,
      "code": 3721,
      "cosm": 3722,
      "coats": 3723,
      "coopted": 3724,
      "europ": 3725,
      "ips": 3726,
      "ipment": 3727,
      "ippines": 3728,
      "spin": 3729,
      "spur": 3730,
      "spran": 3731,
      "spons": 3732,
      "symbol": 3733,
      "assass": 3734,
      "asslands": 3735,
      "assaults": 3736,
      "asserting": 3737,
      "depicts": 3738,
      "depiction": 3739,
      "depleted": 3740,
      "worlds": 3741,
      "worldwide": 3742,
      "northwest": 3743,
      "outlin": 3744,
      "outlaw": 3745,
      "output": 3746,
      "outdo": 3747,
      "outworn": 3748,
      "constitutions": 3749,
      "ached": 3750,
      "austri": 3751,
      "automo": 3752,
      "dissol": 3753,
      "display": 3754,
      "disappoin": 3755,
      "disability": 3756,
      "disagreements": 3757,
      "discovered": 3758,
      "disintegr": 3759,
      "disabled": 3760,
      "discontent": 3761,
      "disperse": 3762,
      "disastrous": 3763,
      "hispan": 3764,
      "marched": 3765,
      "mariana": 3766,
      "maritime": 3767,
      "marching": 3768,
      "marquis": 3769,
      "marcos": 3770,
      "vespu": 3771,
      "ictions": 3772,
      "grand": 3773,
      "graham": 3774,
      "grenada": 3775,
      "grasslands": 3776,
      "liner": 3777,
      "lintent": 3778,
      "miners": 3779,
      "minated": 3780,
      "redcoats": 3781,
      "setting": 3782,
      "ometers": 3783,
      "dependent": 3784,
      "sera": 3785,
      "served": 3786,
      "servan": 3787,
      "serious": 3788,
      "serpent": 3789,
      "serpents": 3790,
      "socalled": 3791,
      "interest": 3792,
      "interaction": 3793,
      "interracial": 3794,
      "interconnected": 3795,
      "interfered": 3796,
      "intervention": 3797,
      "interdependent": 3798,
      "partly": 3799,
      "parties": 3800,
      "wool": 3801,
      "regain": 3802,
      "regained": 3803,
      "regard": 3804,
      "owned": 3805,
      "afterword": 3806,
      "0spresident": 3807,
      "akened": 3808,
      "boom": 3809,
      "bohemians": 3810,
      "gering": 3811,
      "gerous": 3812,
      "germans": 3813,
      "generation": 3814,
      "genoa": 3815,
      "genocide": 3816,
      "jugated": 3817,
      "locke": 3818,
      "demands": 3819,
      "ulture": 3820,
      "portugu": 3821,
      "publisher": 3822,
      "guam": 3823,
      "guided": 3824,
      "greatly": 3825,
      "greatest": 3826,
      "mainland": 3827,
      "intoler": 3828,
      "congressman": 3829,
      "peoples": 3830,
      "britains": 3831,
      "ideal": 3832,
      "ideals": 3833,
      "nato": 3834,
      "natives": 3835,
      "prelim": 3836,
      "prepare": 3837,
      "sonian": 3838,
      "trial": 3839,
      "trips": 3840,
      "tripled": 3841,
      "course": 3842,
      "prison": 3843,
      "pronoun": 3844,
      "rather": 3845,
      "raised": 3846,
      "someone": 3847,
      "presentday": 3848,
      "yorktown": 3849,
      "elections": 3850,
      "electric": 3851,
      "howard": 3852,
      "montre": 3853,
      "militia": 3854,
      "militias": 3855,
      "umbent": 3856,
      "vanished": 3857,
      "vanni": 3858,
      "inevit": 3859,
      "liberate": 3860,
      "liberalism": 3861,
      "position": 3862,
      "groupings": 3863,
      "basing": 3864,
      "gov": 3865,
      "goal": 3866,
      "going": 3867,
      "pensable": 3868,
      "washingtons": 3869,
      "ocratic": 3870,
      "cessful": 3871,
      "revolutionaries": 3872,
      "20combine": 3873,
      "airs": 3874,
      "airlift": 3875,
      "airplanes": 3876,
      "aircraft": 3877,
      "airports": 3878,
      "boring": 3879,
      "borders": 3880,
      "corps": 3881,
      "correct": 3882,
      "coronado": 3883,
      "create": 3884,
      "creek": 3885,
      "destru": 3886,
      "desire": 3887,
      "desegreg": 3888,
      "hoover": 3889,
      "hoho": 3890,
      "larger": 3891,
      "mills": 3892,
      "ranks": 3893,
      "ranchers": 3894,
      "signer": 3895,
      "signing": 3896,
      "tained": 3897,
      "uded": 3898,
      "votes": 3899,
      "themes": 3900,
      "essays": 3901,
      "ampment": 3902,
      "stategov": 3903,
      "immoral": 3904,
      "immune": 3905,
      "produce": 3906,
      "production": 3907,
      "surges": 3908,
      "surround": 3909,
      "surpluses": 3910,
      "ctioning": 3911,
      "clark": 3912,
      "1861": 3913,
      "1864": 3914,
      "18616": 3915,
      "1860spresident": 3916,
      "generals": 3917,
      "generalization": 3918,
      "democrat": 3919,
      "freedoms": 3920,
      "130": 3921,
      "13th": 3922,
      "13to": 3923,
      "1330": 3924,
      "farming": 3925,
      "farmland": 3926,
      "loved": 3927,
      "look": 3928,
      "lowered": 3929,
      "treaties": 3930,
      "treatise": 3931,
      "include": 3932,
      "artist": 3933,
      "artifi": 3934,
      "representation": 3935,
      "develo": 3936,
      "declaring": 3937,
      "underground": 3938,
      "undergone": 3939,
      "civilized": 3940,
      "civilian": 3941,
      "civilians": 3942,
      "systematic": 3943,
      "1500": 3944,
      "1513": 3945,
      "1550": 3946,
      "1539": 3947,
      "1540": 3948,
      "1522": 3949,
      "culties": 3950,
      "eclipsed": 3951,
      "foundations": 3952,
      "hard": 3953,
      "harsh": 3954,
      "harden": 3955,
      "harness": 3956,
      "ibious": 3957,
      "ibility": 3958,
      "ibbean": 3959,
      "ksburg": 3960,
      "rallied": 3961,
      "rick": 3962,
      "ricts": 3963,
      "ricultural": 3964,
      "sailors": 3965,
      "soli": 3966,
      "encing": 3967,
      "encroach": 3968,
      "enclaves": 3969,
      "encampment": 3970,
      "arriv": 3971,
      "arrive": 3972,
      "arriving": 3973,
      "delegate": 3974,
      "leader": 3975,
      "leading": 3976,
      "controversy": 3977,
      "1781": 3978,
      "1786": 3979,
      "shipment": 3980,
      "shipbuilding": 3981,
      "philos": 3982,
      "philippines": 3983,
      "justices": 3984,
      "develope": 3985,
      "development": 3986,
      "developments": 3987,
      "populated": 3988,
      "confederatio": 3989,
      "1617": 3990,
      "1620": 3991,
      "1600s": 3992,
      "1690": 3993,
      "1688": 3994,
      "16artists": 3995,
      "167216": 3996,
      "balance": 3997,
      "balkans": 3998,
      "balances": 3999,
      "balanced": 4000,
      "cials": 4001,
      "equipment": 4002,
      "venice": 4003,
      "visors": 4004,
      "visible": 4005,
      "westward": 4006,
      "westwa": 4007,
      "organize": 4008,
      "organization": 4009,
      "organizing": 4010,
      "italian": 4011,
      "italians": 4012,
      "compact": 4013,
      "company": 4014,
      "complex": 4015,
      "complied": 4016,
      "computer": 4017,
      "plane": 4018,
      "planters": 4019,
      "planning": 4020,
      "1774": 4021,
      "1778": 4022,
      "1770s": 4023,
      "communications": 4024,
      "federalist": 4025,
      "africa": 4026,
      "africans": 4027,
      "canyon": 4028,
      "canadian": 4029,
      "fully": 4030,
      "historical": 4031,
      "historic": 4032,
      "iii": 4033,
      "longer": 4034,
      "longtime": 4035,
      "longstanding": 4036,
      "navigation": 4037,
      "pients": 4038,
      "pieces": 4039,
      "victors": 4040,
      "engagement": 4041,
      "roads": 4042,
      "struggl": 4043,
      "centralized": 4044,
      "continuing": 4045,
      "continuity": 4046,
      "lincolns": 4047,
      "preventing": 4048,
      "printing": 4049,
      "princeton": 4050,
      "immigrant": 4051,
      "helping": 4052,
      "districts": 4053,
      "evenly": 4054,
      "fourman": 4055,
      "fouryear": 4056,
      "hijack": 4057,
      "hierog": 4058,
      "hirosh": 4059,
      "massive": 4060,
      "rative": 4061,
      "ratif": 4062,
      "smith": 4063,
      "uresgetty": 4064,
      "thorse": 4065,
      "anyone": 4066,
      "althou": 4067,
      "alongside": 4068,
      "remains": 4069,
      "debt": 4070,
      "debated": 4071,
      "dealthe": 4072,
      "prospect": 4073,
      "promised": 4074,
      "territorial": 4075,
      "explored": 4076,
      "explaining": 4077,
      "explode": 4078,
      "1941": 4079,
      "1949": 4080,
      "anticrime": 4081,
      "supremacy": 4082,
      "societies": 4083,
      "johnsonart": 4084,
      "taxed": 4085,
      "burden": 4086,
      "burnett": 4087,
      "clair": 4088,
      "capture": 4089,
      "capistran": 4090,
      "factions": 4091,
      "hopi": 4092,
      "hopes": 4093,
      "iel": 4094,
      "key": 4095,
      "knitting": 4096,
      "limit": 4097,
      "limits": 4098,
      "mid1960s": 4099,
      "ponce": 4100,
      "players": 4101,
      "value": 4102,
      "steve": 4103,
      "steady": 4104,
      "stones": 4105,
      "archivegetty": 4106,
      "deferred": 4107,
      "added": 4108,
      "addition": 4109,
      "addressing": 4110,
      "nearing": 4111,
      "nearly": 4112,
      "getting": 4113,
      "protection": 4114,
      "surely": 4115,
      "preserving": 4116,
      "compromises": 4117,
      "postage": 4118,
      "truste": 4119,
      "differences": 4120,
      "measure": 4121,
      "regulated": 4122,
      "regulations": 4123,
      "regularly": 4124,
      "guard": 4125,
      "decisions": 4126,
      "defeating": 4127,
      "prospered": 4128,
      "roosevelts": 4129,
      "administered": 4130,
      "administering": 4131,
      "administrative": 4132,
      "21reaffi": 4133,
      "banking": 4134,
      "backfi": 4135,
      "crash": 4136,
      "cracked": 4137,
      "cruel": 4138,
      "carbon": 4139,
      "caribbean": 4140,
      "denying": 4141,
      "densely": 4142,
      "doctrine": 4143,
      "eastern": 4144,
      "hugg": 4145,
      "happiness": 4146,
      "koreans": 4147,
      "lture": 4148,
      "literat": 4149,
      "mao": 4150,
      "metimes": 4151,
      "nalist": 4152,
      "named": 4153,
      "namic": 4154,
      "oceans": 4155,
      "primary": 4156,
      "primit": 4157,
      "private": 4158,
      "painful": 4159,
      "scare": 4160,
      "scure": 4161,
      "scope": 4162,
      "scotland": 4163,
      "sens": 4164,
      "senate": 4165,
      "turn": 4166,
      "turning": 4167,
      "turbul": 4168,
      "turned": 4169,
      "turmoil": 4170,
      "turkey": 4171,
      "invited": 4172,
      "invading": 4173,
      "reconcil": 4174,
      "relief": 4175,
      "reformers": 4176,
      "depressionera": 4177,
      "semicol": 4178,
      "secured": 4179,
      "conventions": 4180,
      "rivers": 4181,
      "protests": 4182,
      "protested": 4183,
      "submission": 4184,
      "subsid": 4185,
      "subjects": 4186,
      "subjugated": 4187,
      "appealing": 4188,
      "collecting": 4189,
      "collectively": 4190,
      "experiment": 4191,
      "experience": 4192,
      "experiencing": 4193,
      "points": 4194,
      "1932": 4195,
      "1934": 4196,
      "1935": 4197,
      "1939": 4198,
      "1966": 4199,
      "1969": 4200,
      "1763": 4201,
      "attempted": 4202,
      "missions": 4203,
      "marked": 4204,
      "maintains": 4205,
      "maintaining": 4206,
      "railway": 4207,
      "individuals": 4208,
      "followed": 4209,
      "10relations": 4210,
      "12000": 4211,
      "12stamp": 4212,
      "14the": 4213,
      "1415": 4214,
      "1492": 4215,
      "14point": 4216,
      "1001": 4217,
      "100000": 4218,
      "cuit": 4219,
      "campbell": 4220,
      "draft": 4221,
      "drugs": 4222,
      "dramatical": 4223,
      "dragged": 4224,
      "drafted": 4225,
      "farthe": 4226,
      "farreaching": 4227,
      "glass": 4228,
      "glorious": 4229,
      "gloria": 4230,
      "glaciers": 4231,
      "garian": 4232,
      "garbis": 4233,
      "hension": 4234,
      "halstead": 4235,
      "holds": 4236,
      "holders": 4237,
      "making": 4238,
      "obvious": 4239,
      "obtained": 4240,
      "obscure": 4241,
      "riches": 4242,
      "sinkho": 4243,
      "sinclair": 4244,
      "science": 4245,
      "sciusko": 4246,
      "waterways": 4247,
      "inside": 4248,
      "annapolis": 4249,
      "educate": 4250,
      "stars": 4251,
      "relative": 4252,
      "relationship": 4253,
      "isolate": 4254,
      "isolated": 4255,
      "seeking": 4256,
      "separated": 4257,
      "adopt": 4258,
      "adoption": 4259,
      "restored": 4260,
      "restoring": 4261,
      "resolution": 4262,
      "resoluti": 4263,
      "restraining": 4264,
      "restraints": 4265,
      "restrictions": 4266,
      "opolitan": 4267,
      "expectations": 4268,
      "agricu": 4269,
      "agriculture": 4270,
      "widely": 4271,
      "1951": 4272,
      "1954": 4273,
      "1956": 4274,
      "directordesign": 4275,
      "permanently": 4276,
      "welcoming": 4277,
      "wellians": 4278,
      "wellintent": 4279,
      "blacks": 4280,
      "commonwealth": 4281,
      "commitment": 4282,
      "committed": 4283,
      "missionaries": 4284,
      "grapes": 4285,
      "minute": 4286,
      "germanitalian": 4287,
      "periods": 4288,
      "jamestown": 4289,
      "religion": 4290,
      "negotiate": 4291,
      "11road": 4292,
      "250000": 4293,
      "35their": 4294,
      "35000": 4295,
      "39catt": 4296,
      "breathe": 4297,
      "births": 4298,
      "birds": 4299,
      "bulb": 4300,
      "caused": 4301,
      "causes": 4302,
      "causing": 4303,
      "clean": 4304,
      "clear": 4305,
      "cott": 4306,
      "drawing": 4307,
      "faith": 4308,
      "family": 4309,
      "grims": 4310,
      "grievan": 4311,
      "homelands": 4312,
      "kilometers": 4313,
      "maybe": 4314,
      "mayfl": 4315,
      "numbers": 4316,
      "sses": 4317,
      "sentence": 4318,
      "sentiment": 4319,
      "tiles": 4320,
      "taking": 4321,
      "incumbent": 4322,
      "enses": 4323,
      "argument": 4324,
      "reality": 4325,
      "realized": 4326,
      "realize": 4327,
      "conservation": 4328,
      "conservatism": 4329,
      "uniforms": 4330,
      "responded": 4331,
      "beginning": 4332,
      "chedearth": 4333,
      "chartered": 4334,
      "character": 4335,
      "terrain": 4336,
      "successful": 4337,
      "compete": 4338,
      "bringing": 4339,
      "newspapers": 4340,
      "1929": 4341,
      "traders": 4342,
      "tradition": 4343,
      "traditions": 4344,
      "transcontinental": 4345,
      "transfer": 4346,
      "emergency": 4347,
      "aboard": 4348,
      "photos": 4349,
      "photospin": 4350,
      "commercial": 4351,
      "reduction": 4352,
      "particularly": 4353,
      "woodstock": 4354,
      "ectively": 4355,
      "beliefs": 4356,
      "hostile": 4357,
      "hostility": 4358,
      "higher": 4359,
      "wilsons": 4360,
      "protected": 4361,
      "bridges": 4362,
      "guaranteeing": 4363,
      "halffree": 4364,
      "halfslave": 4365,
      "educational": 4366,
      "opportunities": 4367,
      "36000": 4368,
      "36reconcil": 4369,
      "300000": 4370,
      "4041": 4371,
      "44for": 4372,
      "440000": 4373,
      "awaiting": 4374,
      "awakened": 4375,
      "abrupt": 4376,
      "brook": 4377,
      "bolshe": 4378,
      "bombs": 4379,
      "ballots": 4380,
      "crossed": 4381,
      "culminated": 4382,
      "creators": 4383,
      "career": 4384,
      "duty": 4385,
      "elvis": 4386,
      "foot": 4387,
      "fertile": 4388,
      "focused": 4389,
      "guns": 4390,
      "hinted": 4391,
      "herbert": 4392,
      "hernand": 4393,
      "journey": 4394,
      "journalist": 4395,
      "luxury": 4396,
      "mediterran": 4397,
      "mount": 4398,
      "materiel": 4399,
      "nically": 4400,
      "patrick": 4401,
      "pushin": 4402,
      "pushed": 4403,
      "pusinfo": 4404,
      "passage": 4405,
      "passenger": 4406,
      "picturesgetty": 4407,
      "rming": 4408,
      "rmation": 4409,
      "radio": 4410,
      "racism": 4411,
      "rupted": 4412,
      "sler": 4413,
      "slation": 4414,
      "sliding": 4415,
      "sank": 4416,
      "situation": 4417,
      "silk": 4418,
      "silent": 4419,
      "silverstein": 4420,
      "speedy": 4421,
      "sliker": 4422,
      "savings": 4423,
      "twin": 4424,
      "invented": 4425,
      "inventor": 4426,
      "inventors": 4427,
      "angorbac": 4428,
      "reverse": 4429,
      "reverend": 4430,
      "reverted": 4431,
      "rockandroll": 4432,
      "selfrule": 4433,
      "searches": 4434,
      "searching": 4435,
      "concluded": 4436,
      "reserve": 4437,
      "reserved": 4438,
      "reservations": 4439,
      "betty": 4440,
      "celebration": 4441,
      "celebrate": 4442,
      "celebrated": 4443,
      "needs": 4444,
      "opening": 4445,
      "occupied": 4446,
      "columbia": 4447,
      "1980": 4448,
      "withdrawal": 4449,
      "withdrawing": 4450,
      "heads": 4451,
      "headquar": 4452,
      "diverse": 4453,
      "diplomat": 4454,
      "parliaments": 4455,
      "northeastern": 4456,
      "shortly": 4457,
      "strength": 4458,
      "questions": 4459,
      "televisions": 4460,
      "telephone": 4461,
      "telecommunications": 4462,
      "technically": 4463,
      "violated": 4464,
      "viewing": 4465,
      "spiritual": 4466,
      "associate": 4467,
      "achieve": 4468,
      "achieving": 4469,
      "achievement": 4470,
      "discrimin": 4471,
      "boycott": 4472,
      "everywhere": 4473,
      "precedents": 4474,
      "corporate": 4475,
      "expansionism": 4476,
      "beneath": 4477,
      "citizenship": 4478,
      "capitalism": 4479,
      "hopewellians": 4480,
      "friends": 4481,
      "scientist": 4482,
      "scientists": 4483,
      "scientifi": 4484,
      "assemble": 4485,
      "isolationist": 4486,
      "frontiers": 4487,
      "committees": 4488,
      "failure": 4489,
      "terrorist": 4490,
      "terrorists": 4491,
      "terrorism": 4492,
      "participate": 4493,
      "participated": 4494,
      "participatory": 4495,
      "purchased": 4496,
      "connecticut": 4497,
      "challenge": 4498,
      "peacefully": 4499,
      "expeditionary": 4500,
      "22the": 4501,
      "26outlaw": 4502,
      "27tyrannical": 4503,
      "37local": 4504,
      "48the": 4505,
      "52most": 4506,
      "55plan": 4507,
      "59johnson": 4508,
      "985": 4509,
      "aerial": 4510,
      "aerona": 4511,
      "bilateral": 4512,
      "broadly": 4513,
      "cabot": 4514,
      "cabinet": 4515,
      "castillo": 4516,
      "carrier": 4517,
      "carried": 4518,
      "danes": 4519,
      "dangerous": 4520,
      "element": 4521,
      "elements": 4522,
      "funeral": 4523,
      "functioning": 4524,
      "gift": 4525,
      "giving": 4526,
      "gateway": 4527,
      "holiday": 4528,
      "holocaust": 4529,
      "hungary": 4530,
      "houses": 4531,
      "housing": 4532,
      "ireland": 4533,
      "kosciusko": 4534,
      "lanes": 4535,
      "lanseau": 4536,
      "mythical": 4537,
      "matter": 4538,
      "matured": 4539,
      "malcolm": 4540,
      "miles": 4541,
      "milder": 4542,
      "music": 4543,
      "musicians": 4544,
      "motion": 4545,
      "members": 4546,
      "memorial": 4547,
      "machines": 4548,
      "machinery": 4549,
      "mounds": 4550,
      "pyram": 4551,
      "pentagon": 4552,
      "piling": 4553,
      "pilgrims": 4554,
      "rule": 4555,
      "ruins": 4556,
      "saratog": 4557,
      "talks": 4558,
      "texts": 4559,
      "textiles": 4560,
      "yao": 4561,
      "yaopho": 4562,
      "theorist": 4563,
      "theorists": 4564,
      "intact": 4565,
      "intended": 4566,
      "instinct": 4567,
      "instincts": 4568,
      "involving": 4569,
      "involvement": 4570,
      "animals": 4571,
      "ancestors": 4572,
      "onceisolated": 4573,
      "enjoyed": 4574,
      "enjoying": 4575,
      "encouraged": 4576,
      "encouragement": 4577,
      "origins": 4578,
      "original": 4579,
      "street": 4580,
      "stretched": 4581,
      "stayed": 4582,
      "starting": 4583,
      "alliance": 4584,
      "arlington": 4585,
      "itania": 4586,
      "repeal": 4587,
      "repealed": 4588,
      "reagan": 4589,
      "reagangorbac": 4590,
      "routed": 4591,
      "routes": 4592,
      "amphibious": 4593,
      "secure": 4594,
      "season": 4595,
      "concert": 4596,
      "concerned": 4597,
      "confronted": 4598,
      "confrontation": 4599,
      "advance": 4600,
      "advantage": 4601,
      "fortable": 4602,
      "research": 4603,
      "researchers": 4604,
      "neys": 4605,
      "impact": 4606,
      "implement": 4607,
      "impose": 4608,
      "proposal": 4609,
      "proposals": 4610,
      "lightning": 4611,
      "colorado": 4612,
      "collapse": 4613,
      "collapsed": 4614,
      "moderates": 4615,
      "modernization": 4616,
      "1970": 4617,
      "1975": 4618,
      "1920sera": 4619,
      "traveled": 4620,
      "travels": 4621,
      "empire": 4622,
      "empires": 4623,
      "plantations": 4624,
      "pollution": 4625,
      "pollutants": 4626,
      "closed": 4627,
      "clothing": 4628,
      "climate": 4629,
      "climbed": 4630,
      "clintons": 4631,
      "1750s": 4632,
      "1750000": 4633,
      "1801": 4634,
      "1803": 4635,
      "shuttle": 4636,
      "shareholders": 4637,
      "permitted": 4638,
      "quez": 4639,
      "queen": 4640,
      "quartering": 4641,
      "weaken": 4642,
      "wealthy": 4643,
      "blockaded": 4644,
      "commanderinchief": 4645,
      "melted": 4646,
      "melting": 4647,
      "coordinate": 4648,
      "coordinated": 4649,
      "austrohun": 4650,
      "judging": 4651,
      "judicial": 4652,
      "locked": 4653,
      "lockheed": 4654,
      "virtue": 4655,
      "virtually": 4656,
      "profound": 4657,
      "profession": 4658,
      "practical": 4659,
      "practices": 4660,
      "monument": 4661,
      "monuments": 4662,
      "countrymen": 4663,
      "corrupt": 4664,
      "corruption": 4665,
      "deserts": 4666,
      "deserved": 4667,
      "immediately": 4668,
      "loyalists": 4669,
      "loyalty": 4670,
      "indiana": 4671,
      "solidarity": 4672,
      "completely": 4673,
      "expanding": 4674,
      "struggle": 4675,
      "struggled": 4676,
      "valleys": 4677,
      "steinem": 4678,
      "francisco": 4679,
      "franciscan": 4680,
      "briefusa": 4681,
      "carolina": 4682,
      "carolinas": 4683,
      "friedan": 4684,
      "friedrich": 4685,
      "tireless": 4686,
      "marketplace": 4687,
      "possesses": 4688,
      "possessions": 4689,
      "custer": 4690,
      "customs": 4691,
      "exceptional": 4692,
      "1950s1980s": 4693,
      "birthday": 4694,
      "sixth": 4695,
      "attracte": 4696,
      "stockpiling": 4697,
      "bombing": 4698,
      "radicals": 4699,
      "speeches": 4700,
      "sheep": 4701,
      "sheets": 4702,
      "strengthened": 4703,
      "cowboys": 4704,
      "finleyfinley": 4705,
      "swedes": 4706,
      "sweden": 4707,
      "integrity": 4708,
      "recognized": 4709,
      "recognize": 4710,
      "details": 4711,
      "commodity": 4712,
      "10001550": 4713,
      "24in": 4714,
      "28early": 4715,
      "29support": 4716,
      "33the": 4717,
      "32maine": 4718,
      "45on": 4719,
      "47the": 4720,
      "49to": 4721,
      "56cultural": 4722,
      "57frustration": 4723,
      "6263": 4724,
      "averted": 4725,
      "aimed": 4726,
      "awesome": 4727,
      "bicentennial": 4728,
      "bayonets": 4729,
      "bureau": 4730,
      "barrier": 4731,
      "bighorn": 4732,
      "census": 4733,
      "camera": 4734,
      "copies": 4735,
      "circuit": 4736,
      "critics": 4737,
      "cartier": 4738,
      "crystalli": 4739,
      "criminal": 4740,
      "dynamic": 4741,
      "dreiser": 4742,
      "dwight": 4743,
      "destroyed": 4744,
      "dodgers": 4745,
      "daughter": 4746,
      "dashescover": 4747,
      "eyes": 4748,
      "ethnic": 4749,
      "eisenho": 4750,
      "emancipation": 4751,
      "eignty": 4752,
      "ellis": 4753,
      "eliminated": 4754,
      "eighth": 4755,
      "fleet": 4756,
      "films": 4757,
      "future": 4758,
      "fountain": 4759,
      "flappers": 4760,
      "greenland": 4761,
      "gallery": 4762,
      "golden": 4763,
      "giovanni": 4764,
      "honest": 4765,
      "hatreds": 4766,
      "hurried": 4767,
      "hulton": 4768,
      "httpusinfo": 4769,
      "hills": 4770,
      "hastening": 4771,
      "haven": 4772,
      "humans": 4773,
      "hereditary": 4774,
      "hundreds": 4775,
      "hawaii": 4776,
      "iented": 4777,
      "jersey": 4778,
      "junpero": 4779,
      "jacques": 4780,
      "jews": 4781,
      "keep": 4782,
      "krongard": 4783,
      "knowledgeable": 4784,
      "london": 4785,
      "latin": 4786,
      "licenses": 4787,
      "louisiana": 4788,
      "lusitania": 4789,
      "lumber": 4790,
      "mesa": 4791,
      "momentum": 4792,
      "mapped": 4793,
      "maggie": 4794,
      "mulberry": 4795,
      "migration": 4796,
      "masterfi": 4797,
      "michael": 4798,
      "multicultural": 4799,
      "mildred": 4800,
      "museum": 4801,
      "nerous": 4802,
      "narrow": 4803,
      "nasa": 4804,
      "nominated": 4805,
      "nagasak": 4806,
      "nuclear": 4807,
      "nighthorse": 4808,
      "ohio": 4809,
      "picking": 4810,
      "punitive": 4811,
      "pamphlet": 4812,
      "ronald": 4813,
      "rung": 4814,
      "rsuasively": 4815,
      "rushmore": 4816,
      "ragists": 4817,
      "ruled": 4818,
      "rhode": 4819,
      "sale": 4820,
      "single": 4821,
      "samuel": 4822,
      "sneaked": 4823,
      "sovereignty": 4824,
      "swept": 4825,
      "scots": 4826,
      "scorchedearth": 4827,
      "screen": 4828,
      "skyline": 4829,
      "sparked": 4830,
      "skirmish": 4831,
      "tanks": 4832,
      "tarbell": 4833,
      "tangible": 4834,
      "uitment": 4835,
      "ulysses": 4836,
      "vzquez": 4837,
      "vandalism": 4838,
      "vicksburg": 4839,
      "vigorously": 4840,
      "voiced": 4841,
      "witnessed": 4842,
      "wounded": 4843,
      "wrongly": 4844,
      "xmeadows": 4845,
      "youth": 4846,
      "zano": 4847,
      "zedong": 4848,
      "thaddeus": 4849,
      "threshers": 4850,
      "thrive": 4851,
      "initiated": 4852,
      "inadequate": 4853,
      "infectious": 4854,
      "indispensable": 4855,
      "intimidated": 4856,
      "introduction": 4857,
      "innovation": 4858,
      "instructional": 4859,
      "analyst": 4860,
      "anasazi": 4861,
      "angry": 4862,
      "anthony": 4863,
      "ertmanmasterfi": 4864,
      "escorts": 4865,
      "escalated": 4866,
      "escape": 4867,
      "enacting": 4868,
      "engineered": 4869,
      "enumerate": 4870,
      "staggering": 4871,
      "stanton": 4872,
      "steuben": 4873,
      "students": 4874,
      "alternatives": 4875,
      "alaska": 4876,
      "aristocratic": 4877,
      "arizona": 4878,
      "arsenal": 4879,
      "arkansas": 4880,
      "rebrand": 4881,
      "required": 4882,
      "recipients": 4883,
      "reminded": 4884,
      "recounts": 4885,
      "reestablishing": 4886,
      "recruitment": 4887,
      "refriger": 4888,
      "remedies": 4889,
      "recreational": 4890,
      "retirement": 4891,
      "rethinking": 4892,
      "tobacco": 4893,
      "totalitarian": 4894,
      "entanglements": 4895,
      "isabella": 4896,
      "delaware": 4897,
      "dewey": 4898,
      "decide": 4899,
      "deliberation": 4900,
      "deposits": 4901,
      "delayed": 4902,
      "devastating": 4903,
      "ambitious": 4904,
      "ammunition": 4905,
      "secede": 4906,
      "secessions": 4907,
      "segregat": 4908,
      "consumer": 4909,
      "contrast": 4910,
      "conduct": 4911,
      "concord": 4912,
      "conscript": 4913,
      "consensus": 4914,
      "contradiction": 4915,
      "conference": 4916,
      "considered": 4917,
      "consolidation": 4918,
      "consequences": 4919,
      "unceasing": 4920,
      "unlike": 4921,
      "uncomfortable": 4922,
      "uninterrupted": 4923,
      "unhappy": 4924,
      "unwritten": 4925,
      "unreasonable": 4926,
      "unanimity": 4927,
      "unhealthy": 4928,
      "unquestionably": 4929,
      "unfettered": 4930,
      "unusual": 4931,
      "adaptation": 4932,
      "advanced": 4933,
      "adversary": 4934,
      "forgotten": 4935,
      "accepted": 4936,
      "academy": 4937,
      "acceptable": 4938,
      "accommodation": 4939,
      "resumed": 4940,
      "responsibility": 4941,
      "verrazano": 4942,
      "versailles": 4943,
      "behind": 4944,
      "behavior": 4945,
      "lyphics": 4946,
      "cemetery": 4947,
      "rigidly": 4948,
      "netherlands": 4949,
      "neighboring": 4950,
      "neelywriter": 4951,
      "chrysler": 4952,
      "chuck": 4953,
      "chappel": 4954,
      "chinese": 4955,
      "christine": 4956,
      "christopher": 4957,
      "amerigo": 4958,
      "optimistic": 4959,
      "irrevocably": 4960,
      "geopolitical": 4961,
      "geography": 4962,
      "impeached": 4963,
      "implications": 4964,
      "imperialism": 4965,
      "impartial": 4966,
      "properties": 4967,
      "procedures": 4968,
      "projector": 4969,
      "proprietorships": 4970,
      "prohibited": 4971,
      "promote": 4972,
      "problems": 4973,
      "superior": 4974,
      "suburban": 4975,
      "summer": 4976,
      "sullivan": 4977,
      "lafayette": 4978,
      "overboard": 4979,
      "overwhelmed": 4980,
      "comprised": 4981,
      "apaches": 4982,
      "apprehension": 4983,
      "collapsing": 4984,
      "exposure": 4985,
      "extraordinary": 4986,
      "extension": 4987,
      "expressing": 4988,
      "exterminated": 4989,
      "exhibition": 4990,
      "agenda": 4991,
      "potomac": 4992,
      "moscow": 4993,
      "mobilizing": 4994,
      "brandywine": 4995,
      "branches": 4996,
      "newfoundland": 4997,
      "19501980": 4998,
      "hemisphere": 4999,
      "embodied": 5000,
      "embittered": 5001,
      "embargo": 5002,
      "diversity": 5003,
      "abundant": 5004,
      "parttime": 5005,
      "paratroopers": 5006,
      "landowners": 5007,
      "norwegians": 5008,
      "closely": 5009,
      "clanoriented": 5010,
      "17381820": 5011,
      "shackles": 5012,
      "sharpsburg": 5013,
      "performing": 5014,
      "persecution": 5015,
      "presidencies": 5016,
      "quakers": 5017,
      "antislavery": 5018,
      "phenomenal": 5019,
      "cibola": 5020,
      "centuries": 5021,
      "venturafolio": 5022,
      "mechanical": 5023,
      "methods": 5024,
      "acknowledged": 5025,
      "cosmopolitan": 5026,
      "europes": 5027,
      "sprang": 5028,
      "sponsored": 5029,
      "assassinated": 5030,
      "outlining": 5031,
      "outdoor": 5032,
      "austria": 5033,
      "automobile": 5034,
      "dissolved": 5035,
      "disappointing": 5036,
      "disintegrating": 5037,
      "hispanic": 5038,
      "vespucci": 5039,
      "servants": 5040,
      "regarded": 5041,
      "portuguese": 5042,
      "intolerable": 5043,
      "preliminary": 5044,
      "pronouncement": 5045,
      "montreal": 5046,
      "inevitably": 5047,
      "destructive": 5048,
      "desegregating": 5049,
      "hohokam": 5050,
      "surrounded": 5051,
      "186165": 5052,
      "1330foot": 5053,
      "hardened": 5054,
      "encroachment": 5055,
      "philosophy": 5056,
      "168889": 5057,
      "16721695": 5058,
      "historically": 5059,
      "struggling": 5060,
      "hijacked": 5061,
      "hieroglyphics": 5062,
      "hiroshima": 5063,
      "ratify": 5064,
      "smithsonian": 5065,
      "burdensome": 5066,
      "burnettphoto": 5067,
      "capistrano": 5068,
      "crashed": 5069,
      "hugging": 5070,
      "literature": 5071,
      "primitive": 5072,
      "turbulent": 5073,
      "semicolons": 5074,
      "subsidies": 5075,
      "12stamps": 5076,
      "dramatically": 5077,
      "garbisch": 5078,
      "halsteadtime": 5079,
      "sinkhole": 5080,
      "wellintentioned": 5081,
      "39cattle": 5082,
      "grievances": 5083,
      "characterized": 5084,
      "36reconciliation": 5085,
      "brooklyn": 5086,
      "bolshevik": 5087,
      "hernando": 5088,
      "mediterranean": 5089,
      "headquarters": 5090,
      "discrimination": 5091,
      "aeronautics": 5092,
      "lanseauxmeadows": 5093,
      "pyramids": 5094,
      "saratoga": 5095,
      "yaophoto": 5096,
      "instinctive": 5097,
      "reagangorbachev": 5098,
      "austrohungarian": 5099,
      "professional": 5100,
      "finleyfinleyholiday": 5101,
      "crystallize": 5102,
      "eisenhower": 5103,
      "httpusinfostategov": 5104,
      "nagasaki": 5105,
      "infectiously": 5106
    },
    "merges": [
      [
        "t",
        "h"
      ],
      [
        "th",
        "e"
      ],
      [
        "i",
        "n"
      ],
      [
        "a",
        "n"
      ],
      [
        "e",
        "r"
      ],
      [
        "o",
        "n"
      ],
      [
        "e",
        "d"
      ],
      [
        "e",
        "s"
      ],
      [
        "e",
        "n"
      ],
      [
        "a",
        "t"
      ],
      [
        "o",
        "r"
      ],
      [
        "s",
        "t"
      ],
      [
        "a",
        "l"
      ],
      [
        "an",
        "d"
      ],
      [
        "a",
        "r"
      ],
      [
        "i",
        "t"
      ],
      [
        "o",
        "f"
      ],
      [
        "i",
        "on"
      ],
      [
        "r",
        "e"
      ],
      [
        "i",
        "c"
      ],
      [
        "t",
        "o"
      ],
      [
        "a",
        "s"
      ],
      [
        "r",
        "o"
      ],
      [
        "en",
        "t"
      ],
      [
        "i",
        "s"
      ],
      [
        "o",
        "u"
      ],
      [
        "d",
        "e"
      ],
      [
        "in",
        "g"
      ],
      [
        "a",
        "m"
      ],
      [
        "l",
        "e"
      ],
      [
        "o",
        "l"
      ],
      [
        "s",
        "e"
      ],
      [
        "c",
        "on"
      ],
      [
        "i",
        "l"
      ],
      [
        "u",
        "n"
      ],
      [
        "o",
        "m"
      ],
      [
        "a",
        "d"
      ],
      [
        "f",
        "or"
      ],
      [
        "at",
        "ion"
      ],
      [
        "a",
        "c"
      ],
      [
        "r",
        "es"
      ],
      [
        "v",
        "er"
      ],
      [
        "b",
        "e"
      ],
      [
        "l",
        "y"
      ],
      [
        "v",
        "e"
      ],
      [
        "m",
        "ent"
      ],
      [
        "c",
        "e"
      ],
      [
        "w",
        "as"
      ],
      [
        "u",
        "t"
      ],
      [
        "w",
        "er"
      ],
      [
        "f",
        "i"
      ],
      [
        "r",
        "i"
      ],
      [
        "n",
        "e"
      ],
      [
        "a",
        "in"
      ],
      [
        "c",
        "h"
      ],
      [
        "st",
        "at"
      ],
      [
        "g",
        "h"
      ],
      [
        "i",
        "d"
      ],
      [
        "t",
        "s"
      ],
      [
        "am",
        "er"
      ],
      [
        "o",
        "p"
      ],
      [
        "amer",
        "ic"
      ],
      [
        "i",
        "r"
      ],
      [
        "g",
        "e"
      ],
      [
        "i",
        "m"
      ],
      [
        "p",
        "ro"
      ],
      [
        "t",
        "er"
      ],
      [
        "s",
        "u"
      ],
      [
        "w",
        "h"
      ],
      [
        "wer",
        "e"
      ],
      [
        "o",
        "c"
      ],
      [
        "stat",
        "es"
      ],
      [
        "p",
        "e"
      ],
      [
        "i",
        "es"
      ],
      [
        "u",
        "r"
      ],
      [
        "l",
        "a"
      ],
      [
        "o",
        "ver"
      ],
      [
        "l",
        "i"
      ],
      [
        "p",
        "res"
      ],
      [
        "c",
        "om"
      ],
      [
        "th",
        "at"
      ],
      [
        "an",
        "s"
      ],
      [
        "c",
        "t"
      ],
      [
        "u",
        "s"
      ],
      [
        "the",
        "r"
      ],
      [
        "er",
        "s"
      ],
      [
        "a",
        "p"
      ],
      [
        "c",
        "ol"
      ],
      [
        "i",
        "st"
      ],
      [
        "o",
        "t"
      ],
      [
        "e",
        "x"
      ],
      [
        "l",
        "d"
      ],
      [
        "un",
        "it"
      ],
      [
        "a",
        "g"
      ],
      [
        "w",
        "i"
      ],
      [
        "b",
        "y"
      ],
      [
        "p",
        "o"
      ],
      [
        "en",
        "d"
      ],
      [
        "the",
        "y"
      ],
      [
        "m",
        "o"
      ],
      [
        "o",
        "w"
      ],
      [
        "u",
        "l"
      ],
      [
        "unit",
        "ed"
      ],
      [
        "b",
        "r"
      ],
      [
        "e",
        "ar"
      ],
      [
        "w",
        "ar"
      ],
      [
        "ne",
        "w"
      ],
      [
        "1",
        "9"
      ],
      [
        "m",
        "an"
      ],
      [
        "n",
        "ation"
      ],
      [
        "is",
        "h"
      ],
      [
        "wi",
        "th"
      ],
      [
        "0",
        "0"
      ],
      [
        "h",
        "ad"
      ],
      [
        "e",
        "t"
      ],
      [
        "h",
        "e"
      ],
      [
        "ro",
        "m"
      ],
      [
        "f",
        "rom"
      ],
      [
        "w",
        "or"
      ],
      [
        "al",
        "l"
      ],
      [
        "t",
        "r"
      ],
      [
        "g",
        "over"
      ],
      [
        "i",
        "a"
      ],
      [
        "gover",
        "n"
      ],
      [
        "e",
        "m"
      ],
      [
        "p",
        "l"
      ],
      [
        "p",
        "ol"
      ],
      [
        "gh",
        "t"
      ],
      [
        "d",
        "i"
      ],
      [
        "i",
        "g"
      ],
      [
        "ou",
        "n"
      ],
      [
        "the",
        "ir"
      ],
      [
        "a",
        "b"
      ],
      [
        "f",
        "r"
      ],
      [
        "i",
        "al"
      ],
      [
        "e",
        "f"
      ],
      [
        "govern",
        "ment"
      ],
      [
        "i",
        "ve"
      ],
      [
        "p",
        "ar"
      ],
      [
        "br",
        "it"
      ],
      [
        "b",
        "er"
      ],
      [
        "l",
        "and"
      ],
      [
        "n",
        "or"
      ],
      [
        "t",
        "ed"
      ],
      [
        "at",
        "e"
      ],
      [
        "it",
        "y"
      ],
      [
        "ic",
        "al"
      ],
      [
        "c",
        "l"
      ],
      [
        "c",
        "es"
      ],
      [
        "con",
        "t"
      ],
      [
        "ut",
        "ion"
      ],
      [
        "col",
        "on"
      ],
      [
        "1",
        "7"
      ],
      [
        "b",
        "ut"
      ],
      [
        "1",
        "8"
      ],
      [
        "a",
        "y"
      ],
      [
        "s",
        "h"
      ],
      [
        "s",
        "ou"
      ],
      [
        "americ",
        "ans"
      ],
      [
        "i",
        "z"
      ],
      [
        "p",
        "er"
      ],
      [
        "y",
        "ear"
      ],
      [
        "re",
        "at"
      ],
      [
        "ou",
        "ld"
      ],
      [
        "pres",
        "id"
      ],
      [
        "es",
        "t"
      ],
      [
        "st",
        "r"
      ],
      [
        "l",
        "ed"
      ],
      [
        "q",
        "u"
      ],
      [
        "t",
        "t"
      ],
      [
        "w",
        "e"
      ],
      [
        "an",
        "t"
      ],
      [
        "on",
        "g"
      ],
      [
        "en",
        "ce"
      ],
      [
        "americ",
        "an"
      ],
      [
        "presid",
        "ent"
      ],
      [
        "p",
        "or"
      ],
      [
        "ou",
        "r"
      ],
      [
        "ac",
        "t"
      ],
      [
        "f",
        "l"
      ],
      [
        "v",
        "ed"
      ],
      [
        "ar",
        "y"
      ],
      [
        "am",
        "e"
      ],
      [
        "mo",
        "st"
      ],
      [
        "a",
        "f"
      ],
      [
        "n",
        "ot"
      ],
      [
        "o",
        "ther"
      ],
      [
        "t",
        "on"
      ],
      [
        "or",
        "e"
      ],
      [
        "ou",
        "s"
      ],
      [
        "il",
        "l"
      ],
      [
        "nation",
        "al"
      ],
      [
        "p",
        "h"
      ],
      [
        "s",
        "o"
      ],
      [
        "year",
        "s"
      ],
      [
        "b",
        "l"
      ],
      [
        "c",
        "i"
      ],
      [
        "c",
        "ent"
      ],
      [
        "g",
        "ro"
      ],
      [
        "s",
        "ed"
      ],
      [
        "v",
        "ent"
      ],
      [
        "w",
        "ould"
      ],
      [
        "at",
        "t"
      ],
      [
        "it",
        "s"
      ],
      [
        "ion",
        "s"
      ],
      [
        "a",
        "de"
      ],
      [
        "at",
        "ed"
      ],
      [
        "ar",
        "m"
      ],
      [
        "com",
        "m"
      ],
      [
        "man",
        "y"
      ],
      [
        "f",
        "e"
      ],
      [
        "m",
        "e"
      ],
      [
        "u",
        "p"
      ],
      [
        "le",
        "g"
      ],
      [
        "pol",
        "it"
      ],
      [
        "ig",
        "n"
      ],
      [
        "r",
        "st"
      ],
      [
        "t",
        "e"
      ],
      [
        "on",
        "e"
      ],
      [
        "res",
        "s"
      ],
      [
        "cont",
        "in"
      ],
      [
        "a",
        "st"
      ],
      [
        "d",
        "u"
      ],
      [
        "g",
        "ress"
      ],
      [
        "o",
        "d"
      ],
      [
        "v",
        "i"
      ],
      [
        "an",
        "ce"
      ],
      [
        "ar",
        "e"
      ],
      [
        "un",
        "ion"
      ],
      [
        "for",
        "m"
      ],
      [
        "ac",
        "k"
      ],
      [
        "su",
        "p"
      ],
      [
        "brit",
        "ish"
      ],
      [
        "c",
        "o"
      ],
      [
        "e",
        "u"
      ],
      [
        "i",
        "p"
      ],
      [
        "s",
        "p"
      ],
      [
        "s",
        "y"
      ],
      [
        "er",
        "al"
      ],
      [
        "st",
        "it"
      ],
      [
        "as",
        "s"
      ],
      [
        "de",
        "p"
      ],
      [
        "wh",
        "o"
      ],
      [
        "wor",
        "ld"
      ],
      [
        "nor",
        "th"
      ],
      [
        "polit",
        "ical"
      ],
      [
        "stit",
        "ution"
      ],
      [
        "c",
        "ed"
      ],
      [
        "c",
        "ame"
      ],
      [
        "m",
        "is"
      ],
      [
        "ro",
        "pe"
      ],
      [
        "ou",
        "t"
      ],
      [
        "con",
        "stitution"
      ],
      [
        "ac",
        "h"
      ],
      [
        "ef",
        "f"
      ],
      [
        "a",
        "u"
      ],
      [
        "a",
        "ve"
      ],
      [
        "d",
        "is"
      ],
      [
        "h",
        "is"
      ],
      [
        "m",
        "ar"
      ],
      [
        "v",
        "es"
      ],
      [
        "ic",
        "t"
      ],
      [
        "ag",
        "ain"
      ],
      [
        "eu",
        "rope"
      ],
      [
        "f",
        "re"
      ],
      [
        "g",
        "r"
      ],
      [
        "l",
        "in"
      ],
      [
        "m",
        "in"
      ],
      [
        "p",
        "u"
      ],
      [
        "r",
        "ed"
      ],
      [
        "se",
        "tt"
      ],
      [
        "om",
        "e"
      ],
      [
        "wor",
        "k"
      ],
      [
        "dep",
        "end"
      ],
      [
        "d",
        "er"
      ],
      [
        "f",
        "ed"
      ],
      [
        "j",
        "o"
      ],
      [
        "m",
        "ore"
      ],
      [
        "s",
        "er"
      ],
      [
        "s",
        "ion"
      ],
      [
        "s",
        "oc"
      ],
      [
        "v",
        "id"
      ],
      [
        "in",
        "ter"
      ],
      [
        "in",
        "depend"
      ],
      [
        "le",
        "ct"
      ],
      [
        "il",
        "it"
      ],
      [
        "ri",
        "gh"
      ],
      [
        "americ",
        "a"
      ],
      [
        "par",
        "t"
      ],
      [
        "sou",
        "th"
      ],
      [
        "again",
        "st"
      ],
      [
        "righ",
        "ts"
      ],
      [
        "o",
        "se"
      ],
      [
        "t",
        "im"
      ],
      [
        "u",
        "re"
      ],
      [
        "w",
        "o"
      ],
      [
        "the",
        "se"
      ],
      [
        "re",
        "g"
      ],
      [
        "ment",
        "s"
      ],
      [
        "ge",
        "or"
      ],
      [
        "ther",
        "n"
      ],
      [
        "ow",
        "n"
      ],
      [
        "colon",
        "ies"
      ],
      [
        "af",
        "ter"
      ],
      [
        "0",
        "s"
      ],
      [
        "a",
        "k"
      ],
      [
        "b",
        "o"
      ],
      [
        "e",
        "con"
      ],
      [
        "g",
        "er"
      ],
      [
        "g",
        "en"
      ],
      [
        "j",
        "u"
      ],
      [
        "l",
        "l"
      ],
      [
        "l",
        "es"
      ],
      [
        "l",
        "oc"
      ],
      [
        "s",
        "la"
      ],
      [
        "u",
        "al"
      ],
      [
        "ic",
        "h"
      ],
      [
        "de",
        "m"
      ],
      [
        "ve",
        "l"
      ],
      [
        "ist",
        "s"
      ],
      [
        "ul",
        "t"
      ],
      [
        "oun",
        "d"
      ],
      [
        "por",
        "t"
      ],
      [
        "pu",
        "bl"
      ],
      [
        "independ",
        "ence"
      ],
      [
        "econ",
        "om"
      ],
      [
        "g",
        "u"
      ],
      [
        "g",
        "in"
      ],
      [
        "g",
        "reat"
      ],
      [
        "m",
        "ain"
      ],
      [
        "p",
        "t"
      ],
      [
        "v",
        "ir"
      ],
      [
        "in",
        "to"
      ],
      [
        "ic",
        "e"
      ],
      [
        "is",
        "m"
      ],
      [
        "de",
        "c"
      ],
      [
        "ing",
        "ton"
      ],
      [
        "con",
        "gress"
      ],
      [
        "pe",
        "op"
      ],
      [
        "po",
        "wer"
      ],
      [
        "brit",
        "ain"
      ],
      [
        "publ",
        "ic"
      ],
      [
        "a",
        "v"
      ],
      [
        "e",
        "ver"
      ],
      [
        "f",
        "t"
      ],
      [
        "g",
        "an"
      ],
      [
        "i",
        "de"
      ],
      [
        "n",
        "at"
      ],
      [
        "p",
        "re"
      ],
      [
        "s",
        "on"
      ],
      [
        "t",
        "y"
      ],
      [
        "t",
        "en"
      ],
      [
        "t",
        "ri"
      ],
      [
        "ac",
        "e"
      ],
      [
        "ur",
        "al"
      ],
      [
        "la",
        "w"
      ],
      [
        "iz",
        "ed"
      ],
      [
        "peop",
        "le"
      ],
      [
        "c",
        "our"
      ],
      [
        "e",
        "ct"
      ],
      [
        "h",
        "ave"
      ],
      [
        "i",
        "fi"
      ],
      [
        "p",
        "r"
      ],
      [
        "r",
        "a"
      ],
      [
        "s",
        "ome"
      ],
      [
        "v",
        "ol"
      ],
      [
        "v",
        "il"
      ],
      [
        "y",
        "or"
      ],
      [
        "il",
        "d"
      ],
      [
        "be",
        "t"
      ],
      [
        "be",
        "en"
      ],
      [
        "ch",
        "an"
      ],
      [
        "wh",
        "en"
      ],
      [
        "pres",
        "ent"
      ],
      [
        "tim",
        "e"
      ],
      [
        "yor",
        "k"
      ],
      [
        "a",
        "ge"
      ],
      [
        "b",
        "u"
      ],
      [
        "e",
        "lect"
      ],
      [
        "h",
        "n"
      ],
      [
        "h",
        "ow"
      ],
      [
        "m",
        "on"
      ],
      [
        "m",
        "ilit"
      ],
      [
        "r",
        "it"
      ],
      [
        "u",
        "m"
      ],
      [
        "v",
        "an"
      ],
      [
        "in",
        "e"
      ],
      [
        "at",
        "er"
      ],
      [
        "or",
        "y"
      ],
      [
        "for",
        "e"
      ],
      [
        "be",
        "li"
      ],
      [
        "ch",
        "i"
      ],
      [
        "li",
        "ber"
      ],
      [
        "po",
        "s"
      ],
      [
        "gro",
        "up"
      ],
      [
        "jo",
        "hn"
      ],
      [
        "b",
        "as"
      ],
      [
        "b",
        "att"
      ],
      [
        "c",
        "oun"
      ],
      [
        "g",
        "o"
      ],
      [
        "h",
        "ington"
      ],
      [
        "i",
        "ous"
      ],
      [
        "k",
        "ing"
      ],
      [
        "p",
        "ed"
      ],
      [
        "p",
        "en"
      ],
      [
        "t",
        "ro"
      ],
      [
        "t",
        "wo"
      ],
      [
        "w",
        "ay"
      ],
      [
        "y",
        "et"
      ],
      [
        "re",
        "vol"
      ],
      [
        "ac",
        "y"
      ],
      [
        "was",
        "hington"
      ],
      [
        "oc",
        "r"
      ],
      [
        "ur",
        "y"
      ],
      [
        "tr",
        "ade"
      ],
      [
        "pol",
        "ic"
      ],
      [
        "ces",
        "s"
      ],
      [
        "we",
        "en"
      ],
      [
        "fre",
        "ed"
      ],
      [
        "econom",
        "ic"
      ],
      [
        "bet",
        "ween"
      ],
      [
        "revol",
        "ution"
      ],
      [
        "2",
        "0"
      ],
      [
        "a",
        "ir"
      ],
      [
        "b",
        "or"
      ],
      [
        "c",
        "or"
      ],
      [
        "c",
        "re"
      ],
      [
        "d",
        "es"
      ],
      [
        "g",
        "es"
      ],
      [
        "h",
        "o"
      ],
      [
        "l",
        "ar"
      ],
      [
        "m",
        "ill"
      ],
      [
        "r",
        "an"
      ],
      [
        "s",
        "ign"
      ],
      [
        "t",
        "ain"
      ],
      [
        "u",
        "d"
      ],
      [
        "u",
        "e"
      ],
      [
        "u",
        "se"
      ],
      [
        "v",
        "ot"
      ],
      [
        "the",
        "m"
      ],
      [
        "er",
        "ed"
      ],
      [
        "es",
        "s"
      ],
      [
        "or",
        "s"
      ],
      [
        "ro",
        "u"
      ],
      [
        "is",
        "su"
      ],
      [
        "am",
        "p"
      ],
      [
        "le",
        "ft"
      ],
      [
        "ri",
        "ght"
      ],
      [
        "stat",
        "e"
      ],
      [
        "im",
        "m"
      ],
      [
        "pro",
        "du"
      ],
      [
        "su",
        "r"
      ],
      [
        "ur",
        "ing"
      ],
      [
        "com",
        "e"
      ],
      [
        "ct",
        "ion"
      ],
      [
        "ag",
        "es"
      ],
      [
        "po",
        "sed"
      ],
      [
        "cl",
        "ar"
      ],
      [
        "18",
        "6"
      ],
      [
        "contin",
        "ent"
      ],
      [
        "vi",
        "et"
      ],
      [
        "geor",
        "ge"
      ],
      [
        "gen",
        "eral"
      ],
      [
        "dem",
        "ocr"
      ],
      [
        "vir",
        "gin"
      ],
      [
        "how",
        "ever"
      ],
      [
        "freed",
        "om"
      ],
      [
        "1",
        "3"
      ],
      [
        "b",
        "us"
      ],
      [
        "f",
        "arm"
      ],
      [
        "j",
        "ap"
      ],
      [
        "l",
        "o"
      ],
      [
        "l",
        "ish"
      ],
      [
        "t",
        "reat"
      ],
      [
        "w",
        "es"
      ],
      [
        "the",
        "re"
      ],
      [
        "in",
        "di"
      ],
      [
        "in",
        "cl"
      ],
      [
        "at",
        "es"
      ],
      [
        "st",
        "em"
      ],
      [
        "ar",
        "t"
      ],
      [
        "re",
        "present"
      ],
      [
        "ou",
        "ght"
      ],
      [
        "de",
        "vel"
      ],
      [
        "de",
        "clar"
      ],
      [
        "un",
        "der"
      ],
      [
        "ation",
        "s"
      ],
      [
        "be",
        "came"
      ],
      [
        "im",
        "ages"
      ],
      [
        "wh",
        "at"
      ],
      [
        "wh",
        "ich"
      ],
      [
        "la",
        "y"
      ],
      [
        "ear",
        "ly"
      ],
      [
        "he",
        "l"
      ],
      [
        "fr",
        "ance"
      ],
      [
        "land",
        "s"
      ],
      [
        "sou",
        "thern"
      ],
      [
        "per",
        "i"
      ],
      [
        "str",
        "ong"
      ],
      [
        "ci",
        "vil"
      ],
      [
        "gro",
        "w"
      ],
      [
        "sy",
        "stem"
      ],
      [
        "sett",
        "le"
      ],
      [
        "soc",
        "ial"
      ],
      [
        "virgin",
        "ia"
      ],
      [
        "1",
        "5"
      ],
      [
        "c",
        "ur"
      ],
      [
        "c",
        "ult"
      ],
      [
        "e",
        "c"
      ],
      [
        "f",
        "ound"
      ],
      [
        "h",
        "ar"
      ],
      [
        "i",
        "b"
      ],
      [
        "i",
        "an"
      ],
      [
        "i",
        "le"
      ],
      [
        "i",
        "et"
      ],
      [
        "k",
        "s"
      ],
      [
        "l",
        "f"
      ],
      [
        "m",
        "en"
      ],
      [
        "p",
        "op"
      ],
      [
        "r",
        "al"
      ],
      [
        "r",
        "ic"
      ],
      [
        "s",
        "a"
      ],
      [
        "s",
        "ol"
      ],
      [
        "v",
        "ing"
      ],
      [
        "th",
        "is"
      ],
      [
        "th",
        "rou"
      ],
      [
        "er",
        "e"
      ],
      [
        "on",
        "s"
      ],
      [
        "en",
        "c"
      ],
      [
        "al",
        "so"
      ],
      [
        "ar",
        "ri"
      ],
      [
        "re",
        "e"
      ],
      [
        "ent",
        "s"
      ],
      [
        "de",
        "leg"
      ],
      [
        "le",
        "ad"
      ],
      [
        "con",
        "fed"
      ],
      [
        "for",
        "ces"
      ],
      [
        "op",
        "s"
      ],
      [
        "ter",
        "n"
      ],
      [
        "us",
        "ed"
      ],
      [
        "mo",
        "ve"
      ],
      [
        "nation",
        "s"
      ],
      [
        "00",
        "0"
      ],
      [
        "ght",
        "ing"
      ],
      [
        "ab",
        "le"
      ],
      [
        "cont",
        "ro"
      ],
      [
        "17",
        "8"
      ],
      [
        "sh",
        "ip"
      ],
      [
        "other",
        "s"
      ],
      [
        "ph",
        "il"
      ],
      [
        "vid",
        "ed"
      ],
      [
        "ju",
        "st"
      ],
      [
        "ual",
        "ly"
      ],
      [
        "cour",
        "t"
      ],
      [
        "milit",
        "ary"
      ],
      [
        "beli",
        "e"
      ],
      [
        "pen",
        "n"
      ],
      [
        "tro",
        "ops"
      ],
      [
        "jap",
        "an"
      ],
      [
        "wes",
        "tern"
      ],
      [
        "incl",
        "ud"
      ],
      [
        "devel",
        "op"
      ],
      [
        "pop",
        "ul"
      ],
      [
        "throu",
        "gh"
      ],
      [
        "confed",
        "er"
      ],
      [
        "1",
        "6"
      ],
      [
        "a",
        "fr"
      ],
      [
        "b",
        "al"
      ],
      [
        "c",
        "all"
      ],
      [
        "c",
        "ial"
      ],
      [
        "d",
        "ay"
      ],
      [
        "d",
        "uring"
      ],
      [
        "e",
        "e"
      ],
      [
        "e",
        "qu"
      ],
      [
        "e",
        "vent"
      ],
      [
        "n",
        "ow"
      ],
      [
        "t",
        "a"
      ],
      [
        "t",
        "ing"
      ],
      [
        "v",
        "en"
      ],
      [
        "v",
        "is"
      ],
      [
        "w",
        "est"
      ],
      [
        "th",
        "an"
      ],
      [
        "es",
        "ts"
      ],
      [
        "or",
        "ies"
      ],
      [
        "or",
        "gan"
      ],
      [
        "it",
        "e"
      ],
      [
        "it",
        "al"
      ],
      [
        "re",
        "w"
      ],
      [
        "to",
        "o"
      ],
      [
        "de",
        "fe"
      ],
      [
        "ver",
        "y"
      ],
      [
        "be",
        "come"
      ],
      [
        "com",
        "p"
      ],
      [
        "pl",
        "an"
      ],
      [
        "ab",
        "lish"
      ],
      [
        "17",
        "7"
      ],
      [
        "iz",
        "e"
      ],
      [
        "est",
        "ablish"
      ],
      [
        "arm",
        "y"
      ],
      [
        "comm",
        "un"
      ],
      [
        "fed",
        "eral"
      ],
      [
        "continent",
        "al"
      ],
      [
        "democr",
        "acy"
      ],
      [
        "deleg",
        "ates"
      ],
      [
        "contro",
        "l"
      ],
      [
        "afr",
        "ic"
      ],
      [
        "c",
        "an"
      ],
      [
        "c",
        "ity"
      ],
      [
        "f",
        "f"
      ],
      [
        "f",
        "ul"
      ],
      [
        "h",
        "as"
      ],
      [
        "h",
        "ist"
      ],
      [
        "i",
        "i"
      ],
      [
        "j",
        "ect"
      ],
      [
        "l",
        "ow"
      ],
      [
        "l",
        "ong"
      ],
      [
        "l",
        "ph"
      ],
      [
        "l",
        "van"
      ],
      [
        "n",
        "o"
      ],
      [
        "n",
        "av"
      ],
      [
        "p",
        "i"
      ],
      [
        "r",
        "y"
      ],
      [
        "t",
        "re"
      ],
      [
        "u",
        "c"
      ],
      [
        "v",
        "ict"
      ],
      [
        "th",
        "om"
      ],
      [
        "th",
        "ose"
      ],
      [
        "on",
        "ly"
      ],
      [
        "ed",
        "ed"
      ],
      [
        "en",
        "g"
      ],
      [
        "it",
        "ion"
      ],
      [
        "re",
        "public"
      ],
      [
        "ro",
        "ad"
      ],
      [
        "is",
        "l"
      ],
      [
        "ou",
        "gh"
      ],
      [
        "am",
        "s"
      ],
      [
        "am",
        "il"
      ],
      [
        "ad",
        "es"
      ],
      [
        "be",
        "fore"
      ],
      [
        "ain",
        "s"
      ],
      [
        "pro",
        "cess"
      ],
      [
        "col",
        "n"
      ],
      [
        "ex",
        "p"
      ],
      [
        "colon",
        "ists"
      ],
      [
        "str",
        "u"
      ],
      [
        "so",
        "viet"
      ],
      [
        "cent",
        "ury"
      ],
      [
        "cent",
        "ral"
      ],
      [
        "ade",
        "lph"
      ],
      [
        "leg",
        "isl"
      ],
      [
        "contin",
        "u"
      ],
      [
        "sy",
        "lvan"
      ],
      [
        "lin",
        "coln"
      ],
      [
        "sla",
        "very"
      ],
      [
        "dec",
        "ades"
      ],
      [
        "nat",
        "ive"
      ],
      [
        "pre",
        "vent"
      ],
      [
        "pr",
        "in"
      ],
      [
        "chan",
        "ge"
      ],
      [
        "chi",
        "ef"
      ],
      [
        "liber",
        "ty"
      ],
      [
        "polic",
        "y"
      ],
      [
        "imm",
        "ig"
      ],
      [
        "hel",
        "p"
      ],
      [
        "settle",
        "ment"
      ],
      [
        "lead",
        "ers"
      ],
      [
        "phil",
        "adelph"
      ],
      [
        "belie",
        "ved"
      ],
      [
        "penn",
        "sylvan"
      ],
      [
        "equ",
        "al"
      ],
      [
        "thom",
        "as"
      ],
      [
        "philadelph",
        "ia"
      ],
      [
        "pennsylvan",
        "ia"
      ],
      [
        "b",
        "en"
      ],
      [
        "c",
        "it"
      ],
      [
        "d",
        "ist"
      ],
      [
        "e",
        "ven"
      ],
      [
        "f",
        "our"
      ],
      [
        "g",
        "ot"
      ],
      [
        "h",
        "i"
      ],
      [
        "j",
        "am"
      ],
      [
        "m",
        "ass"
      ],
      [
        "r",
        "at"
      ],
      [
        "r",
        "end"
      ],
      [
        "s",
        "m"
      ],
      [
        "u",
        "res"
      ],
      [
        "w",
        "il"
      ],
      [
        "y",
        "oun"
      ],
      [
        "th",
        "or"
      ],
      [
        "in",
        "du"
      ],
      [
        "an",
        "y"
      ],
      [
        "or",
        "ts"
      ],
      [
        "al",
        "th"
      ],
      [
        "al",
        "ong"
      ],
      [
        "al",
        "most"
      ],
      [
        "and",
        "s"
      ],
      [
        "and",
        "ed"
      ],
      [
        "of",
        "fi"
      ],
      [
        "re",
        "main"
      ],
      [
        "de",
        "b"
      ],
      [
        "de",
        "al"
      ],
      [
        "ol",
        "d"
      ],
      [
        "se",
        "pt"
      ],
      [
        "se",
        "lf"
      ],
      [
        "ce",
        "pt"
      ],
      [
        "pro",
        "s"
      ],
      [
        "pro",
        "gress"
      ],
      [
        "pro",
        "mis"
      ],
      [
        "ter",
        "rit"
      ],
      [
        "pe",
        "ace"
      ],
      [
        "pres",
        "sion"
      ],
      [
        "ex",
        "pl"
      ],
      [
        "19",
        "4"
      ],
      [
        "em",
        "ber"
      ],
      [
        "nor",
        "thern"
      ],
      [
        "ant",
        "ic"
      ],
      [
        "sup",
        "re"
      ],
      [
        "fre",
        "e"
      ],
      [
        "ser",
        "v"
      ],
      [
        "soc",
        "iet"
      ],
      [
        "inter",
        "ests"
      ],
      [
        "bu",
        "ild"
      ],
      [
        "john",
        "son"
      ],
      [
        "lar",
        "ge"
      ],
      [
        "sur",
        "rend"
      ],
      [
        "farm",
        "ers"
      ],
      [
        "treat",
        "y"
      ],
      [
        "move",
        "ment"
      ],
      [
        "develop",
        "ed"
      ],
      [
        "ta",
        "x"
      ],
      [
        "establish",
        "ed"
      ],
      [
        "afric",
        "an"
      ],
      [
        "youn",
        "g"
      ],
      [
        "sept",
        "ember"
      ],
      [
        "3",
        "0"
      ],
      [
        "5",
        "0"
      ],
      [
        "b",
        "ur"
      ],
      [
        "c",
        "al"
      ],
      [
        "c",
        "la"
      ],
      [
        "c",
        "ap"
      ],
      [
        "f",
        "act"
      ],
      [
        "g",
        "ed"
      ],
      [
        "g",
        "ia"
      ],
      [
        "g",
        "rew"
      ],
      [
        "h",
        "op"
      ],
      [
        "i",
        "e"
      ],
      [
        "i",
        "o"
      ],
      [
        "i",
        "ves"
      ],
      [
        "k",
        "e"
      ],
      [
        "k",
        "n"
      ],
      [
        "l",
        "im"
      ],
      [
        "l",
        "ater"
      ],
      [
        "l",
        "antic"
      ],
      [
        "m",
        "s"
      ],
      [
        "m",
        "id"
      ],
      [
        "p",
        "on"
      ],
      [
        "p",
        "ut"
      ],
      [
        "p",
        "lay"
      ],
      [
        "r",
        "ation"
      ],
      [
        "t",
        "ts"
      ],
      [
        "v",
        "al"
      ],
      [
        "w",
        "on"
      ],
      [
        "the",
        "n"
      ],
      [
        "in",
        "fl"
      ],
      [
        "in",
        "ess"
      ],
      [
        "an",
        "ish"
      ],
      [
        "er",
        "a"
      ],
      [
        "at",
        "lantic"
      ],
      [
        "or",
        "t"
      ],
      [
        "or",
        "ed"
      ],
      [
        "st",
        "e"
      ],
      [
        "st",
        "on"
      ],
      [
        "and",
        "er"
      ],
      [
        "ar",
        "ch"
      ],
      [
        "re",
        "ach"
      ],
      [
        "ro",
        "ose"
      ],
      [
        "de",
        "f"
      ],
      [
        "am",
        "end"
      ],
      [
        "il",
        "t"
      ],
      [
        "un",
        "d"
      ],
      [
        "om",
        "en"
      ],
      [
        "ad",
        "d"
      ],
      [
        "ad",
        "min"
      ],
      [
        "for",
        "ce"
      ],
      [
        "be",
        "ll"
      ],
      [
        "be",
        "gan"
      ],
      [
        "ne",
        "ar"
      ],
      [
        "ne",
        "ver"
      ],
      [
        "id",
        "a"
      ],
      [
        "ge",
        "tt"
      ],
      [
        "im",
        "es"
      ],
      [
        "pro",
        "te"
      ],
      [
        "su",
        "re"
      ],
      [
        "wh",
        "ile"
      ],
      [
        "wh",
        "ere"
      ],
      [
        "la",
        "st"
      ],
      [
        "li",
        "am"
      ],
      [
        "li",
        "fe"
      ],
      [
        "pres",
        "er"
      ],
      [
        "com",
        "promis"
      ],
      [
        "po",
        "st"
      ],
      [
        "00",
        "s"
      ],
      [
        "tr",
        "u"
      ],
      [
        "di",
        "ff"
      ],
      [
        "ab",
        "out"
      ],
      [
        "fr",
        "an"
      ],
      [
        "colon",
        "ial"
      ],
      [
        "por",
        "ted"
      ],
      [
        "att",
        "ack"
      ],
      [
        "me",
        "as"
      ],
      [
        "form",
        "ation"
      ],
      [
        "sup",
        "port"
      ],
      [
        "co",
        "ast"
      ],
      [
        "sp",
        "anish"
      ],
      [
        "ach",
        "use"
      ],
      [
        "au",
        "thor"
      ],
      [
        "reg",
        "ul"
      ],
      [
        "geor",
        "gia"
      ],
      [
        "ger",
        "many"
      ],
      [
        "loc",
        "al"
      ],
      [
        "gu",
        "ar"
      ],
      [
        "dec",
        "is"
      ],
      [
        "bu",
        "ilt"
      ],
      [
        "group",
        "s"
      ],
      [
        "batt",
        "le"
      ],
      [
        "batt",
        "les"
      ],
      [
        "vot",
        "e"
      ],
      [
        "grow",
        "ing"
      ],
      [
        "cial",
        "ly"
      ],
      [
        "organ",
        "ized"
      ],
      [
        "defe",
        "at"
      ],
      [
        "hist",
        "ory"
      ],
      [
        "ject",
        "ed"
      ],
      [
        "continu",
        "ed"
      ],
      [
        "mass",
        "achuse"
      ],
      [
        "pros",
        "per"
      ],
      [
        "supre",
        "me"
      ],
      [
        "societ",
        "y"
      ],
      [
        "roose",
        "vel"
      ],
      [
        "admin",
        "ist"
      ],
      [
        "massachuse",
        "tts"
      ],
      [
        "2",
        "1"
      ],
      [
        "a",
        "ther"
      ],
      [
        "b",
        "an"
      ],
      [
        "b",
        "ri"
      ],
      [
        "b",
        "ack"
      ],
      [
        "c",
        "r"
      ],
      [
        "c",
        "ar"
      ],
      [
        "c",
        "ts"
      ],
      [
        "d",
        "en"
      ],
      [
        "d",
        "le"
      ],
      [
        "d",
        "id"
      ],
      [
        "d",
        "oc"
      ],
      [
        "e",
        "ast"
      ],
      [
        "f",
        "ol"
      ],
      [
        "f",
        "ac"
      ],
      [
        "f",
        "ri"
      ],
      [
        "f",
        "ought"
      ],
      [
        "h",
        "u"
      ],
      [
        "h",
        "ap"
      ],
      [
        "i",
        "ans"
      ],
      [
        "j",
        "eff"
      ],
      [
        "k",
        "ore"
      ],
      [
        "l",
        "t"
      ],
      [
        "l",
        "it"
      ],
      [
        "l",
        "ers"
      ],
      [
        "m",
        "a"
      ],
      [
        "m",
        "et"
      ],
      [
        "n",
        "es"
      ],
      [
        "n",
        "al"
      ],
      [
        "n",
        "am"
      ],
      [
        "o",
        "g"
      ],
      [
        "o",
        "ce"
      ],
      [
        "o",
        "od"
      ],
      [
        "p",
        "s"
      ],
      [
        "p",
        "ri"
      ],
      [
        "p",
        "ain"
      ],
      [
        "r",
        "il"
      ],
      [
        "s",
        "c"
      ],
      [
        "s",
        "en"
      ],
      [
        "t",
        "i"
      ],
      [
        "t",
        "le"
      ],
      [
        "t",
        "ur"
      ],
      [
        "v",
        "oc"
      ],
      [
        "w",
        "an"
      ],
      [
        "w",
        "rit"
      ],
      [
        "w",
        "omen"
      ],
      [
        "x",
        "t"
      ],
      [
        "y",
        "al"
      ],
      [
        "th",
        "ought"
      ],
      [
        "th",
        "ree"
      ],
      [
        "in",
        "v"
      ],
      [
        "an",
        "other"
      ],
      [
        "at",
        "ic"
      ],
      [
        "at",
        "ives"
      ],
      [
        "or",
        "ida"
      ],
      [
        "al",
        "s"
      ],
      [
        "of",
        "ten"
      ],
      [
        "re",
        "con"
      ],
      [
        "re",
        "li"
      ],
      [
        "re",
        "ct"
      ],
      [
        "re",
        "form"
      ],
      [
        "ro",
        "le"
      ],
      [
        "is",
        "on"
      ],
      [
        "de",
        "part"
      ],
      [
        "de",
        "pression"
      ],
      [
        "se",
        "m"
      ],
      [
        "se",
        "t"
      ],
      [
        "se",
        "cur"
      ],
      [
        "con",
        "d"
      ],
      [
        "con",
        "fl"
      ],
      [
        "con",
        "vent"
      ],
      [
        "ad",
        "ed"
      ],
      [
        "ri",
        "ver"
      ],
      [
        "ne",
        "eded"
      ],
      [
        "ne",
        "xt"
      ],
      [
        "ain",
        "ed"
      ],
      [
        "ch",
        "ild"
      ],
      [
        "pro",
        "t"
      ],
      [
        "pro",
        "vided"
      ],
      [
        "ter",
        "s"
      ],
      [
        "su",
        "b"
      ],
      [
        "su",
        "s"
      ],
      [
        "su",
        "ch"
      ],
      [
        "pe",
        "ct"
      ],
      [
        "la",
        "bor"
      ],
      [
        "ers",
        "on"
      ],
      [
        "ap",
        "pe"
      ],
      [
        "ap",
        "ril"
      ],
      [
        "col",
        "lect"
      ],
      [
        "ex",
        "peri"
      ],
      [
        "po",
        "in"
      ],
      [
        "19",
        "3"
      ],
      [
        "19",
        "6"
      ],
      [
        "em",
        "p"
      ],
      [
        "17",
        "6"
      ],
      [
        "fl",
        "orida"
      ],
      [
        "att",
        "emp"
      ],
      [
        "leg",
        "al"
      ],
      [
        "sup",
        "ported"
      ],
      [
        "mis",
        "s"
      ],
      [
        "mar",
        "k"
      ],
      [
        "europe",
        "ans"
      ],
      [
        "sett",
        "lers"
      ],
      [
        "vid",
        "ual"
      ],
      [
        "ilit",
        "ies"
      ],
      [
        "reg",
        "ion"
      ],
      [
        "bo",
        "th"
      ],
      [
        "bo",
        "ston"
      ],
      [
        "main",
        "tain"
      ],
      [
        "nat",
        "ural"
      ],
      [
        "tri",
        "es"
      ],
      [
        "law",
        "s"
      ],
      [
        "ra",
        "il"
      ],
      [
        "fore",
        "ign"
      ],
      [
        "pos",
        "s"
      ],
      [
        "bas",
        "ed"
      ],
      [
        "coun",
        "tries"
      ],
      [
        "way",
        "s"
      ],
      [
        "mill",
        "ion"
      ],
      [
        "mill",
        "ions"
      ],
      [
        "ran",
        "ts"
      ],
      [
        "sign",
        "ed"
      ],
      [
        "issu",
        "e"
      ],
      [
        "produ",
        "ced"
      ],
      [
        "bus",
        "iness"
      ],
      [
        "indi",
        "vidual"
      ],
      [
        "declar",
        "ation"
      ],
      [
        "ib",
        "le"
      ],
      [
        "enc",
        "y"
      ],
      [
        "includ",
        "ing"
      ],
      [
        "confeder",
        "ate"
      ],
      [
        "call",
        "ed"
      ],
      [
        "event",
        "ually"
      ],
      [
        "too",
        "k"
      ],
      [
        "stru",
        "ction"
      ],
      [
        "immig",
        "rants"
      ],
      [
        "rat",
        "ifi"
      ],
      [
        "sm",
        "all"
      ],
      [
        "deb",
        "ate"
      ],
      [
        "build",
        "ing"
      ],
      [
        "tax",
        "es"
      ],
      [
        "cla",
        "im"
      ],
      [
        "kn",
        "own"
      ],
      [
        "mid",
        "dle"
      ],
      [
        "gett",
        "y"
      ],
      [
        "compromis",
        "e"
      ],
      [
        "meas",
        "ures"
      ],
      [
        "guar",
        "ant"
      ],
      [
        "prosper",
        "ity"
      ],
      [
        "roosevel",
        "t"
      ],
      [
        "fol",
        "low"
      ],
      [
        "wan",
        "ted"
      ],
      [
        "1",
        "0"
      ],
      [
        "1",
        "2"
      ],
      [
        "1",
        "4"
      ],
      [
        "1",
        "00"
      ],
      [
        "3",
        "8"
      ],
      [
        "a",
        "h"
      ],
      [
        "c",
        "u"
      ],
      [
        "c",
        "er"
      ],
      [
        "c",
        "ould"
      ],
      [
        "c",
        "au"
      ],
      [
        "c",
        "amp"
      ],
      [
        "d",
        "o"
      ],
      [
        "d",
        "r"
      ],
      [
        "d",
        "on"
      ],
      [
        "f",
        "ar"
      ],
      [
        "f",
        "air"
      ],
      [
        "g",
        "l"
      ],
      [
        "g",
        "ar"
      ],
      [
        "h",
        "en"
      ],
      [
        "h",
        "al"
      ],
      [
        "h",
        "amil"
      ],
      [
        "h",
        "old"
      ],
      [
        "i",
        "ed"
      ],
      [
        "j",
        "or"
      ],
      [
        "k",
        "lin"
      ],
      [
        "m",
        "u"
      ],
      [
        "m",
        "ary"
      ],
      [
        "m",
        "ak"
      ],
      [
        "n",
        "ing"
      ],
      [
        "o",
        "b"
      ],
      [
        "o",
        "y"
      ],
      [
        "p",
        "as"
      ],
      [
        "r",
        "en"
      ],
      [
        "r",
        "ich"
      ],
      [
        "s",
        "in"
      ],
      [
        "s",
        "ci"
      ],
      [
        "s",
        "ip"
      ],
      [
        "w",
        "ill"
      ],
      [
        "w",
        "ater"
      ],
      [
        "th",
        "ous"
      ],
      [
        "in",
        "s"
      ],
      [
        "an",
        "n"
      ],
      [
        "ed",
        "uc"
      ],
      [
        "es",
        "pe"
      ],
      [
        "en",
        "ed"
      ],
      [
        "en",
        "ch"
      ],
      [
        "en",
        "ces"
      ],
      [
        "en",
        "ough"
      ],
      [
        "or",
        "al"
      ],
      [
        "st",
        "ar"
      ],
      [
        "st",
        "op"
      ],
      [
        "st",
        "ill"
      ],
      [
        "st",
        "amp"
      ],
      [
        "al",
        "ex"
      ],
      [
        "ar",
        "d"
      ],
      [
        "it",
        "ed"
      ],
      [
        "it",
        "ions"
      ],
      [
        "re",
        "l"
      ],
      [
        "re",
        "ed"
      ],
      [
        "ic",
        "k"
      ],
      [
        "as",
        "ing"
      ],
      [
        "as",
        "ia"
      ],
      [
        "as",
        "sem"
      ],
      [
        "is",
        "ol"
      ],
      [
        "is",
        "sip"
      ],
      [
        "le",
        "y"
      ],
      [
        "se",
        "e"
      ],
      [
        "se",
        "par"
      ],
      [
        "il",
        "ity"
      ],
      [
        "un",
        "e"
      ],
      [
        "ad",
        "op"
      ],
      [
        "ad",
        "ams"
      ],
      [
        "res",
        "t"
      ],
      [
        "res",
        "ol"
      ],
      [
        "res",
        "tr"
      ],
      [
        "be",
        "cau"
      ],
      [
        "ly",
        "n"
      ],
      [
        "ne",
        "got"
      ],
      [
        "op",
        "ol"
      ],
      [
        "op",
        "posed"
      ],
      [
        "americ",
        "as"
      ],
      [
        "ge",
        "t"
      ],
      [
        "ge",
        "ther"
      ],
      [
        "wh",
        "ite"
      ],
      [
        "pres",
        "s"
      ],
      [
        "us",
        "s"
      ],
      [
        "ex",
        "cept"
      ],
      [
        "ex",
        "pect"
      ],
      [
        "ag",
        "ric"
      ],
      [
        "wi",
        "de"
      ],
      [
        "end",
        "ed"
      ],
      [
        "new",
        "ly"
      ],
      [
        "19",
        "5"
      ],
      [
        "man",
        "ent"
      ],
      [
        "tr",
        "y"
      ],
      [
        "em",
        "pl"
      ],
      [
        "di",
        "vided"
      ],
      [
        "di",
        "rect"
      ],
      [
        "fr",
        "on"
      ],
      [
        "fr",
        "ench"
      ],
      [
        "ber",
        "t"
      ],
      [
        "iz",
        "ation"
      ],
      [
        "per",
        "manent"
      ],
      [
        "str",
        "y"
      ],
      [
        "we",
        "l"
      ],
      [
        "bl",
        "ack"
      ],
      [
        "comm",
        "on"
      ],
      [
        "comm",
        "it"
      ],
      [
        "fe",
        "lt"
      ],
      [
        "are",
        "as"
      ],
      [
        "form",
        "er"
      ],
      [
        "sp",
        "ain"
      ],
      [
        "mis",
        "sion"
      ],
      [
        "constitution",
        "al"
      ],
      [
        "europe",
        "an"
      ],
      [
        "gr",
        "ap"
      ],
      [
        "min",
        "ut"
      ],
      [
        "work",
        "ed"
      ],
      [
        "ger",
        "man"
      ],
      [
        "les",
        "s"
      ],
      [
        "sla",
        "ve"
      ],
      [
        "sla",
        "ves"
      ],
      [
        "ult",
        "ural"
      ],
      [
        "econom",
        "y"
      ],
      [
        "ten",
        "s"
      ],
      [
        "ra",
        "w"
      ],
      [
        "elect",
        "ed"
      ],
      [
        "go",
        "od"
      ],
      [
        "polic",
        "ies"
      ],
      [
        "20",
        "th"
      ],
      [
        "represent",
        "ed"
      ],
      [
        "declar",
        "ed"
      ],
      [
        "peri",
        "od"
      ],
      [
        "cur",
        "r"
      ],
      [
        "cult",
        "ure"
      ],
      [
        "sa",
        "id"
      ],
      [
        "arri",
        "ved"
      ],
      [
        "178",
        "7"
      ],
      [
        "just",
        "ice"
      ],
      [
        "includ",
        "ed"
      ],
      [
        "popul",
        "ar"
      ],
      [
        "popul",
        "ation"
      ],
      [
        "vis",
        "ions"
      ],
      [
        "ital",
        "y"
      ],
      [
        "commun",
        "ist"
      ],
      [
        "legisl",
        "at"
      ],
      [
        "prin",
        "ci"
      ],
      [
        "cit",
        "ies"
      ],
      [
        "jam",
        "es"
      ],
      [
        "indu",
        "stry"
      ],
      [
        "territ",
        "ories"
      ],
      [
        "expl",
        "or"
      ],
      [
        "post",
        "war"
      ],
      [
        "fran",
        "klin"
      ],
      [
        "doc",
        "u"
      ],
      [
        "lit",
        "tle"
      ],
      [
        "ma",
        "jor"
      ],
      [
        "oce",
        "an"
      ],
      [
        "recon",
        "struction"
      ],
      [
        "reli",
        "g"
      ],
      [
        "secur",
        "ity"
      ],
      [
        "convent",
        "ion"
      ],
      [
        "child",
        "ren"
      ],
      [
        "attemp",
        "ts"
      ],
      [
        "miss",
        "issip"
      ],
      [
        "follow",
        "ing"
      ],
      [
        "hamil",
        "ton"
      ],
      [
        "mu",
        "ch"
      ],
      [
        "pas",
        "sed"
      ],
      [
        "thous",
        "ands"
      ],
      [
        "espe",
        "cially"
      ],
      [
        "alex",
        "ander"
      ],
      [
        "becau",
        "se"
      ],
      [
        "negot",
        "i"
      ],
      [
        "empl",
        "oy"
      ],
      [
        "1",
        "1"
      ],
      [
        "2",
        "5"
      ],
      [
        "2",
        "00"
      ],
      [
        "3",
        "5"
      ],
      [
        "3",
        "9"
      ],
      [
        "9",
        "0"
      ],
      [
        "a",
        "th"
      ],
      [
        "a",
        "it"
      ],
      [
        "a",
        "id"
      ],
      [
        "a",
        "ign"
      ],
      [
        "b",
        "it"
      ],
      [
        "b",
        "re"
      ],
      [
        "b",
        "ir"
      ],
      [
        "b",
        "ul"
      ],
      [
        "b",
        "ill"
      ],
      [
        "c",
        "a"
      ],
      [
        "c",
        "le"
      ],
      [
        "c",
        "over"
      ],
      [
        "c",
        "ot"
      ],
      [
        "c",
        "red"
      ],
      [
        "d",
        "in"
      ],
      [
        "d",
        "one"
      ],
      [
        "d",
        "raw"
      ],
      [
        "e",
        "w"
      ],
      [
        "f",
        "a"
      ],
      [
        "f",
        "fi"
      ],
      [
        "f",
        "ear"
      ],
      [
        "f",
        "av"
      ],
      [
        "f",
        "used"
      ],
      [
        "f",
        "amil"
      ],
      [
        "g",
        "ri"
      ],
      [
        "g",
        "ather"
      ],
      [
        "h",
        "ome"
      ],
      [
        "i",
        "f"
      ],
      [
        "i",
        "v"
      ],
      [
        "i",
        "for"
      ],
      [
        "i",
        "gh"
      ],
      [
        "k",
        "il"
      ],
      [
        "l",
        "s"
      ],
      [
        "m",
        "ber"
      ],
      [
        "m",
        "ay"
      ],
      [
        "m",
        "ade"
      ],
      [
        "n",
        "ia"
      ],
      [
        "n",
        "um"
      ],
      [
        "o",
        "to"
      ],
      [
        "o",
        "ol"
      ],
      [
        "p",
        "ac"
      ],
      [
        "s",
        "i"
      ],
      [
        "s",
        "s"
      ],
      [
        "s",
        "ent"
      ],
      [
        "s",
        "om"
      ],
      [
        "s",
        "ch"
      ],
      [
        "t",
        "il"
      ],
      [
        "t",
        "ak"
      ],
      [
        "u",
        "ence"
      ],
      [
        "v",
        "ar"
      ],
      [
        "th",
        "s"
      ],
      [
        "th",
        "reat"
      ],
      [
        "in",
        "c"
      ],
      [
        "in",
        "es"
      ],
      [
        "in",
        "cre"
      ],
      [
        "er",
        "ation"
      ],
      [
        "er",
        "ences"
      ],
      [
        "en",
        "s"
      ],
      [
        "en",
        "ced"
      ],
      [
        "at",
        "ing"
      ],
      [
        "at",
        "tr"
      ],
      [
        "or",
        "m"
      ],
      [
        "or",
        "der"
      ],
      [
        "or",
        "ious"
      ],
      [
        "or",
        "din"
      ],
      [
        "st",
        "ri"
      ],
      [
        "st",
        "oc"
      ],
      [
        "al",
        "ism"
      ],
      [
        "ar",
        "ound"
      ],
      [
        "ar",
        "gu"
      ],
      [
        "ar",
        "chi"
      ],
      [
        "re",
        "al"
      ],
      [
        "re",
        "as"
      ],
      [
        "re",
        "jected"
      ],
      [
        "re",
        "fused"
      ],
      [
        "ic",
        "s"
      ],
      [
        "ic",
        "les"
      ],
      [
        "to",
        "gether"
      ],
      [
        "as",
        "k"
      ],
      [
        "as",
        "ury"
      ],
      [
        "ro",
        "yal"
      ],
      [
        "ro",
        "bert"
      ],
      [
        "de",
        "ad"
      ],
      [
        "le",
        "e"
      ],
      [
        "le",
        "x"
      ],
      [
        "ol",
        "og"
      ],
      [
        "se",
        "cre"
      ],
      [
        "se",
        "cond"
      ],
      [
        "con",
        "serv"
      ],
      [
        "un",
        "i"
      ],
      [
        "ad",
        "a"
      ],
      [
        "ad",
        "y"
      ],
      [
        "for",
        "ced"
      ],
      [
        "ac",
        "ed"
      ],
      [
        "ac",
        "ted"
      ],
      [
        "res",
        "pon"
      ],
      [
        "ver",
        "s"
      ],
      [
        "ver",
        "sus"
      ],
      [
        "be",
        "ing"
      ],
      [
        "be",
        "gin"
      ],
      [
        "ch",
        "ed"
      ],
      [
        "ch",
        "ar"
      ],
      [
        "ch",
        "ance"
      ],
      [
        "op",
        "port"
      ],
      [
        "ir",
        "ed"
      ],
      [
        "im",
        "pro"
      ],
      [
        "ter",
        "r"
      ],
      [
        "ter",
        "ms"
      ],
      [
        "su",
        "c"
      ],
      [
        "li",
        "ed"
      ],
      [
        "li",
        "ving"
      ],
      [
        "com",
        "pe"
      ],
      [
        "ans",
        "ion"
      ],
      [
        "ap",
        "er"
      ],
      [
        "br",
        "ing"
      ],
      [
        "ear",
        "th"
      ],
      [
        "new",
        "sp"
      ],
      [
        "19",
        "2"
      ],
      [
        "ish",
        "ed"
      ],
      [
        "00",
        "00"
      ],
      [
        "et",
        "imes"
      ],
      [
        "tr",
        "ad"
      ],
      [
        "tr",
        "ans"
      ],
      [
        "em",
        "er"
      ],
      [
        "em",
        "en"
      ],
      [
        "pl",
        "ace"
      ],
      [
        "pl",
        "ains"
      ],
      [
        "di",
        "ers"
      ],
      [
        "ab",
        "o"
      ],
      [
        "par",
        "is"
      ],
      [
        "sou",
        "ri"
      ],
      [
        "qu",
        "ick"
      ],
      [
        "af",
        "t"
      ],
      [
        "ph",
        "oto"
      ],
      [
        "comm",
        "er"
      ],
      [
        "co",
        "st"
      ],
      [
        "mis",
        "souri"
      ],
      [
        "au",
        "gu"
      ],
      [
        "dis",
        "put"
      ],
      [
        "dis",
        "appe"
      ],
      [
        "red",
        "u"
      ],
      [
        "part",
        "ic"
      ],
      [
        "wo",
        "od"
      ],
      [
        "great",
        "er"
      ],
      [
        "ide",
        "a"
      ],
      [
        "ect",
        "ive"
      ],
      [
        "chan",
        "ges"
      ],
      [
        "elect",
        "ion"
      ],
      [
        "beli",
        "ef"
      ],
      [
        "revolution",
        "ary"
      ],
      [
        "des",
        "ign"
      ],
      [
        "ho",
        "st"
      ],
      [
        "issu",
        "ed"
      ],
      [
        "viet",
        "nam"
      ],
      [
        "general",
        "ly"
      ],
      [
        "bus",
        "h"
      ],
      [
        "indi",
        "ans"
      ],
      [
        "art",
        "icles"
      ],
      [
        "represent",
        "atives"
      ],
      [
        "cult",
        "ural"
      ],
      [
        "sa",
        "w"
      ],
      [
        "sol",
        "diers"
      ],
      [
        "ship",
        "s"
      ],
      [
        "through",
        "out"
      ],
      [
        "ful",
        "l"
      ],
      [
        "tre",
        "asury"
      ],
      [
        "republic",
        "an"
      ],
      [
        "exp",
        "anded"
      ],
      [
        "legisl",
        "ation"
      ],
      [
        "chief",
        "l"
      ],
      [
        "hi",
        "gh"
      ],
      [
        "wil",
        "son"
      ],
      [
        "wil",
        "liam"
      ],
      [
        "self",
        "government"
      ],
      [
        "serv",
        "ice"
      ],
      [
        "surrend",
        "er"
      ],
      [
        "surrend",
        "ered"
      ],
      [
        "bur",
        "g"
      ],
      [
        "cal",
        "ifor"
      ],
      [
        "play",
        "ed"
      ],
      [
        "reach",
        "ed"
      ],
      [
        "prote",
        "ct"
      ],
      [
        "preser",
        "ve"
      ],
      [
        "author",
        "ity"
      ],
      [
        "administ",
        "ration"
      ],
      [
        "bri",
        "d"
      ],
      [
        "fac",
        "ilities"
      ],
      [
        "prot",
        "est"
      ],
      [
        "196",
        "0s"
      ],
      [
        "rail",
        "road"
      ],
      [
        "poss",
        "ible"
      ],
      [
        "guarant",
        "ee"
      ],
      [
        "camp",
        "aign"
      ],
      [
        "hen",
        "ry"
      ],
      [
        "hal",
        "f"
      ],
      [
        "mary",
        "land"
      ],
      [
        "educ",
        "ation"
      ],
      [
        "grap",
        "h"
      ],
      [
        "minut",
        "emen"
      ],
      [
        "relig",
        "ious"
      ],
      [
        "mississip",
        "pi"
      ],
      [
        "fav",
        "ored"
      ],
      [
        "gather",
        "ing"
      ],
      [
        "iv",
        "ism"
      ],
      [
        "pac",
        "ifi"
      ],
      [
        "som",
        "etimes"
      ],
      [
        "sch",
        "ool"
      ],
      [
        "incre",
        "asing"
      ],
      [
        "archi",
        "ves"
      ],
      [
        "olog",
        "ical"
      ],
      [
        "secre",
        "t"
      ],
      [
        "opport",
        "unit"
      ],
      [
        "augu",
        "st"
      ],
      [
        "disput",
        "es"
      ],
      [
        "disappe",
        "ar"
      ],
      [
        "califor",
        "nia"
      ],
      [
        "2",
        "3"
      ],
      [
        "3",
        "6"
      ],
      [
        "3",
        "00"
      ],
      [
        "4",
        "0"
      ],
      [
        "4",
        "4"
      ],
      [
        "9",
        "2"
      ],
      [
        "a",
        "w"
      ],
      [
        "a",
        "z"
      ],
      [
        "a",
        "br"
      ],
      [
        "b",
        "s"
      ],
      [
        "b",
        "in"
      ],
      [
        "b",
        "ro"
      ],
      [
        "b",
        "is"
      ],
      [
        "b",
        "ol"
      ],
      [
        "b",
        "om"
      ],
      [
        "b",
        "all"
      ],
      [
        "b",
        "ig"
      ],
      [
        "c",
        "k"
      ],
      [
        "c",
        "y"
      ],
      [
        "c",
        "ro"
      ],
      [
        "c",
        "ing"
      ],
      [
        "c",
        "ul"
      ],
      [
        "c",
        "reat"
      ],
      [
        "c",
        "up"
      ],
      [
        "c",
        "are"
      ],
      [
        "c",
        "lay"
      ],
      [
        "d",
        "c"
      ],
      [
        "d",
        "s"
      ],
      [
        "d",
        "om"
      ],
      [
        "d",
        "ut"
      ],
      [
        "d",
        "own"
      ],
      [
        "e",
        "l"
      ],
      [
        "e",
        "as"
      ],
      [
        "e",
        "ld"
      ],
      [
        "f",
        "o"
      ],
      [
        "f",
        "er"
      ],
      [
        "f",
        "oc"
      ],
      [
        "f",
        "ur"
      ],
      [
        "g",
        "g"
      ],
      [
        "g",
        "un"
      ],
      [
        "g",
        "ive"
      ],
      [
        "g",
        "ave"
      ],
      [
        "g",
        "lo"
      ],
      [
        "g",
        "ained"
      ],
      [
        "h",
        "in"
      ],
      [
        "h",
        "er"
      ],
      [
        "h",
        "all"
      ],
      [
        "h",
        "ip"
      ],
      [
        "h",
        "ere"
      ],
      [
        "i",
        "ation"
      ],
      [
        "i",
        "ght"
      ],
      [
        "i",
        "ate"
      ],
      [
        "j",
        "our"
      ],
      [
        "j",
        "ack"
      ],
      [
        "k",
        "y"
      ],
      [
        "l",
        "u"
      ],
      [
        "l",
        "ate"
      ],
      [
        "m",
        "t"
      ],
      [
        "m",
        "ed"
      ],
      [
        "m",
        "it"
      ],
      [
        "m",
        "ex"
      ],
      [
        "m",
        "oun"
      ],
      [
        "m",
        "ater"
      ],
      [
        "n",
        "ed"
      ],
      [
        "n",
        "ical"
      ],
      [
        "n",
        "ine"
      ],
      [
        "o",
        "ts"
      ],
      [
        "p",
        "at"
      ],
      [
        "p",
        "al"
      ],
      [
        "p",
        "un"
      ],
      [
        "p",
        "ur"
      ],
      [
        "p",
        "us"
      ],
      [
        "p",
        "ass"
      ],
      [
        "p",
        "ict"
      ],
      [
        "r",
        "m"
      ],
      [
        "r",
        "ad"
      ],
      [
        "r",
        "ac"
      ],
      [
        "r",
        "up"
      ],
      [
        "r",
        "uss"
      ],
      [
        "s",
        "l"
      ],
      [
        "s",
        "an"
      ],
      [
        "s",
        "it"
      ],
      [
        "s",
        "il"
      ],
      [
        "s",
        "pe"
      ],
      [
        "s",
        "li"
      ],
      [
        "s",
        "he"
      ],
      [
        "s",
        "ame"
      ],
      [
        "s",
        "av"
      ],
      [
        "t",
        "w"
      ],
      [
        "t",
        "ask"
      ],
      [
        "u",
        "es"
      ],
      [
        "u",
        "str"
      ],
      [
        "v",
        "ast"
      ],
      [
        "w",
        "n"
      ],
      [
        "w",
        "ent"
      ],
      [
        "y",
        "on"
      ],
      [
        "the",
        "ast"
      ],
      [
        "in",
        "a"
      ],
      [
        "in",
        "vent"
      ],
      [
        "in",
        "ated"
      ],
      [
        "an",
        "g"
      ],
      [
        "er",
        "ent"
      ],
      [
        "on",
        "ment"
      ],
      [
        "ed",
        "ison"
      ],
      [
        "es",
        "e"
      ],
      [
        "es",
        "y"
      ],
      [
        "en",
        "se"
      ],
      [
        "en",
        "vir"
      ],
      [
        "en",
        "orm"
      ],
      [
        "or",
        "ical"
      ],
      [
        "st",
        "and"
      ],
      [
        "al",
        "ed"
      ],
      [
        "al",
        "ways"
      ],
      [
        "re",
        "ver"
      ],
      [
        "ic",
        "o"
      ],
      [
        "ic",
        "ts"
      ],
      [
        "to",
        "m"
      ],
      [
        "to",
        "wer"
      ],
      [
        "to",
        "ber"
      ],
      [
        "to",
        "day"
      ],
      [
        "to",
        "wn"
      ],
      [
        "as",
        "e"
      ],
      [
        "as",
        "h"
      ],
      [
        "as",
        "es"
      ],
      [
        "ro",
        "p"
      ],
      [
        "ro",
        "w"
      ],
      [
        "ro",
        "ss"
      ],
      [
        "ro",
        "bin"
      ],
      [
        "ro",
        "ck"
      ],
      [
        "ent",
        "er"
      ],
      [
        "ent",
        "ial"
      ],
      [
        "is",
        "e"
      ],
      [
        "is",
        "land"
      ],
      [
        "is",
        "lands"
      ],
      [
        "de",
        "mo"
      ],
      [
        "am",
        "ong"
      ],
      [
        "le",
        "ge"
      ],
      [
        "le",
        "br"
      ],
      [
        "se",
        "l"
      ],
      [
        "se",
        "ver"
      ],
      [
        "se",
        "ize"
      ],
      [
        "se",
        "arch"
      ],
      [
        "con",
        "ne"
      ],
      [
        "con",
        "cl"
      ],
      [
        "il",
        "legal"
      ],
      [
        "un",
        "til"
      ],
      [
        "ad",
        "voc"
      ],
      [
        "ac",
        "ts"
      ],
      [
        "ac",
        "ef"
      ],
      [
        "ac",
        "ross"
      ],
      [
        "res",
        "er"
      ],
      [
        "res",
        "our"
      ],
      [
        "res",
        "sed"
      ],
      [
        "be",
        "tt"
      ],
      [
        "ce",
        "eded"
      ],
      [
        "ce",
        "lebr"
      ],
      [
        "ut",
        "ive"
      ],
      [
        "fi",
        "ghting"
      ],
      [
        "ne",
        "ed"
      ],
      [
        "ch",
        "all"
      ],
      [
        "stat",
        "us"
      ],
      [
        "id",
        "ed"
      ],
      [
        "op",
        "en"
      ],
      [
        "op",
        "eration"
      ],
      [
        "ir",
        "it"
      ],
      [
        "im",
        "port"
      ],
      [
        "im",
        "posed"
      ],
      [
        "pro",
        "gr"
      ],
      [
        "pro",
        "posed"
      ],
      [
        "ter",
        "ed"
      ],
      [
        "ter",
        "min"
      ],
      [
        "oc",
        "cup"
      ],
      [
        "oc",
        "tober"
      ],
      [
        "pe",
        "acef"
      ],
      [
        "la",
        "p"
      ],
      [
        "li",
        "ves"
      ],
      [
        "com",
        "ing"
      ],
      [
        "us",
        "es"
      ],
      [
        "ap",
        "ers"
      ],
      [
        "ap",
        "ons"
      ],
      [
        "ap",
        "poin"
      ],
      [
        "col",
        "um"
      ],
      [
        "col",
        "lege"
      ],
      [
        "ist",
        "ed"
      ],
      [
        "ist",
        "ance"
      ],
      [
        "ex",
        "ped"
      ],
      [
        "ex",
        "ec"
      ],
      [
        "ag",
        "o"
      ],
      [
        "ag",
        "ree"
      ],
      [
        "ag",
        "reed"
      ],
      [
        "war",
        "d"
      ],
      [
        "19",
        "8"
      ],
      [
        "19",
        "th"
      ],
      [
        "with",
        "draw"
      ],
      [
        "he",
        "ad"
      ],
      [
        "he",
        "aded"
      ],
      [
        "wor",
        "n"
      ],
      [
        "pl",
        "om"
      ],
      [
        "pl",
        "aced"
      ],
      [
        "di",
        "ed"
      ],
      [
        "di",
        "ver"
      ],
      [
        "di",
        "visions"
      ],
      [
        "di",
        "plom"
      ],
      [
        "ab",
        "ly"
      ],
      [
        "ab",
        "ility"
      ],
      [
        "par",
        "k"
      ],
      [
        "par",
        "liam"
      ],
      [
        "land",
        "ed"
      ],
      [
        "nor",
        "theast"
      ],
      [
        "18",
        "12"
      ],
      [
        "18",
        "90"
      ],
      [
        "sh",
        "all"
      ],
      [
        "sh",
        "ort"
      ],
      [
        "est",
        "ic"
      ],
      [
        "str",
        "eng"
      ],
      [
        "qu",
        "est"
      ],
      [
        "we",
        "lf"
      ],
      [
        "we",
        "apons"
      ],
      [
        "president",
        "ial"
      ],
      [
        "ous",
        "ly"
      ],
      [
        "so",
        "il"
      ],
      [
        "cent",
        "er"
      ],
      [
        "arm",
        "ies"
      ],
      [
        "fe",
        "ll"
      ],
      [
        "te",
        "a"
      ],
      [
        "te",
        "le"
      ],
      [
        "te",
        "ch"
      ],
      [
        "contin",
        "ue"
      ],
      [
        "vi",
        "ol"
      ],
      [
        "vi",
        "ew"
      ],
      [
        "are",
        "a"
      ],
      [
        "form",
        "ed"
      ],
      [
        "sp",
        "irit"
      ],
      [
        "ass",
        "oc"
      ],
      [
        "ach",
        "ie"
      ],
      [
        "dis",
        "c"
      ],
      [
        "mar",
        "shall"
      ],
      [
        "gr",
        "ant"
      ],
      [
        "lin",
        "e"
      ],
      [
        "sett",
        "led"
      ],
      [
        "work",
        "s"
      ],
      [
        "work",
        "ing"
      ],
      [
        "work",
        "ers"
      ],
      [
        "ser",
        "ies"
      ],
      [
        "inter",
        "national"
      ],
      [
        "part",
        "y"
      ],
      [
        "bo",
        "y"
      ],
      [
        "gen",
        "cy"
      ],
      [
        "ju",
        "ly"
      ],
      [
        "dem",
        "anded"
      ],
      [
        "power",
        "s"
      ],
      [
        "ever",
        "y"
      ],
      [
        "pre",
        "ced"
      ],
      [
        "ten",
        "nes"
      ],
      [
        "tri",
        "ed"
      ],
      [
        "tri",
        "bal"
      ],
      [
        "elect",
        "oral"
      ],
      [
        "mon",
        "opol"
      ],
      [
        "mon",
        "ths"
      ],
      [
        "liber",
        "al"
      ],
      [
        "pos",
        "ing"
      ],
      [
        "bas",
        "e"
      ],
      [
        "coun",
        "ter"
      ],
      [
        "cor",
        "por"
      ],
      [
        "vot",
        "ed"
      ],
      [
        "issu",
        "es"
      ],
      [
        "produ",
        "cts"
      ],
      [
        "186",
        "0"
      ],
      [
        "hel",
        "ped"
      ],
      [
        "grow",
        "th"
      ],
      [
        "settle",
        "ments"
      ],
      [
        "ec",
        "ts"
      ],
      [
        "found",
        "ed"
      ],
      [
        "har",
        "bor"
      ],
      [
        "court",
        "esy"
      ],
      [
        "call",
        "s"
      ],
      [
        "event",
        "s"
      ],
      [
        "defe",
        "ated"
      ],
      [
        "177",
        "5"
      ],
      [
        "federal",
        "ists"
      ],
      [
        "can",
        "ada"
      ],
      [
        "nav",
        "y"
      ],
      [
        "nav",
        "al"
      ],
      [
        "vict",
        "ory"
      ],
      [
        "vict",
        "orious"
      ],
      [
        "eng",
        "land"
      ],
      [
        "exp",
        "ansion"
      ],
      [
        "leaders",
        "hip"
      ],
      [
        "equal",
        "ly"
      ],
      [
        "ben",
        "e"
      ],
      [
        "ben",
        "jam"
      ],
      [
        "cit",
        "iz"
      ],
      [
        "indu",
        "stri"
      ],
      [
        "alth",
        "ough"
      ],
      [
        "remain",
        "ed"
      ],
      [
        "cap",
        "ital"
      ],
      [
        "fact",
        "ories"
      ],
      [
        "hop",
        "e"
      ],
      [
        "lim",
        "ited"
      ],
      [
        "val",
        "ues"
      ],
      [
        "arch",
        "y"
      ],
      [
        "def",
        "end"
      ],
      [
        "def",
        "ense"
      ],
      [
        "amend",
        "ment"
      ],
      [
        "amend",
        "ments"
      ],
      [
        "add",
        "ressed"
      ],
      [
        "last",
        "ed"
      ],
      [
        "tru",
        "man"
      ],
      [
        "attack",
        "s"
      ],
      [
        "decis",
        "ion"
      ],
      [
        "decis",
        "ive"
      ],
      [
        "fri",
        "end"
      ],
      [
        "hu",
        "ge"
      ],
      [
        "kore",
        "a"
      ],
      [
        "nes",
        "sed"
      ],
      [
        "nal",
        "ly"
      ],
      [
        "pain",
        "ting"
      ],
      [
        "writ",
        "er"
      ],
      [
        "depart",
        "ment"
      ],
      [
        "depart",
        "ments"
      ],
      [
        "experi",
        "enced"
      ],
      [
        "176",
        "5"
      ],
      [
        "region",
        "al"
      ],
      [
        "ah",
        "am"
      ],
      [
        "cer",
        "tain"
      ],
      [
        "sin",
        "ce"
      ],
      [
        "sci",
        "ent"
      ],
      [
        "star",
        "ted"
      ],
      [
        "stop",
        "ped"
      ],
      [
        "rel",
        "ations"
      ],
      [
        "assem",
        "b"
      ],
      [
        "isol",
        "ation"
      ],
      [
        "adop",
        "ted"
      ],
      [
        "resol",
        "ved"
      ],
      [
        "agric",
        "ultural"
      ],
      [
        "direct",
        "ly"
      ],
      [
        "fron",
        "ti"
      ],
      [
        "commit",
        "te"
      ],
      [
        "curr",
        "ency"
      ],
      [
        "legislat",
        "ive"
      ],
      [
        "princi",
        "pal"
      ],
      [
        "explor",
        "ation"
      ],
      [
        "docu",
        "ment"
      ],
      [
        "major",
        "ity"
      ],
      [
        "employ",
        "ed"
      ],
      [
        "bre",
        "ak"
      ],
      [
        "cot",
        "ton"
      ],
      [
        "fa",
        "il"
      ],
      [
        "famil",
        "ies"
      ],
      [
        "kil",
        "led"
      ],
      [
        "num",
        "ber"
      ],
      [
        "tak",
        "e"
      ],
      [
        "threat",
        "ened"
      ],
      [
        "argu",
        "ed"
      ],
      [
        "reas",
        "ons"
      ],
      [
        "dead",
        "ly"
      ],
      [
        "lex",
        "ington"
      ],
      [
        "respon",
        "se"
      ],
      [
        "terr",
        "or"
      ],
      [
        "suc",
        "ceeded"
      ],
      [
        "compe",
        "t"
      ],
      [
        "newsp",
        "aper"
      ],
      [
        "192",
        "0s"
      ],
      [
        "emer",
        "ged"
      ],
      [
        "abo",
        "ve"
      ],
      [
        "quick",
        "ly"
      ],
      [
        "commer",
        "ce"
      ],
      [
        "redu",
        "ce"
      ],
      [
        "partic",
        "ip"
      ],
      [
        "design",
        "ed"
      ],
      [
        "brid",
        "ge"
      ],
      [
        "graph",
        "ic"
      ],
      [
        "school",
        "s"
      ],
      [
        "increasing",
        "ly"
      ],
      [
        "opportunit",
        "y"
      ],
      [
        "disappear",
        "ed"
      ],
      [
        "az",
        "i"
      ],
      [
        "dom",
        "estic"
      ],
      [
        "eas",
        "y"
      ],
      [
        "fur",
        "ther"
      ],
      [
        "glo",
        "bal"
      ],
      [
        "mex",
        "ico"
      ],
      [
        "pun",
        "ish"
      ],
      [
        "pur",
        "ch"
      ],
      [
        "ustr",
        "ation"
      ],
      [
        "envir",
        "onment"
      ],
      [
        "enorm",
        "ous"
      ],
      [
        "robin",
        "son"
      ],
      [
        "demo",
        "graphic"
      ],
      [
        "sever",
        "al"
      ],
      [
        "conne",
        "ct"
      ],
      [
        "advoc",
        "ated"
      ],
      [
        "resour",
        "ces"
      ],
      [
        "chall",
        "en"
      ],
      [
        "progr",
        "ams"
      ],
      [
        "peacef",
        "ul"
      ],
      [
        "exped",
        "ition"
      ],
      [
        "exec",
        "utive"
      ],
      [
        "agree",
        "ments"
      ],
      [
        "welf",
        "are"
      ],
      [
        "tennes",
        "see"
      ],
      [
        "monopol",
        "ies"
      ],
      [
        "benjam",
        "in"
      ],
      [
        "industri",
        "es"
      ],
      [
        "2",
        "2"
      ],
      [
        "2",
        "6"
      ],
      [
        "2",
        "7"
      ],
      [
        "3",
        "4"
      ],
      [
        "3",
        "7"
      ],
      [
        "4",
        "6"
      ],
      [
        "4",
        "8"
      ],
      [
        "5",
        "1"
      ],
      [
        "5",
        "2"
      ],
      [
        "5",
        "4"
      ],
      [
        "5",
        "5"
      ],
      [
        "5",
        "8"
      ],
      [
        "5",
        "9"
      ],
      [
        "7",
        "0s"
      ],
      [
        "8",
        "8"
      ],
      [
        "9",
        "8"
      ],
      [
        "a",
        "er"
      ],
      [
        "a",
        "af"
      ],
      [
        "b",
        "a"
      ],
      [
        "b",
        "ed"
      ],
      [
        "b",
        "es"
      ],
      [
        "b",
        "il"
      ],
      [
        "b",
        "ac"
      ],
      [
        "b",
        "ers"
      ],
      [
        "b",
        "ot"
      ],
      [
        "b",
        "led"
      ],
      [
        "b",
        "ass"
      ],
      [
        "b",
        "rou"
      ],
      [
        "b",
        "road"
      ],
      [
        "b",
        "old"
      ],
      [
        "c",
        "and"
      ],
      [
        "c",
        "is"
      ],
      [
        "c",
        "ation"
      ],
      [
        "c",
        "ow"
      ],
      [
        "c",
        "ab"
      ],
      [
        "c",
        "ast"
      ],
      [
        "c",
        "arri"
      ],
      [
        "c",
        "cle"
      ],
      [
        "d",
        "an"
      ],
      [
        "d",
        "ed"
      ],
      [
        "d",
        "ou"
      ],
      [
        "d",
        "rop"
      ],
      [
        "e",
        "k"
      ],
      [
        "e",
        "es"
      ],
      [
        "e",
        "le"
      ],
      [
        "e",
        "ch"
      ],
      [
        "e",
        "ach"
      ],
      [
        "e",
        "vid"
      ],
      [
        "f",
        "in"
      ],
      [
        "f",
        "an"
      ],
      [
        "f",
        "am"
      ],
      [
        "f",
        "un"
      ],
      [
        "f",
        "all"
      ],
      [
        "f",
        "ine"
      ],
      [
        "f",
        "ue"
      ],
      [
        "f",
        "ather"
      ],
      [
        "g",
        "i"
      ],
      [
        "g",
        "n"
      ],
      [
        "g",
        "ing"
      ],
      [
        "g",
        "ate"
      ],
      [
        "g",
        "est"
      ],
      [
        "g",
        "ence"
      ],
      [
        "g",
        "ame"
      ],
      [
        "g",
        "reg"
      ],
      [
        "g",
        "ree"
      ],
      [
        "g",
        "ains"
      ],
      [
        "h",
        "ou"
      ],
      [
        "h",
        "ol"
      ],
      [
        "h",
        "un"
      ],
      [
        "h",
        "ous"
      ],
      [
        "h",
        "ors"
      ],
      [
        "h",
        "ib"
      ],
      [
        "h",
        "ands"
      ],
      [
        "h",
        "ired"
      ],
      [
        "i",
        "th"
      ],
      [
        "i",
        "or"
      ],
      [
        "i",
        "re"
      ],
      [
        "i",
        "ved"
      ],
      [
        "i",
        "ke"
      ],
      [
        "j",
        "r"
      ],
      [
        "j",
        "une"
      ],
      [
        "k",
        "o"
      ],
      [
        "k",
        "ent"
      ],
      [
        "k",
        "ans"
      ],
      [
        "l",
        "an"
      ],
      [
        "l",
        "le"
      ],
      [
        "m",
        "m"
      ],
      [
        "m",
        "y"
      ],
      [
        "m",
        "at"
      ],
      [
        "m",
        "al"
      ],
      [
        "m",
        "il"
      ],
      [
        "m",
        "ad"
      ],
      [
        "m",
        "us"
      ],
      [
        "m",
        "ot"
      ],
      [
        "m",
        "em"
      ],
      [
        "m",
        "one"
      ],
      [
        "m",
        "ach"
      ],
      [
        "m",
        "ound"
      ],
      [
        "m",
        "ccle"
      ],
      [
        "n",
        "cor"
      ],
      [
        "n",
        "ological"
      ],
      [
        "n",
        "azi"
      ],
      [
        "o",
        "k"
      ],
      [
        "o",
        "il"
      ],
      [
        "p",
        "y"
      ],
      [
        "p",
        "ent"
      ],
      [
        "p",
        "ing"
      ],
      [
        "p",
        "il"
      ],
      [
        "p",
        "ly"
      ],
      [
        "p",
        "ay"
      ],
      [
        "p",
        "ite"
      ],
      [
        "p",
        "getty"
      ],
      [
        "r",
        "u"
      ],
      [
        "r",
        "ong"
      ],
      [
        "r",
        "ated"
      ],
      [
        "r",
        "ict"
      ],
      [
        "r",
        "ace"
      ],
      [
        "r",
        "ural"
      ],
      [
        "s",
        "w"
      ],
      [
        "s",
        "ar"
      ],
      [
        "s",
        "id"
      ],
      [
        "s",
        "ize"
      ],
      [
        "s",
        "low"
      ],
      [
        "s",
        "burg"
      ],
      [
        "s",
        "worn"
      ],
      [
        "s",
        "killed"
      ],
      [
        "t",
        "in"
      ],
      [
        "t",
        "al"
      ],
      [
        "t",
        "ion"
      ],
      [
        "t",
        "ent"
      ],
      [
        "t",
        "am"
      ],
      [
        "t",
        "ation"
      ],
      [
        "t",
        "ex"
      ],
      [
        "t",
        "work"
      ],
      [
        "u",
        "fact"
      ],
      [
        "w",
        "w"
      ],
      [
        "w",
        "ro"
      ],
      [
        "w",
        "ine"
      ],
      [
        "y",
        "a"
      ],
      [
        "y",
        "e"
      ],
      [
        "y",
        "ed"
      ],
      [
        "y",
        "ing"
      ],
      [
        "th",
        "ir"
      ],
      [
        "th",
        "reed"
      ],
      [
        "the",
        "or"
      ],
      [
        "the",
        "od"
      ],
      [
        "in",
        "t"
      ],
      [
        "in",
        "ed"
      ],
      [
        "in",
        "st"
      ],
      [
        "in",
        "ct"
      ],
      [
        "in",
        "ton"
      ],
      [
        "in",
        "te"
      ],
      [
        "in",
        "vol"
      ],
      [
        "in",
        "sur"
      ],
      [
        "in",
        "come"
      ],
      [
        "in",
        "formation"
      ],
      [
        "in",
        "tens"
      ],
      [
        "in",
        "concl"
      ],
      [
        "in",
        "fan"
      ],
      [
        "an",
        "im"
      ],
      [
        "an",
        "ies"
      ],
      [
        "an",
        "ces"
      ],
      [
        "an",
        "ced"
      ],
      [
        "er",
        "n"
      ],
      [
        "er",
        "y"
      ],
      [
        "er",
        "to"
      ],
      [
        "er",
        "ly"
      ],
      [
        "on",
        "a"
      ],
      [
        "on",
        "ce"
      ],
      [
        "ed",
        "it"
      ],
      [
        "ed",
        "iate"
      ],
      [
        "es",
        "ted"
      ],
      [
        "es",
        "cap"
      ],
      [
        "en",
        "jo"
      ],
      [
        "en",
        "cour"
      ],
      [
        "en",
        "sure"
      ],
      [
        "en",
        "acted"
      ],
      [
        "or",
        "ig"
      ],
      [
        "or",
        "ial"
      ],
      [
        "st",
        "re"
      ],
      [
        "st",
        "ay"
      ],
      [
        "st",
        "ance"
      ],
      [
        "st",
        "art"
      ],
      [
        "st",
        "ee"
      ],
      [
        "st",
        "ood"
      ],
      [
        "st",
        "ability"
      ],
      [
        "al",
        "li"
      ],
      [
        "al",
        "ike"
      ],
      [
        "and",
        "y"
[...]
