{
  "version": "1.0",
  "truncation": null,
  "padding": null,
  "added_tokens": [
    {
      "id": 0,
      "content": "[PAD]",
      "single_word": false,
      "lstrip": false,
      "rstrip": false,
      "normalized": false,
      "special": true
    },
    {
      "id": 1,
      "content": "[UNK]",
      "single_word": false,
      "lstrip": false,
      "rstrip": false,
      "normalized": false,
      "special": true
    },
    {
      "id": 2,
      "content": "[CLS]",
      "single_word": false,
      "lstrip": false,
      "rstrip": false,
      "normalized": false,
      "special": true
    },
    {
      "id": 3,
      "content": "[SEP]",
      "single_word": false,
      "lstrip": false,
      "rstrip": false,
      "normalized": false,
      "special": true
    },
    {
      "id": 4,
      "content": "[MASK]",
      "single_word": false,
      "lstrip": false,
      "rstrip": false,
      "normalized": false,
      "special": true
    }
  ],
  "normalizer": null,
  "pre_tokenizer": {
    "type": "Whitespace"
  },
  "post_processor": null,
  "decoder": null,
  "model": {
    "type": "WordPiece",
    "unk_token": "[UNK]",
    "continuing_subword_prefix": "##",
    "max_input_chars_per_word": 100,
    "vocab": {
      "[PAD]": 0,
      "[UNK]": 1,
      "[CLS]": 2,
      "[SEP]": 3,
      "[MASK]": 4,
      "!": 5,
      "$": 6,
      "(": 7,
      ")": 8,
      ",": 9,
      "-": 10,
      ".": 11,
      "/": 12,
      "0": 13,
      "1": 14,
      "2": 15,
      "3": 16,
      "4": 17,
      "5": 18,
      "6": 19,
      "7": 20,
      "8": 21,
      "9": 22,
      ":": 23,
      ";": 24,
      "A": 25,
      "B": 26,
      "C": 27,
      "D": 28,
      "E": 29,
      "F": 30,
      "G": 31,
      "H": 32,
      "I": 33,
      "J": 34,
      "K": 35,
      "L": 36,
      "M": 37,
      "N": 38,
      "O": 39,
      "P": 40,
      "Q": 41,
      "R": 42,
      "S": 43,
      "T": 44,
      "U": 45,
      "V": 46,
      "W": 47,
      "X": 48,
      "Y": 49,
      "Z": 50,
      "a": 51,
      "b": 52,
      "c": 53,
      "d": 54,
      "e": 55,
      "f": 56,
      "g": 57,
      "h": 58,
      "i": 59,
      "j": 60,
      "k": 61,
      "l": 62,
      "m": 63,
      "n": 64,
      "o": 65,
      "p": 66,
      "q": 67,
      "r": 68,
      "s": 69,
      "t": 70,
      "u": 71,
      "v": 72,
      "w": 73,
      "x": 74,
      "y": 75,
      "z": 76,
      "©": 77,
      "á": 78,
      "é": 79,
      "í": 80,
      "ó": 81,
      "–": 82,
      "—": 83,
      "’": 84,
      "“": 85,
      "”": 86,
      "…": 87,
      "ﬂ": 88,
      "##n": 89,
      "##d": 90,
      "##u": 91,
      "##s": 92,
      "##t": 93,
      "##r": 94,
      "##y": 95,
      "##i": 96,
      "##c": 97,
      "##x": 98,
      "##h": 99,
      "##b": 100,
      "##o": 101,
      "##e": 102,
      "##9": 103,
      "##5": 104,
      "##6": 105,
      "##f": 106,
      "##a": 107,
      "##l": 108,
      "##g": 109,
      "##v": 110,
      "##m": 111,
      "##p": 112,
      "##w": 113,
      "##z": 114,
      "##7": 115,
      "##4": 116,
      "##k": 117,
      "##3": 118,
      "##0": 119,
      "##8": 120,
      "##1": 121,
      "##,": 122,
      "##N": 123,
      "##T": 124,
      "##R": 125,
      "##O": 126,
      "##D": 127,
      "##U": 128,
      "##C": 129,
      "##I": 130,
      "##;": 131,
      "##A": 132,
      "##2": 133,
      "##M": 134,
      "##j": 135,
      "##S": 136,
      "##J": 137,
      "##q": 138,
      "##”": 139,
      "##Y": 140,
      "##L": 141,
      "##G": 142,
      "##E": 143,
      "##P": 144,
      "##F": 145,
      "##B": 146,
      "##é": 147,
      "##W": 148,
      "##.": 149,
      "##á": 150,
      "##-": 151,
      "##í": 152,
      "##/": 153,
      "##ﬂ": 154,
      "##V": 155,
      "##ó": 156,
      "##©": 157,
      "##he": 158,
      "##er": 159,
      "##on": 160,
      "the": 161,
      "##ed": 162,
      "##es": 163,
      "##nd": 164,
      "##ti": 165,
      "##en": 166,
      "##or": 167,
      "##in": 168,
      "##an": 169,
      "##al": 170,
      "of": 171,
      "##at": 172,
      "##ar": 173,
      "and": 174,
      "in": 175,
      "to": 176,
      "##ro": 177,
      "##ent": 178,
      "##it": 179,
      "##st": 180,
      "##ic": 181,
      "##tion": 182,
      "##re": 183,
      "##ou": 184,
      "##as": 185,
      "##ol": 186,
      "##ing": 187,
      "##is": 188,
      "The": 189,
      "##om": 190,
      "##ec": 191,
      "##il": 192,
      "##el": 193,
      "##ad": 194,
      "##ation": 195,
      "##et": 196,
      "th": 197,
      "##ver": 198,
      "##ce": 199,
      "##ts": 200,
      "##mer": 201,
      "##ment": 202,
      "for": 203,
      "##res": 204,
      "##id": 205,
      "##ly": 206,
      "##ain": 207,
      "##le": 208,
      "##tat": 209,
      "##ig": 210,
      "##ac": 211,
      "##ve": 212,
      "was": 213,
      "##th": 214,
      "Amer": 215,
      "re": 216,
      "Americ": 217,
      "##am": 218,
      "##ur": 219,
      "##ir": 220,
      "##ri": 221,
      "on": 222,
      "##ere": 223,
      "##ion": 224,
      "were": 225,
      "##tates": 226,
      "##and": 227,
      "##se": 228,
      "Un": 229,
      "con": 230,
      "##op": 231,
      "de": 232,
      "##ter": 233,
      "as": 234,
      "##her": 235,
      "##ut": 236,
      "pro": 237,
      "##ot": 238,
      "##ans": 239,
      "##ow": 240,
      "that": 241,
      "##oc": 242,
      "##tin": 243,
      "##ew": 244,
      "fi": 245,
      "##ers": 246,
      "##ited": 247,
      "##us": 248,
      "##ies": 249,
      "##ld": 250,
      "##ted": 251,
      "##ul": 252,
      "##tic": 253,
      "be": 254,
      "##pe": 255,
      "##rom": 256,
      "##ith": 257,
      "United": 258,
      "wh": 259,
      "##ist": 260,
      "States": 261,
      "go": 262,
      "##ge": 263,
      "had": 264,
      "19": 265,
      "Con": 266,
      "with": 267,
      "al": 268,
      "ex": 269,
      "st": 270,
      "##ia": 271,
      "##ear": 272,
      "##ap": 273,
      "by": 274,
      "at": 275,
      "##ost": 276,
      "##ay": 277,
      "##vern": 278,
      "##igh": 279,
      "an": 280,
      "from": 281,
      "##up": 282,
      "##ther": 283,
      "govern": 284,
      "##ress": 285,
      "col": 286,
      "##uc": 287,
      "##em": 288,
      "##ity": 289,
      "##iv": 290,
      "##ff": 291,
      "pol": 292,
      "##tu": 293,
      "nation": 294,
      "government": 295,
      "com": 296,
      "##im": 297,
      "##os": 298,
      "their": 299,
      "##ber": 300,
      "##ore": 301,
      "17": 302,
      "##ial": 303,
      "##la": 304,
      "##00": 305,
      "##ork": 306,
      "##ate": 307,
      "Americans": 308,
      "le": 309,
      "##ting": 310,
      "colon": 311,
      "18": 312,
      "ag": 313,
      "but": 314,
      "it": 315,
      "##ra": 316,
      "##ab": 317,
      "##ould": 318,
      "##ome": 319,
      "##resid": 320,
      "ch": 321,
      "##ran": 322,
      "##od": 323,
      "##gh": 324,
      "##reat": 325,
      "In": 326,
      "im": 327,
      "or": 328,
      "year": 329,
      "##sh": 330,
      "##ip": 331,
      "##iz": 332,
      "##ong": 333,
      "##ess": 334,
      "##ence": 335,
      "##all": 336,
      "American": 337,
      "exp": 338,
      "is": 339,
      "##ary": 340,
      "They": 341,
      "It": 342,
      "ar": 343,
      "new": 344,
      "un": 345,
      "##rit": 346,
      "##ie": 347,
      "##ep": 348,
      "##ast": 349,
      "##ous": 350,
      "##ett": 351,
      "##resident": 352,
      "Nor": 353,
      "##ton": 354,
      "##est": 355,
      "##any": 356,
      "##ill": 357,
      "##ame": 358,
      "en": 359,
      "ne": 360,
      "not": 361,
      "pe": 362,
      "war": 363,
      "would": 364,
      "##un": 365,
      "##ub": 366,
      "##ch": 367,
      "##ved": 368,
      "ec": 369,
      "righ": 370,
      "##itic": 371,
      "##fi": 372,
      "they": 373,
      "##ally": 374,
      "##oun": 375,
      "##our": 376,
      "years": 377,
      "Sou": 378,
      "gro": 379,
      "sh": 380,
      "states": 381,
      "##ati": 382,
      "##erm": 383,
      "##ated": 384,
      "##ign": 385,
      "New": 386,
      "bec": 387,
      "##tish": 388,
      "politic": 389,
      "Bri": 390,
      "ad": 391,
      "ind": 392,
      "rst": 393,
      "##ct": 394,
      "##gress": 395,
      "##por": 396,
      "British": 397,
      "##ust": 398,
      "##sti": 399,
      "##ric": 400,
      "##ag": 401,
      "##orld": 402,
      "##ack": 403,
      "America": 404,
      "who": 405,
      "##tution": 406,
      "##stitution": 407,
      "Eu": 408,
      "he": 409,
      "its": 410,
      "##iti": 411,
      "##rope": 412,
      "Europe": 413,
      "dec": 414,
      "pl": 415,
      "##aw": 416,
      "##vel": 417,
      "##hed": 418,
      "int": 419,
      "Union": 420,
      "again": 421,
      "##son": 422,
      "##ces": 423,
      "##epe": 424,
      "##ass": 425,
      "##iss": 426,
      "political": 427,
      "##epend": 428,
      "War": 429,
      "land": 430,
      "other": 431,
      "tr": 432,
      "##um": 433,
      "##iet": 434,
      "##ft": 435,
      "##ave": 436,
      "##lec": 437,
      "##land": 438,
      "##vent": 439,
      "##eral": 440,
      "##ough": 441,
      "##elp": 442,
      "##ments": 443,
      "contin": 444,
      "all": 445,
      "str": 446,
      "against": 447,
      "Ge": 448,
      "President": 449,
      "fre": 450,
      "par": 451,
      "sett": 452,
      "##fe": 453,
      "##fl": 454,
      "##0s": 455,
      "##qu": 456,
      "##hen": 457,
      "##nder": 458,
      "##ant": 459,
      "inc": 460,
      "dem": 461,
      "##thern": 462,
      "colonies": 463,
      "North": 464,
      "Geor": 465,
      "Fran": 466,
      "dis": 467,
      "most": 468,
      "op": 469,
      "over": 470,
      "sla": 471,
      "##ry": 472,
      "##ose": 473,
      "##eg": 474,
      "##for": 475,
      "##fter": 476,
      "##ak": 477,
      "##lic": 478,
      "##onom": 479,
      "##rou": 480,
      "##ish": 481,
      "##ade": 482,
      "att": 483,
      "##ependence": 484,
      "Brit": 485,
      "ac": 486,
      "cent": 487,
      "eff": 488,
      "his": 489,
      "led": 490,
      "mo": 491,
      "more": 492,
      "pow": 493,
      "res": 494,
      "sup": 495,
      "##duc": 496,
      "##su": 497,
      "##hn": 498,
      "##av": 499,
      "##gin": 500,
      "##pos": 501,
      "##ington": 502,
      "##ell": 503,
      "national": 504,
      "peop": 505,
      "##ublic": 506,
      "econom": 507,
      "rights": 508,
      "Britain": 509,
      "Th": 510,
      "am": 511,
      "are": 512,
      "di": 513,
      "gh": 514,
      "li": 515,
      "many": 516,
      "##ution": 517,
      "##sp": 518,
      "##ty": 519,
      "##ren": 520,
      "##rac": 521,
      "##ced": 522,
      "##ever": 523,
      "##les": 524,
      "##gan": 525,
      "##ven": 526,
      "##pl": 527,
      "inter": 528,
      "##ich": 529,
      "##ism": 530,
      "##ild": 531,
      "##ions": 532,
      "Congress": 533,
      "Constitution": 534,
      "##ized": 535,
      "into": 536,
      "people": 537,
      ").": 538,
      "Ar": 539,
      "Ch": 540,
      "Com": 541,
      "Ind": 542,
      "Le": 543,
      "York": 544,
      "after": 545,
      "end": 546,
      "have": 547,
      "pre": 548,
      "soc": 549,
      "tim": 550,
      "##ud": 551,
      "##tor": 552,
      "##oy": 553,
      "##ace": 554,
      "##vol": 555,
      "##inc": 556,
      "##ound": 557,
      "##old": 558,
      "##elie": 559,
      "##etw": 560,
      "##resent": 561,
      "cont": 562,
      "been": 563,
      "##ists": 564,
      "chan": 565,
      "South": 566,
      "ab": 567,
      "belie": 568,
      "co": 569,
      "law": 570,
      "mil": 571,
      "sy": 572,
      "tw": 573,
      "##ive": 574,
      "##ious": 575,
      "##ohn": 576,
      "##een": 577,
      "##ves": 578,
      "these": 579,
      "##enn": 580,
      "##ens": 581,
      "##att": 582,
      "##ater": 583,
      "##ations": 584,
      "##ach": 585,
      "reg": 586,
      "##ural": 587,
      "group": 588,
      "power": 589,
      "John": 590,
      "Ro": 591,
      "Was": 592,
      "bas": 593,
      "stat": 594,
      "work": 595,
      "world": 596,
      "##de": 597,
      "##ib": 598,
      "##ian": 599,
      "##hington": 600,
      "##lor": 601,
      "##van": 602,
      "##tive": 603,
      "##ine": 604,
      "##arly": 605,
      "##out": 606,
      "##ational": 607,
      "##ide": 608,
      "##ided": 609,
      "##amp": 610,
      "##ury": 611,
      "comm": 612,
      "leg": 613,
      "##ities": 614,
      "continu": 615,
      "time": 616,
      "##volution": 617,
      "##etween": 618,
      "Washington": 619,
      "000": 620,
      "At": 621,
      "Col": 622,
      "Germ": 623,
      "Im": 624,
      "Ph": 625,
      "Re": 626,
      "Sp": 627,
      "between": 628,
      "del": 629,
      "far": 630,
      "lar": 631,
      "me": 632,
      "sign": 633,
      "when": 634,
      "##ure": 635,
      "##tain": 636,
      "##ition": 637,
      "##lar": 638,
      "##lud": 639,
      "##wn": 640,
      "them": 641,
      "##edom": 642,
      "##ree": 643,
      "##ely": 644,
      "##very": 645,
      "rep": 646,
      "##uring": 647,
      "##irgin": 648,
      "defe": 649,
      "##owever": 650,
      "polic": 651,
      "186": 652,
      "arm": 653,
      "##ages": 654,
      "George": 655,
      "##rough": 656,
      "##posed": 657,
      "economic": 658,
      "milit": 659,
      "And": 660,
      "Jap": 661,
      "Mar": 662,
      "St": 663,
      "Virgin": 664,
      "bu": 665,
      "batt": 666,
      "came": 667,
      "coun": 668,
      "elec": 669,
      "help": 670,
      "mill": 671,
      "president": 672,
      "qu": 673,
      "red": 674,
      "rec": 675,
      "so": 676,
      "se": 677,
      "##ug": 678,
      "##og": 679,
      "##end": 680,
      "##ail": 681,
      "##eri": 682,
      "##one": 683,
      "##til": 684,
      "##ors": 685,
      "##ates": 686,
      "##roop": 687,
      "##stem": 688,
      "##ical": 689,
      "##ished": 690,
      "##ected": 691,
      "##elf": 692,
      "rem": 693,
      "one": 694,
      "devel": 695,
      "##tern": 696,
      "prot": 697,
      "##own": 698,
      "##ock": 699,
      "##ivil": 700,
      "comp": 701,
      "imm": 702,
      "issu": 703,
      "Southern": 704,
      "became": 705,
      "##ought": 706,
      "strong": 707,
      "freedom": 708,
      "includ": 709,
      "democ": 710,
      "France": 711,
      "system": 712,
      "two": 713,
      "Images": 714,
      "Virginia": 715,
      "An": 716,
      "Pro": 717,
      "Penn": 718,
      "World": 719,
      "fl": 720,
      "great": 721,
      "ide": 722,
      "out": 723,
      "pop": 724,
      "sec": 725,
      "sur": 726,
      "some": 727,
      "ter": 728,
      "tri": 729,
      "troop": 730,
      "vot": 731,
      "##so": 732,
      "##ration": 733,
      "##ians": 734,
      "##cess": 735,
      "##ood": 736,
      "##fed": 737,
      "##lin": 738,
      "##ges": 739,
      "##min": 740,
      "##ered": 741,
      "##ons": 742,
      "##estern": 743,
      "##enti": 744,
      "##ory": 745,
      "##ard": 746,
      "##are": 747,
      "through": 748,
      "forces": 749,
      "##lement": 750,
      "prov": 751,
      "produc": 752,
      "##ult": 753,
      "what": 754,
      "which": 755,
      "Confed": 756,
      "##uch": 757,
      "178": 758,
      "lead": 759,
      "##abl": 760,
      "imp": 761,
      "##ize": 762,
      "peace": 763,
      "right": 764,
      "##ourt": 765,
      "##form": 766,
      "move": 767,
      "suppor": 768,
      "Comm": 769,
      "contro": 770,
      "state": 771,
      "deleg": 772,
      "military": 773,
      "Japan": 774,
      "develop": 775,
      "popul": 776,
      "troops": 777,
      "Confeder": 778,
      "13": 779,
      "As": 780,
      "Af": 781,
      "Al": 782,
      "Dec": 783,
      "He": 784,
      "Miss": 785,
      "National": 786,
      "Par": 787,
      "call": 788,
      "er": 789,
      "equ": 790,
      "early": 791,
      "fac": 792,
      "found": 793,
      "men": 794,
      "nor": 795,
      "own": 796,
      "pos": 797,
      "ser": 798,
      "##sy": 799,
      "##ral": 800,
      "##ied": 801,
      "##ov": 802,
      "##me": 803,
      "##ond": 804,
      "##ederal": 805,
      "##ests": 806,
      "##ord": 807,
      "too": 808,
      "##ental": 809,
      "##ite": 810,
      "##rew": 811,
      "than": 812,
      "##ains": 813,
      "also": 814,
      "##ember": 815,
      "##ture": 816,
      "177": 817,
      "##able": 818,
      "grow": 819,
      "##ative": 820,
      "become": 821,
      "trade": 822,
      "slavery": 823,
      "liber": 824,
      "##racy": 825,
      "Independence": 826,
      "Phil": 827,
      "represent": 828,
      "democracy": 829,
      "control": 830,
      "delegates": 831,
      "Afric": 832,
      "15": 833,
      "Ad": 834,
      "De": 835,
      "LO": 836,
      "Linc": 837,
      "Sov": 838,
      "Tr": 839,
      "br": 840,
      "cl": 841,
      "des": 842,
      "ed": 843,
      "est": 844,
      "event": 845,
      "gen": 846,
      "has": 847,
      "however": 848,
      "mon": 849,
      "main": 850,
      "rel": 851,
      "sc": 852,
      "under": 853,
      "vic": 854,
      "##cy": 855,
      "##hia": 856,
      "##fore": 857,
      "##age": 858,
      "##led": 859,
      "##lvan": 860,
      "##mb": 861,
      "##ks": 862,
      "there": 863,
      "##eded": 864,
      "##ort": 865,
      "##ents": 866,
      "##reas": 867,
      "##oln": 868,
      "##omas": 869,
      "##ile": 870,
      "##ades": 871,
      "##adelp": 872,
      "##cep": 873,
      "##mers": 874,
      "##ained": 875,
      "##amil": 876,
      "##ries": 877,
      "##ands": 878,
      "process": 879,
      "##ocal": 880,
      "organ": 881,
      "##ept": 882,
      "independence": 883,
      "decades": 884,
      "believed": 885,
      "legis": 886,
      "policy": 887,
      "Pennsy": 888,
      "##ultural": 889,
      "leaders": 890,
      "Philadelp": 891,
      "LOC": 892,
      "Lincoln": 893,
      "Soviet": 894,
      "establ": 895,
      "##lvania": 896,
      "Pennsylvania": 897,
      "Philadelphia": 898,
      "16": 899,
      "20": 900,
      "AP": 901,
      "By": 902,
      "Court": 903,
      "En": 904,
      "Rep": 905,
      "Sec": 906,
      "Sup": 907,
      "Some": 908,
      "Sept": 909,
      "Yet": 910,
      "bl": 911,
      "div": 912,
      "during": 913,
      "es": 914,
      "era": 915,
      "four": 916,
      "gu": 917,
      "hist": 918,
      "kn": 919,
      "liv": 920,
      "long": 921,
      "nav": 922,
      "pass": 923,
      "public": 924,
      "rol": 925,
      "sp": 926,
      "ta": 927,
      "##ual": 928,
      "##ually": 929,
      "##sed": 930,
      "##ten": 931,
      "##red": 932,
      "##iver": 933,
      "##ifi": 934,
      "##oin": 935,
      "##lan": 936,
      "##low": 937,
      "##go": 938,
      "##ged": 939,
      "##man": 940,
      "##most": 941,
      "##pr": 942,
      "##here": 943,
      "##erv": 944,
      "##ored": 945,
      "##ance": 946,
      "##itt": 947,
      "##ice": 948,
      "##render": 949,
      "##ise": 950,
      "##ect": 951,
      "three": 952,
      "##thor": 953,
      "##ams": 954,
      "##anded": 955,
      "ass": 956,
      "194": 957,
      "192": 958,
      "along": 959,
      "##app": 960,
      "##ight": 961,
      "##ression": 962,
      "##ffi": 963,
      "left": 964,
      "chie": 965,
      "##reaty": 966,
      "orts": 967,
      "arri": 968,
      "##epar": 969,
      "##oung": 970,
      "ship": 971,
      "indust": 972,
      "plan": 973,
      "settlement": 974,
      "century": 975,
      "Thomas": 976,
      "ghting": 977,
      "interests": 978,
      "prevent": 979,
      "social": 980,
      "change": 981,
      "Revolution": 982,
      "large": 983,
      "count": 984,
      "immig": 985,
      "surrender": 986,
      "movement": 987,
      "developed": 988,
      "African": 989,
      "victor": 990,
      "established": 991,
      "September": 992,
      "tax": 993,
      "Act": 994,
      "Cent": 995,
      "Civil": 996,
      "Ed": 997,
      "Federal": 998,
      "Gen": 999,
      "Great": 1000,
      "II": 1001,
      "Min": 1002,
      "Mass": 1003,
      "Native": 1004,
      "au": 1005,
      "air": 1006,
      "dist": 1007,
      "get": 1008,
      "grew": 1009,
      "last": 1010,
      "later": 1011,
      "near": 1012,
      "pr": 1013,
      "perm": 1014,
      "rest": 1015,
      "rati": 1016,
      "set": 1017,
      "sub": 1018,
      "we": 1019,
      "won": 1020,
      "way": 1021,
      "young": 1022,
      "##ures": 1023,
      "##ruc": 1024,
      "##oth": 1025,
      "##eff": 1026,
      "##eign": 1027,
      "##50": 1028,
      "##ful": 1029,
      "##au": 1030,
      "##gia": 1031,
      "##pp": 1032,
      "##jected": 1033,
      "##hes": 1034,
      "##tim": 1035,
      "##iness": 1036,
      "##anish": 1037,
      "##ather": 1038,
      "ins": 1039,
      "infl": 1040,
      "##tions": 1041,
      "##reme": 1042,
      "##omen": 1043,
      "##ilt": 1044,
      "##etts": 1045,
      "this": 1046,
      "those": 1047,
      "form": 1048,
      "force": 1049,
      "reb": 1050,
      "only": 1051,
      "##ander": 1052,
      "cons": 1053,
      "constitution": 1054,
      "deb": 1055,
      "prosp": 1056,
      "##other": 1057,
      "##usetts": 1058,
      "##ull": 1059,
      "began": 1060,
      "before": 1061,
      "any": 1062,
      "##ially": 1063,
      "##00s": 1064,
      "colonists": 1065,
      "Ital": 1066,
      "##etty": 1067,
      "never": 1068,
      "##atives": 1069,
      "add": 1070,
      "##velt": 1071,
      "##iety": 1072,
      "free": 1073,
      "part": 1074,
      "Georgia": 1075,
      "##osevelt": 1076,
      "attack": 1077,
      "amend": 1078,
      "society": 1079,
      "about": 1080,
      "coast": 1081,
      "##achusetts": 1082,
      "groups": 1083,
      "Johnson": 1084,
      "Roosevelt": 1085,
      "continued": 1086,
      "Atlan": 1087,
      "Germany": 1088,
      "Spanish": 1089,
      "meas": 1090,
      "built": 1091,
      "territ": 1092,
      "vote": 1093,
      "##minist": 1094,
      "Commun": 1095,
      "Declar": 1096,
      "called": 1097,
      "growing": 1098,
      "organized": 1099,
      "Massachusetts": 1100,
      "Atlantic": 1101,
      "100": 1102,
      "30": 1103,
      "Apr": 1104,
      "Bost": 1105,
      "City": 1106,
      "For": 1107,
      "Flor": 1108,
      "Getty": 1109,
      "Is": 1110,
      "Jeff": 1111,
      "Kore": 1112,
      "On": 1113,
      "back": 1114,
      "cla": 1115,
      "did": 1116,
      "day": 1117,
      "even": 1118,
      "fr": 1119,
      "fol": 1120,
      "fought": 1121,
      "gr": 1122,
      "har": 1123,
      "ict": 1124,
      "king": 1125,
      "lab": 1126,
      "man": 1127,
      "met": 1128,
      "no": 1129,
      "nat": 1130,
      "now": 1131,
      "pres": 1132,
      "post": 1133,
      "sm": 1134,
      "sou": 1135,
      "sold": 1136,
      "self": 1137,
      "such": 1138,
      "term": 1139,
      "vi": 1140,
      "wan": 1141,
      "western": 1142,
      "where": 1143,
      "women": 1144,
      "yet": 1145,
      "##dle": 1146,
      "##ue": 1147,
      "##uce": 1148,
      "##the": 1149,
      "##xt": 1150,
      "##bal": 1151,
      "##ee": 1152,
      "##ea": 1153,
      "##air": 1154,
      "##lers": 1155,
      "##ps": 1156,
      "##pi": 1157,
      "##way": 1158,
      "##ke": 1159,
      "##ern": 1160,
      "##erve": 1161,
      "##erity": 1162,
      "##tice": 1163,
      "##ened": 1164,
      "##ency": 1165,
      "offi": 1166,
      "often": 1167,
      "##ark": 1168,
      "##arant": 1169,
      "inv": 1170,
      "##road": 1171,
      "##struc": 1172,
      "##ick": 1173,
      "##rect": 1174,
      "##ison": 1175,
      "##aded": 1176,
      "thought": 1177,
      "foreign": 1178,
      "##ida": 1179,
      "##idual": 1180,
      "##iddle": 1181,
      "##lex": 1182,
      "revolution": 1183,
      "##urg": 1184,
      "confl": 1185,
      "dep": 1186,
      "##tinental": 1187,
      "##ush": 1188,
      "##used": 1189,
      "##usiness": 1190,
      "##ulture": 1191,
      "##romise": 1192,
      "196": 1193,
      "193": 1194,
      "almost": 1195,
      "star": 1196,
      "##ayed": 1197,
      "##emp": 1198,
      "##ividual": 1199,
      "nations": 1200,
      "176": 1201,
      "##rants": 1202,
      "explor": 1203,
      "experi": 1204,
      "needed": 1205,
      "next": 1206,
      "individual": 1207,
      "##port": 1208,
      "Europeans": 1209,
      "decis": 1210,
      "lands": 1211,
      "settlers": 1212,
      "##round": 1213,
      "attemp": 1214,
      "central": 1215,
      "life": 1216,
      "##vention": 1217,
      "##ilding": 1218,
      "##oyal": 1219,
      "regul": 1220,
      "based": 1221,
      "##ible": 1222,
      "farmers": 1223,
      "signed": 1224,
      "defeat": 1225,
      "army": 1226,
      "battle": 1227,
      "battles": 1228,
      "million": 1229,
      "##till": 1230,
      "issue": 1231,
      "including": 1232,
      "##ential": 1233,
      "provided": 1234,
      "produced": 1235,
      "supported": 1236,
      "Confederate": 1237,
      "erson": 1238,
      "equal": 1239,
      "poss": 1240,
      "took": 1241,
      "eventually": 1242,
      "maintain": 1243,
      "##cept": 1244,
      "legisl": 1245,
      "Republic": 1246,
      "Supreme": 1247,
      "guarant": 1248,
      "known": 1249,
      "role": 1250,
      "countries": 1251,
      "taxes": 1252,
      "General": 1253,
      "author": 1254,
      "ratifi": 1255,
      "measures": 1256,
      "territor": 1257,
      "Declaration": 1258,
      "April": 1259,
      "Boston": 1260,
      "Florida": 1261,
      "claim": 1262,
      "follow": 1263,
      "labor": 1264,
      "small": 1265,
      "wanted": 1266,
      "##struction": 1267,
      ".”": 1268,
      "10": 1269,
      "200": 1270,
      "Alex": 1271,
      "Car": 1272,
      "From": 1273,
      "Fren": 1274,
      "His": 1275,
      "Hamil": 1276,
      "Ju": 1277,
      "Jam": 1278,
      "Li": 1279,
      "Most": 1280,
      "Many": 1281,
      "Other": 1282,
      "West": 1283,
      "Western": 1284,
      "business": 1285,
      "cor": 1286,
      "could": 1287,
      "civil": 1288,
      "doc": 1289,
      "em": 1290,
      "educ": 1291,
      "esp": 1292,
      "fel": 1293,
      "hop": 1294,
      "lim": 1295,
      "local": 1296,
      "ma": 1297,
      "ob": 1298,
      "per": 1299,
      "pri": 1300,
      "presid": 1301,
      "rail": 1302,
      "sa": 1303,
      "separ": 1304,
      "still": 1305,
      "tur": 1306,
      "treaty": 1307,
      "up": 1308,
      "use": 1309,
      "used": 1310,
      "val": 1311,
      "vers": 1312,
      "##ning": 1313,
      "##nam": 1314,
      "##ument": 1315,
      "##io": 1316,
      "##iers": 1317,
      "##co": 1318,
      "##con": 1319,
      "##com": 1320,
      "##ool": 1321,
      "##ove": 1322,
      "##ex": 1323,
      "##eb": 1324,
      "##ating": 1325,
      "##ger": 1326,
      "##ving": 1327,
      "##per": 1328,
      "##put": 1329,
      "##klin": 1330,
      "##OR": 1331,
      "##jor": 1332,
      "##onstruction": 1333,
      "##ense": 1334,
      "##anent": 1335,
      "##als": 1336,
      "##alism": 1337,
      "##ros": 1338,
      "##ico": 1339,
      "##ret": 1340,
      "##ised": 1341,
      "Their": 1342,
      "These": 1343,
      "##ecially": 1344,
      "##ether": 1345,
      "##cean": 1346,
      "##ley": 1347,
      "##lements": 1348,
      "##act": 1349,
      "##aced": 1350,
      "##ached": 1351,
      "ref": 1352,
      "##urity": 1353,
      "##semb": 1354,
      "conc": 1355,
      "##opol": 1356,
      "##ters": 1357,
      "##oto": 1358,
      "##uss": 1359,
      "##ustice": 1360,
      "white": 1361,
      "while": 1362,
      "good": 1363,
      "195": 1364,
      "191": 1365,
      "Continental": 1366,
      "ext": 1367,
      "another": 1368,
      "##ressed": 1369,
      "##bert": 1370,
      "colonial": 1371,
      "181": 1372,
      "agric": 1373,
      "child": 1374,
      "ord": 1375,
      "##ization": 1376,
      "isol": 1377,
      "##ousands": 1378,
      "enc": 1379,
      "enough": 1380,
      "nego": 1381,
      "becau": 1382,
      "adop": 1383,
      "European": 1384,
      "declar": 1385,
      "##ission": 1386,
      "##issip": 1387,
      "others": 1388,
      "##umb": 1389,
      "##uman": 1390,
      "##lands": 1391,
      "Franklin": 1392,
      "opposed": 1393,
      "slaves": 1394,
      "##ake": 1395,
      "resp": 1396,
      "resol": 1397,
      "economy": 1398,
      "areas": 1399,
      "diff": 1400,
      "ght": 1401,
      "##ploy": 1402,
      "Arch": 1403,
      "Comp": 1404,
      "Left": 1405,
      "##incip": 1406,
      "laws": 1407,
      "worked": 1408,
      "German": 1409,
      "Spain": 1410,
      "##itions": 1411,
      "elected": 1412,
      "millions": 1413,
      "##eriod": 1414,
      "included": 1415,
      "1787": 1416,
      "popular": 1417,
      "population": 1418,
      "Asia": 1419,
      "Mississip": 1420,
      "north": 1421,
      "liberty": 1422,
      "represented": 1423,
      "Adams": 1424,
      "Deal": 1425,
      "gener": 1426,
      "relig": 1427,
      "20th": 1428,
      "Eng": 1429,
      "divided": 1430,
      "esc": 1431,
      "passed": 1432,
      "##ittle": 1433,
      "arrived": 1434,
      "industry": 1435,
      "immigrants": 1436,
      "permanent": 1437,
      "##times": 1438,
      "debate": 1439,
      "prosperity": 1440,
      "Italy": 1441,
      "Communist": 1442,
      "south": 1443,
      "attempts": 1444,
      "territories": 1445,
      "following": 1446,
      "Alexander": 1447,
      "French": 1448,
      "Hamilton": 1449,
      "Others": 1450,
      "especially": 1451,
      "felt": 1452,
      "major": 1453,
      "said": 1454,
      "negoti": 1455,
      "because": 1456,
      "declared": 1457,
      "14": 1458,
      "11": 1459,
      "38": 1460,
      "Ab": 1461,
      "Aug": 1462,
      "Ben": 1463,
      "Bill": 1464,
      "Bush": 1465,
      "Cl": 1466,
      "Can": 1467,
      "Cal": 1468,
      "Dep": 1469,
      "Far": 1470,
      "Go": 1471,
      "Hen": 1472,
      "However": 1473,
      "IN": 1474,
      "Its": 1475,
      "King": 1476,
      "Mon": 1477,
      "Mary": 1478,
      "Pol": 1479,
      "Pain": 1480,
      "Pac": 1481,
      "Res": 1482,
      "Rec": 1483,
      "River": 1484,
      "Soc": 1485,
      "Viet": 1486,
      "Wil": 1487,
      "Will": 1488,
      "aid": 1489,
      "age": 1490,
      "app": 1491,
      "around": 1492,
      "both": 1493,
      "ce": 1494,
      "ca": 1495,
      "car": 1496,
      "cap": 1497,
      "cost": 1498,
      "camp": 1499,
      "do": 1500,
      "done": 1501,
      "fear": 1502,
      "fav": 1503,
      "full": 1504,
      "gl": 1505,
      "gather": 1506,
      "hu": 1507,
      "hal": 1508,
      "hos": 1509,
      "hold": 1510,
      "il": 1511,
      "just": 1512,
      "lo": 1513,
      "made": 1514,
      "much": 1515,
      "oc": 1516,
      "our": 1517,
      "press": 1518,
      "pun": 1519,
      "present": 1520,
      "period": 1521,
      "su": 1522,
      "sk": 1523,
      "suc": 1524,
      "sch": 1525,
      "saw": 1526,
      "tre": 1527,
      "uence": 1528,
      "ve": 1529,
      "will": 1530,
      "water": 1531,
      "##nia": 1532,
      "##ness": 1533,
      "##ues": 1534,
      "##uel": 1535,
      "##rap": 1536,
      "##rup": 1537,
      "##iam": 1538,
      "##ifor": 1539,
      "##cl": 1540,
      "##cts": 1541,
      "##ched": 1542,
      "##hic": 1543,
      "##bor": 1544,
      "##burg": 1545,
      "##ead": 1546,
      "##90": 1547,
      "##atic": 1548,
      "##aign": 1549,
      "##li": 1550,
      "##gether": 1551,
      "##voc": 1552,
      "##my": 1553,
      "##mar": 1554,
      "##ped": 1555,
      "##war": 1556,
      "##The": 1557,
      "##IO": 1558,
      "##AT": 1559,
      "##erved": 1560,
      "then": 1561,
      "##ties": 1562,
      "##ening": 1563,
      "##enced": 1564,
      "##orn": 1565,
      "##orm": 1566,
      "##ines": 1567,
      "##inated": 1568,
      "##ann": 1569,
      "##anks": 1570,
      "##alth": 1571,
      "##ath": 1572,
      "##arth": 1573,
      "##arch": 1574,
      "tow": 1575,
      "together": 1576,
      "##row": 1577,
      "##its": 1578,
      "##ouri": 1579,
      "##ask": 1580,
      "##olog": 1581,
      "##isions": 1582,
      "##ility": 1583,
      "##ilities": 1584,
      "##ada": 1585,
      "threat": 1586,
      "thousands": 1587,
      "former": 1588,
      "##acy": 1589,
      "##ths": 1590,
      "real": 1591,
      "rejected": 1592,
      "reached": 1593,
      "##ired": 1594,
      "##ried": 1595,
      "##ional": 1596,
      "convention": 1597,
      "##tered": 1598,
      "##utem": 1599,
      "progress": 1600,
      "##ansion": 1601,
      "##ticles": 1602,
      "being": 1603,
      "begin": 1604,
      "##pear": 1605,
      "stop": 1606,
      "##aper": 1607,
      "##appear": 1608,
      "collec": 1609,
      "##ives": 1610,
      "##tun": 1611,
      "commer": 1612,
      "##berty": 1613,
      "##lace": 1614,
      "##raw": 1615,
      "char": 1616,
      "##rant": 1617,
      "Inc": 1618,
      "expanded": 1619,
      "arg": 1620,
      "newly": 1621,
      "newsp": 1622,
      "Northern": 1623,
      "##ources": 1624,
      "administ": 1625,
      "##portun": 1626,
      "played": 1627,
      "##umber": 1628,
      "continental": 1629,
      "partic": 1630,
      "increas": 1631,
      "disappear": 1632,
      "opportun": 1633,
      "slave": 1634,
      "attrac": 1635,
      "This": 1636,
      "diver": 1637,
      "direct": 1638,
      "Army": 1639,
      "Indians": 1640,
      "Lee": 1641,
      "ended": 1642,
      "changes": 1643,
      "belief": 1644,
      "Robert": 1645,
      "common": 1646,
      "Colon": 1647,
      "larg": 1648,
      "policies": 1649,
      "building": 1650,
      "election": 1651,
      "quick": 1652,
      "##ugg": 1653,
      "##ograp": 1654,
      "remain": 1655,
      "protest": 1656,
      "compromise": 1657,
      "issued": 1658,
      "Progress": 1659,
      "greater": 1660,
      "idea": 1661,
      "secret": 1662,
      "sometimes": 1663,
      "terr": 1664,
      "throughout": 1665,
      "impro": 1666,
      "support": 1667,
      "Missouri": 1668,
      "Paris": 1669,
      "facilities": 1670,
      "northern": 1671,
      "Trade": 1672,
      "bring": 1673,
      "sci": 1674,
      "##reasury": 1675,
      "Security": 1676,
      "black": 1677,
      "histor": 1678,
      "history": 1679,
      "living": 1680,
      "1920s": 1681,
      "chief": 1682,
      "chiefl": 1683,
      "surrendered": 1684,
      "Minutem": 1685,
      "princip": 1686,
      "constitutional": 1687,
      "natural": 1688,
      "postwar": 1689,
      "soldiers": 1690,
      "terms": 1691,
      "##ways": 1692,
      "revolutionary": 1693,
      "1960s": 1694,
      "possible": 1695,
      "legislation": 1696,
      "Republican": 1697,
      "guarantee": 1698,
      "James": 1699,
      "Liberty": 1700,
      "versus": 1701,
      "##putes": 1702,
      "refused": 1703,
      "children": 1704,
      "Archives": 1705,
      "Mississippi": 1706,
      "generally": 1707,
      "religious": 1708,
      "Califor": 1709,
      "Depression": 1710,
      "Govern": 1711,
      "Henry": 1712,
      "Maryland": 1713,
      "Pacifi": 1714,
      "Reconstruction": 1715,
      "Social": 1716,
      "Vietnam": 1717,
      "Wilson": 1718,
      "William": 1719,
      "campaign": 1720,
      "favored": 1721,
      "gathering": 1722,
      "half": 1723,
      "occ": 1724,
      "school": 1725,
      "##ological": 1726,
      "increasing": 1727,
      "Minutemen": 1728,
      "California": 1729,
      "23": 1730,
      "21": 1731,
      "39": 1732,
      "35": 1733,
      "300": 1734,
      "44": 1735,
      "AF": 1736,
      "After": 1737,
      "Br": 1738,
      "Bell": 1739,
      "Cor": 1740,
      "Di": 1741,
      "Des": 1742,
      "Depar": 1743,
      "Ex": 1744,
      "East": 1745,
      "Elec": 1746,
      "Figh": 1747,
      "Gre": 1748,
      "Har": 1749,
      "Hall": 1750,
      "Jun": 1751,
      "May": 1752,
      "Middle": 1753,
      "Mex": 1754,
      "Nations": 1755,
      "Oct": 1756,
      "Ocean": 1757,
      "Qu": 1758,
      "Righ": 1759,
      "Reg": 1760,
      "Russ": 1761,
      "Ser": 1762,
      "Stat": 1763,
      "Tenn": 1764,
      "Treaty": 1765,
      "Under": 1766,
      "Wh": 1767,
      "Work": 1768,
      "When": 1769,
      "Wood": 1770,
      "aw": 1771,
      "ach": 1772,
      "act": 1773,
      "ben": 1774,
      "bal": 1775,
      "bre": 1776,
      "bom": 1777,
      "big": 1778,
      "bir": 1779,
      "bord": 1780,
      "cr": 1781,
      "cel": 1782,
      "cri": 1783,
      "cot": 1784,
      "city": 1785,
      "creat": 1786,
      "cour": 1787,
      "citi": 1788,
      "cities": 1789,
      "care": 1790,
      "court": 1791,
      "cultural": 1792,
      "den": 1793,
      "dom": 1794,
      "det": 1795,
      "dra": 1796,
      "dip": 1797,
      "down": 1798,
      "ee": 1799,
      "eas": 1800,
      "emer": 1801,
      "east": 1802,
      "eren": 1803,
      "emb": 1804,
      "fur": 1805,
      "fri": 1806,
      "foc": 1807,
      "fell": 1808,
      "fail": 1809,
      "federal": 1810,
      "famil": 1811,
      "fair": 1812,
      "ge": 1813,
      "gri": 1814,
      "gave": 1815,
      "gained": 1816,
      "high": 1817,
      "home": 1818,
      "happ": 1819,
      "jour": 1820,
      "justice": 1821,
      "late": 1822,
      "little": 1823,
      "moun": 1824,
      "mater": 1825,
      "mark": 1826,
      "middle": 1827,
      "mission": 1828,
      "nally": 1829,
      "nine": 1830,
      "number": 1831,
      "ph": 1832,
      "pur": 1833,
      "poin": 1834,
      "ro": 1835,
      "rm": 1836,
      "rock": 1837,
      "royal": 1838,
      "sw": 1839,
      "sin": 1840,
      "sent": 1841,
      "spe": 1842,
      "sear": 1843,
      "same": 1844,
      "ty": 1845,
      "tec": 1846,
      "tel": 1847,
      "tens": 1848,
      "take": 1849,
      "task": 1850,
      "ur": 1851,
      "vo": 1852,
      "var": 1853,
      "vast": 1854,
      "went": 1855,
      "writ": 1856,
      "well": 1857,
      "welf": 1858,
      "##day": 1859,
      "##draw": 1860,
      "##ued": 1861,
      "##und": 1862,
      "##uments": 1863,
      "##utive": 1864,
      "##to": 1865,
      "##te": 1866,
      "##tment": 1867,
      "##rated": 1868,
      "##ix": 1869,
      "##ior": 1870,
      "##iation": 1871,
      "##ci": 1872,
      "##culture": 1873,
      "##xington": 1874,
      "##ham": 1875,
      "##hip": 1876,
      "##hib": 1877,
      "##bs": 1878,
      "##be": 1879,
      "##bin": 1880,
      "##ban": 1881,
      "##ok": 1882,
      "##ots": 1883,
      "##ober": 1884,
      "##obal": 1885,
      "##ees": 1886,
      "##92": 1887,
      "##fr": 1888,
      "##fer": 1889,
      "##fense": 1890,
      "##ai": 1891,
      "##ao": 1892,
      "##az": 1893,
      "##lom": 1894,
      "##lia": 1895,
      "##lap": 1896,
      "##gal": 1897,
      "##vir": 1898,
      "##vious": 1899,
      "##ms": 1900,
      "##wo": 1901,
      "##wed": 1902,
      "##west": 1903,
      "##king": 1904,
      "##IS": 1905,
      "##20": 1906,
      "##jec": 1907,
      "##jam": 1908,
      "##ery": 1909,
      "##eration": 1910,
      "##ertain": 1911,
      "##onti": 1912,
      "##onment": 1913,
      "##onse": 1914,
      "##edition": 1915,
      "##esy": 1916,
      "##esse": 1917,
      "##estic": 1918,
      "##tist": 1919,
      "##eng": 1920,
      "##ina": 1921,
      "##inary": 1922,
      "##anc": 1923,
      "##anes": 1924,
      "##ale": 1925,
      "##aled": 1926,
      "##ature": 1927,
      "##ately": 1928,
      "inf": 1929,
      "##itting": 1930,
      "##tional": 1931,
      "##reg": 1932,
      "##rem": 1933,
      "##reed": 1934,
      "##ase": 1935,
      "##ases": 1936,
      "##asons": 1937,
      "##olid": 1938,
      "There": 1939,
      "##ecutive": 1940,
      "##eld": 1941,
      "##adly": 1942,
      "##ceeded": 1943,
      "forced": 1944,
      "##rest": 1945,
      "##idge": 1946,
      "##lyn": 1947,
      "##lege": 1948,
      "##legal": 1949,
      "##though": 1950,
      "reform": 1951,
      "reasons": 1952,
      "##ured": 1953,
      "##urren": 1954,
      "##irit": 1955,
      "##rist": 1956,
      "##anding": 1957,
      "dev": 1958,
      "deal": 1959,
      "assemb": 1960,
      "##hers": 1961,
      "proposed": 1962,
      "##ott": 1963,
      "##tine": 1964,
      "##uses": 1965,
      "##isted": 1966,
      "##istance": 1967,
      "198": 1968,
      "19th": 1969,
      "withdraw": 1970,
      "always": 1971,
      "except": 1972,
      "stock": 1973,
      "##apers": 1974,
      "##apons": 1975,
      "collap": 1976,
      "##uck": 1977,
      "poll": 1978,
      "compl": 1979,
      "##ials": 1980,
      "##lative": 1981,
      "1890": 1982,
      "ago": 1983,
      "agreed": 1984,
      "##ratic": 1985,
      "##raham": 1986,
      "##ably": 1987,
      "##ability": 1988,
      "chall": 1989,
      "##ode": 1990,
      "imposed": 1991,
      "import": 1992,
      "ort": 1993,
      "##ship": 1994,
      "##shall": 1995,
      "expect": 1996,
      "expedition": 1997,
      "unf": 1998,
      "union": 1999,
      "until": 2000,
      "##illed": 2001,
      "enter": 2002,
      "enorm": 2003,
      "need": 2004,
      "##ung": 2005,
      "ective": 2006,
      "short": 2007,
      "##igned": 2008,
      "advoc": 2009,
      "##ustration": 2010,
      "##acked": 2011,
      "headed": 2012,
      "##ependent": 2013,
      "landed": 2014,
      "trad": 2015,
      "trans": 2016,
      "continent": 2017,
      "strugg": 2018,
      "streng": 2019,
      "settled": 2020,
      "settlements": 2021,
      "demanded": 2022,
      "demograp": 2023,
      "disc": 2024,
      "disputes": 2025,
      "opp": 2026,
      "##akers": 2027,
      "acros": 2028,
      "powers": 2029,
      "##sure": 2030,
      "amb": 2031,
      "among": 2032,
      "area": 2033,
      "##everal": 2034,
      "Articles": 2035,
      "Lexington": 2036,
      "preced": 2037,
      "##toral": 2038,
      "##tories": 2039,
      "region": 2040,
      "Robin": 2041,
      "status": 2042,
      "working": 2043,
      "##iana": 2044,
      "legal": 2045,
      "continue": 2046,
      "Columb": 2047,
      "College": 2048,
      "Photo": 2049,
      "##reements": 2050,
      "republic": 2051,
      "defend": 2052,
      "defeated": 2053,
      "1860": 2054,
      "armies": 2055,
      "Marshall": 2056,
      "Ste": 2057,
      "Stamp": 2058,
      "counter": 2059,
      "helped": 2060,
      "reduce": 2061,
      "soil": 2062,
      "seize": 2063,
      "remained": 2064,
      "protect": 2065,
      "Anti": 2066,
      "tried": 2067,
      "tribal": 2068,
      "voted": 2069,
      "products": 2070,
      "peaceful": 2071,
      "##formation": 2072,
      "erent": 2073,
      "equally": 2074,
      "factories": 2075,
      "founded": 2076,
      "series": 2077,
      "1775": 2078,
      "liberal": 2079,
      "Administ": 2080,
      "Truman": 2081,
      "designed": 2082,
      "general": 2083,
      "months": 2084,
      "legislative": 2085,
      "leadership": 2086,
      "Courtesy": 2087,
      "Second": 2088,
      "divisions": 2089,
      "ess": 2090,
      "lives": 2091,
      "navy": 2092,
      "spirit": 2093,
      "##ivers": 2094,
      "assoc": 2095,
      "ships": 2096,
      "industries": 2097,
      "victory": 2098,
      "Center": 2099,
      "Central": 2100,
      "Edison": 2101,
      "Federalists": 2102,
      "lasted": 2103,
      "restric": 2104,
      "weapons": 2105,
      "formed": 2106,
      "addressed": 2107,
      "attacks": 2108,
      "amendment": 2109,
      "amendments": 2110,
      "Island": 2111,
      "Korea": 2112,
      "fronti": 2113,
      "harness": 2114,
      "preserve": 2115,
      "viol": 2116,
      "view": 2117,
      "##theast": 2118,
      "started": 2119,
      "1765": 2120,
      "exploration": 2121,
      "experienced": 2122,
      "decision": 2123,
      "authority": 2124,
      "July": 2125,
      "document": 2126,
      "employ": 2127,
      "education": 2128,
      "limited": 2129,
      "presidential": 2130,
      "railroad": 2131,
      "values": 2132,
      "##opolies": 2133,
      "agricultural": 2134,
      "isolation": 2135,
      "adopted": 2136,
      "response": 2137,
      "resolved": 2138,
      "England": 2139,
      "majority": 2140,
      "Benjam": 2141,
      "Clay": 2142,
      "Canada": 2143,
      "capit": 2144,
      "global": 2145,
      "huge": 2146,
      "hostil": 2147,
      "illegal": 2148,
      "punish": 2149,
      "succeeded": 2150,
      "##ION": 2151,
      "##archy": 2152,
      "threatened": 2153,
      "stopped": 2154,
      "commerce": 2155,
      "argued": 2156,
      "newspaper": 2157,
      "particip": 2158,
      "disappeared": 2159,
      "opportunity": 2160,
      "directly": 2161,
      "quickly": 2162,
      "terror": 2163,
      "scienti": 2164,
      "occup": 2165,
      "schools": 2166,
      "increasingly": 2167,
      "Department": 2168,
      "Electoral": 2169,
      "Fighting": 2170,
      "Mexico": 2171,
      "October": 2172,
      "Rights": 2173,
      "Tennesse": 2174,
      "achie": 2175,
      "bene": 2176,
      "break": 2177,
      "celeb": 2178,
      "cotton": 2179,
      "citiz": 2180,
      "domestic": 2181,
      "diplom": 2182,
      "easy": 2183,
      "emerged": 2184,
      "erences": 2185,
      "further": 2186,
      "friend": 2187,
      "purch": 2188,
      "techn": 2189,
      "welfare": 2190,
      "##azi": 2191,
      "##vironment": 2192,
      "##urrency": 2193,
      "challen": 2194,
      "enormous": 2195,
      "advocated": 2196,
      "demographic": 2197,
      "across": 2198,
      "Robinson": 2199,
      "Administration": 2200,
      "Benjamin": 2201,
      "Tennessee": 2202,
      "),": 2203,
      ");": 2204,
      ",”": 2205,
      ".,": 2206,
      "12": 2207,
      "25": 2208,
      "27": 2209,
      "250": 2210,
      "36": 2211,
      "37": 2212,
      "34": 2213,
      "33": 2214,
      "46": 2215,
      "40": 2216,
      "48": 2217,
      "59": 2218,
      "55": 2219,
      "54": 2220,
      "50": 2221,
      "58": 2222,
      "51": 2223,
      "500": 2224,
      "63": 2225,
      "60": 2226,
      "62": 2227,
      "70s": 2228,
      "Age": 2229,
      "Aust": 2230,
      "Be": 2231,
      "Ber": 2232,
      "But": 2233,
      "Bett": 2234,
      "Batt": 2235,
      "Both": 2236,
      "Bull": 2237,
      "Cul": 2238,
      "Cub": 2239,
      "Cold": 2240,
      "Cities": 2241,
      "Clin": 2242,
      "Cred": 2243,
      "COR": 2244,
      "Don": 2245,
      "Dis": 2246,
      "Dut": 2247,
      "Day": 2248,
      "Dem": 2249,
      "During": 2250,
      "El": 2251,
      "Even": 2252,
      "Earth": 2253,
      "Fin": 2254,
      "Fine": 2255,
      "Fried": 2256,
      "Glor": 2257,
      "Grant": 2258,
      "Ho": 2259,
      "Hop": 2260,
      "Hist": 2261,
      "Hung": 2262,
      "IR": 2263,
      "Ice": 2264,
      "Jr": 2265,
      "Jack": 2266,
      "Justice": 2267,
      "Kent": 2268,
      "Ly": 2269,
      "La": 2270,
      "Lle": 2271,
      "Lut": 2272,
      "Less": 2273,
      "Lib": 2274,
      "Lock": 2275,
      "Little": 2276,
      "Mc": 2277,
      "MT": 2278,
      "Mad": 2279,
      "More": 2280,
      "Now": 2281,
      "Nove": 2282,
      "Nazi": 2283,
      "Or": 2284,
      "OF": 2285,
      "Over": 2286,
      "Offi": 2287,
      "Pu": 2288,
      "Pr": 2289,
      "Pl": 2290,
      "Red": 2291,
      "Rich": 2292,
      "Rico": 2293,
      "Si": 2294,
      "Sc": 2295,
      "Sh": 2296,
      "Sl": 2297,
      "San": 2298,
      "Sav": 2299,
      "Serv": 2300,
      "Swed": 2301,
      "Sitting": 2302,
      "Tro": 2303,
      "Tam": 2304,
      "Tim": 2305,
      "Treasury": 2306,
      "Two": 2307,
      "US": 2308,
      "Ver": 2309,
      "Vic": 2310,
      "With": 2311,
      "Year": 2312,
      "Yao": 2313,
      "ap": 2314,
      "aff": 2315,
      "bro": 2316,
      "bit": 2317,
      "bold": 2318,
      "brough": 2319,
      "broad": 2320,
      "banks": 2321,
      "bott": 2322,
      "ci": 2323,
      "che": 2324,
      "ces": 2325,
      "cro": 2326,
      "cre": 2327,
      "cation": 2328,
      "cle": 2329,
      "cand": 2330,
      "cul": 2331,
      "cred": 2332,
      "cially": 2333,
      "cann": 2334,
      "certain": 2335,
      "currency": 2336,
      "dr": 2337,
      "dro": 2338,
      "dou": 2339,
      "dest": 2340,
      "eld": 2341,
      "each": 2342,
      "every": 2343,
      "earth": 2344,
      "fo": 2345,
      "fam": 2346,
      "few": 2347,
      "fall": 2348,
      "fun": 2349,
      "fuel": 2350,
      "got": 2351,
      "game": 2352,
      "gun": 2353,
      "give": 2354,
      "gains": 2355,
      "hi": 2356,
      "hou": 2357,
      "here": 2358,
      "hous": 2359,
      "hors": 2360,
      "hard": 2361,
      "hands": 2362,
      "human": 2363,
      "hired": 2364,
      "held": 2365,
      "if": 2366,
      "ig": 2367,
      "icts": 2368,
      "jo": 2369,
      "jud": 2370,
      "join": 2371,
      "la": 2372,
      "low": 2373,
      "lost": 2374,
      "line": 2375,
      "mat": 2376,
      "mel": 2377,
      "mus": 2378,
      "mod": 2379,
      "mone": 2380,
      "make": 2381,
      "nal": 2382,
      "nec": 2383,
      "netw": 2384,
      "native": 2385,
      "oil": 2386,
      "ocean": 2387,
      "pi": 2388,
      "por": 2389,
      "pat": 2390,
      "pic": 2391,
      "pain": 2392,
      "put": 2393,
      "pay": 2394,
      "prac": 2395,
      "port": 2396,
      "place": 2397,
      "ru": 2398,
      "ric": 2399,
      "rad": 2400,
      "rac": 2401,
      "rich": 2402,
      "race": 2403,
      "rural": 2404,
      "sl": 2405,
      "she": 2406,
      "sil": 2407,
      "size": 2408,
      "slow": 2409,
      "six": 2410,
      "several": 2411,
      "ts": 2412,
      "ti": 2413,
      "tra": 2414,
      "treat": 2415,
      "tea": 2416,
      "tex": 2417,
      "treasury": 2418,
      "ver": 2419,
      "vis": 2420,
      "vil": 2421,
      "vir": 2422,
      "vocal": 2423,
      "ww": 2424,
      "wro": 2425,
      "west": 2426,
      "word": 2427,
      "ye": 2428,
      "##ne": 2429,
      "##ned": 2430,
      "##noun": 2431,
      "##national": 2432,
      "##nical": 2433,
      "##nected": 2434,
      "##nored": 2435,
      "##ditions": 2436,
      "##uf": 2437,
      "##uit": 2438,
      "##uts": 2439,
      "##uilding": 2440,
      "##sel": 2441,
      "##side": 2442,
      "##serv": 2443,
      "##sburg": 2444,
      "##tation": 2445,
      "##tments": 2446,
      "##then": 2447,
      "##rt": 2448,
      "##ring": 2449,
      "##rain": 2450,
      "##rand": 2451,
      "##rong": 2452,
      "##rary": 2453,
      "##rams": 2454,
      "##yond": 2455,
      "##ih": 2456,
      "##ind": 2457,
      "##iate": 2458,
      "##ift": 2459,
      "##ike": 2460,
      "##cent": 2461,
      "##cing": 2462,
      "##cis": 2463,
      "##cks": 2464,
      "##ches": 2465,
      "##hy": 2466,
      "##hap": 2467,
      "##hood": 2468,
      "##by": 2469,
      "##bed": 2470,
      "##bes": 2471,
      "##bac": 2472,
      "##but": 2473,
      "##bell": 2474,
      "##boy": 2475,
      "##bled": 2476,
      "##oor": 2477,
      "##over": 2478,
      "##oard": 2479,
      "##ef": 2480,
      "##ev": 2481,
      "##eel": 2482,
      "##eiv": 2483,
      "##found": 2484,
      "##ah": 2485,
      "##lis": 2486,
      "##lies": 2487,
      "##lim": 2488,
      "##less": 2489,
      "##lish": 2490,
      "##lell": 2491,
      "##ging": 2492,
      "##gence": 2493,
      "##gency": 2494,
      "##grams": 2495,
      "##vil": 2496,
      "##vid": 2497,
      "##vism": 2498,
      "##vice": 2499,
      "##mber": 2500,
      "##mun": 2501,
      "##mond": 2502,
      "##makers": 2503,
      "##ping": 2504,
      "##ply": 2505,
      "##pite": 2506,
      "##wel": 2507,
      "##wide": 2508,
      "##kans": 2509,
      "##TE": 2510,
      "##RO": 2511,
      "##Clell": 2512,
      "##2M": 2513,
      "##joy": 2514,
      "##SA": 2515,
      "##BIS": 2516,
      "##hev": 2517,
      "##erly": 2518,
      "##erial": 2519,
      "##erto": 2520,
      "##onents": 2521,
      "##oncl": 2522,
      "theor": 2523,
      "##ese": 2524,
      "##estion": 2525,
      "##ested": 2526,
      "##ndon": 2527,
      "##tition": 2528,
      "##tile": 2529,
      "##tivel": 2530,
      "##tivism": 2531,
      "##ences": 2532,
      "##ins": 2533,
      "##ined": 2534,
      "##ints": 2535,
      "##ang": 2536,
      "##anies": 2537,
      "##anced": 2538,
      "##aries": 2539,
      "##arian": 2540,
      "##artments": 2541,
      "invent": 2542,
      "invol": 2543,
      "today": 2544,
      "##roe": 2545,
      "##entrated": 2546,
      "##iter": 2547,
      "##itor": 2548,
      "##itan": 2549,
      "##itted": 2550,
      "##stood": 2551,
      "##stead": 2552,
      "##iction": 2553,
      "##ically": 2554,
      "##oux": 2555,
      "##oura": 2556,
      "##asion": 2557,
      "##ashes": 2558,
      "##olish": 2559,
      "##ings": 2560,
      "##isp": 2561,
      "Theod": 2562,
      "##omic": 2563,
      "##ech": 2564,
      "##ece": 2565,
      "##ects": 2566,
      "##ily": 2567,
      "##els": 2568,
      "##ads": 2569,
      "##ady": 2570,
      "##ado": 2571,
      "##ador": 2572,
      "##adually": 2573,
      "##ets": 2574,
      "##ete": 2575,
      "##etam": 2576,
      "##etter": 2577,
      "thir": 2578,
      "##vered": 2579,
      "##verted": 2580,
      "##ides": 2581,
      "##idate": 2582,
      "##acted": 2583,
      "##vement": 2584,
      "##vealed": 2585,
      "repe": 2586,
      "refl": 2587,
      "reach": 2588,
      "ready": 2589,
      "revealed": 2590,
      "##amation": 2591,
      "##amew": 2592,
      "##urally": 2593,
      "##urring": 2594,
      "##rier": 2595,
      "##ribut": 2596,
      "once": 2597,
      "##andy": 2598,
      "concept": 2599,
      "confr": 2600,
      "conditions": 2601,
      "##ope": 2602,
      "##operation": 2603,
      "defense": 2604,
      "deadly": 2605,
      "##tering": 2606,
      "##terior": 2607,
      "prom": 2608,
      "proved": 2609,
      "propos": 2610,
      "projec": 2611,
      "programs": 2612,
      "##ows": 2613,
      "##ower": 2614,
      "##owled": 2615,
      "##owboy": 2616,
      "##usive": 2617,
      "##ustine": 2618,
      "##iest": 2619,
      "##ults": 2620,
      "##tics": 2621,
      "##tices": 2622,
      "##tical": 2623,
      "beh": 2624,
      "beyond": 2625,
      "##petition": 2626,
      "whom": 2627,
      "##istence": 2628,
      "goals": 2629,
      "197": 2630,
      "1992": 2631,
      "Conﬂ": 2632,
      "Conserv": 2633,
      "alike": 2634,
      "examp": 2635,
      "excep": 2636,
      "executive": 2637,
      "existence": 2638,
      "stance": 2639,
      "stability": 2640,
      "steel": 2641,
      "##aped": 2642,
      "##apes": 2643,
      "anti": 2644,
      "announ": 2645,
      "governors": 2646,
      "##ressing": 2647,
      "##ressive": 2648,
      "##emed": 2649,
      "##emor": 2650,
      "##employ": 2651,
      "##ivism": 2652,
      "##tually": 2653,
      "coming": 2654,
      "competition": 2655,
      "##ima": 2656,
      "##imes": 2657,
      "1700s": 2658,
      "##lages": 2659,
      "colony": 2660,
      "colonize": 2661,
      "183": 2662,
      "180": 2663,
      "1850": 2664,
      "1800s": 2665,
      "1820": 2666,
      "agreements": 2667,
      "##rait": 2668,
      "##raft": 2669,
      "##rannical": 2670,
      "Interior": 2671,
      "impos": 2672,
      "image": 2673,
      "##izing": 2674,
      "##ession": 2675,
      "##essary": 2676,
      "##essions": 2677,
      "expl": 2678,
      "expected": 2679,
      "expressed": 2680,
      "expansion": 2681,
      "islands": 2682,
      "ars": 2683,
      "artist": 2684,
      "unw": 2685,
      "unea": 2686,
      "univers": 2687,
      "unemploy": 2688,
      "##ously": 2689,
      "Norm": 2690,
      "Norse": 2691,
      "Northeast": 2692,
      "ensure": 2693,
      "enjoy": 2694,
      "enacted": 2695,
      "##unal": 2696,
      "ects": 2697,
      "ected": 2698,
      "##itical": 2699,
      "grown": 2700,
      "shut": 2701,
      "shot": 2702,
      "should": 2703,
      "share": 2704,
      "shots": 2705,
      "##ermined": 2706,
      "politically": 2707,
      "advan": 2708,
      "independent": 2709,
      "##poration": 2710,
      "##rict": 2711,
      "##agan": 2712,
      "##ague": 2713,
      "whose": 2714,
      "itself": 2715,
      "##itive": 2716,
      "decided": 2717,
      "play": 2718,
      "plant": 2719,
      "plains": 2720,
      "placed": 2721,
      "intens": 2722,
      "##assador": 2723,
      "truce": 2724,
      "##lection": 2725,
      "strains": 2726,
      "parts": 2727,
      "##quered": 2728,
      "##antry": 2729,
      "income": 2730,
      "inconcl": 2731,
      "demand": 2732,
      "Francis": 2733,
      "mostly": 2734,
      "open": 2735,
      "##egreg": 2736,
      "##aked": 2737,
      "##aking": 2738,
      "acts": 2739,
      "active": 2740,
      "actions": 2741,
      "activism": 2742,
      "moved": 2743,
      "moving": 2744,
      "resources": 2745,
      "suppl": 2746,
      "supply": 2747,
      "##ellion": 2748,
      "##ellors": 2749,
      "nationalities": 2750,
      "Those": 2751,
      "ames": 2752,
      "died": 2753,
      "diffi": 2754,
      "ghters": 2755,
      "international": 2756,
      "Arts": 2757,
      "China": 2758,
      "Chanc": 2759,
      "Chih": 2760,
      "League": 2761,
      "previous": 2762,
      "times": 2763,
      "##resentatives": 2764,
      "chance": 2765,
      "changed": 2766,
      "abolish": 2767,
      "believe": 2768,
      "coord": 2769,
      "cooperation": 2770,
      "lawmakers": 2771,
      "militi": 2772,
      "twice": 2773,
      "##ensus": 2774,
      "regimes": 2775,
      "powerful": 2776,
      "basic": 2777,
      "basis": 2778,
      "baseb": 2779,
      "workers": 2780,
      "##iani": 2781,
      "committ": 2782,
      "communal": 2783,
      "Collection": 2784,
      "Reform": 2785,
      "Reagan": 2786,
      "farm": 2787,
      "signs": 2788,
      "signifi": 2789,
      "##tains": 2790,
      "themsel": 2791,
      "1865": 2792,
      "1863": 2793,
      "1861": 2794,
      "1862": 2795,
      "militant": 2796,
      "Martin": 2797,
      "Mario": 2798,
      "elect": 2799,
      "quo": 2800,
      "quite": 2801,
      "recog": 2802,
      "receiv": 2803,
      "see": 2804,
      "seized": 2805,
      "seemed": 2806,
      "##ugar": 2807,
      "##icalpr": 2808,
      "remark": 2809,
      "protects": 2810,
      "companies": 2811,
      "immed": 2812,
      "issues": 2813,
      "Southerner": 2814,
      "Southerners": 2815,
      "strongly": 2816,
      "democratic": 2817,
      "Procl": 2818,
      "ideas": 2819,
      "ideological": 2820,
      "tribes": 2821,
      "##oodiest": 2822,
      "##minated": 2823,
      "provide": 2824,
      "provides": 2825,
      "producing": 2826,
      "1789": 2827,
      "1783": 2828,
      "statehood": 2829,
      "Japanese": 2830,
      "Confederation": 2831,
      "Confederacy": 2832,
      "Assemb": 2833,
      "All": 2834,
      "Almost": 2835,
      "Although": 2836,
      "December": 2837,
      "Park": 2838,
      "Party": 2839,
      "Parlia": 2840,
      "calls": 2841,
      "founding": 2842,
      "foundation": 2843,
      "positions": 2844,
      "service": 2845,
      "1776": 2846,
      "1773": 2847,
      "growth": 2848,
      "represents": 2849,
      "representatives": 2850,
      "1500s": 2851,
      "bridge": 2852,
      "clim": 2853,
      "clos": 2854,
      "desper": 2855,
      "events": 2856,
      "monopolies": 2857,
      "monarchy": 2858,
      "relations": 2859,
      "scale": 2860,
      "understood": 2861,
      "Environment": 2862,
      "Representatives": 2863,
      "Support": 2864,
      "block": 2865,
      "bloodiest": 2866,
      "fourth": 2867,
      "naval": 2868,
      "navies": 2869,
      "roll": 2870,
      "##reds": 2871,
      "##ointed": 2872,
      "##mann": 2873,
      "assistance": 2874,
      "1945": 2875,
      "1944": 2876,
      "1948": 2877,
      "1921": 2878,
      "shipping": 2879,
      "prevented": 2880,
      "country": 2881,
      "immigration": 2882,
      "victories": 2883,
      "victorious": 2884,
      "Editor": 2885,
      "distant": 2886,
      "distribut": 2887,
      "nearby": 2888,
      "restrain": 2889,
      "submar": 2890,
      "weak": 2891,
      "ways": 2892,
      "##pped": 2893,
      "instin": 2894,
      "insurg": 2895,
      "insisted": 2896,
      "formation": 2897,
      "rebels": 2898,
      "rebellion": 2899,
      "conserv": 2900,
      "attacked": 2901,
      "Communism": 2902,
      "Gettysburg": 2903,
      "Korean": 2904,
      "One": 2905,
      "Only": 2906,
      "framew": 2907,
      "grain": 2908,
      "gradually": 2909,
      "harbor": 2910,
      "manuf": 2911,
      "naturally": 2912,
      "preserved": 2913,
      "invaded": 2914,
      "invasion": 2915,
      "depression": 2916,
      "departments": 2917,
      "1930s": 2918,
      "1764": 2919,
      "explorers": 2920,
      "decisive": 2921,
      "regulation": 2922,
      "regulate": 2923,
      "equality": 2924,
      "maintained": 2925,
      "legislature": 2926,
      "Republicans": 2927,
      "guarantees": 2928,
      "authorized": 2929,
      "claims": 2930,
      "claimed": 2931,
      "laborers": 2932,
      "2001": 2933,
      "Carol": 2934,
      "Juan": 2935,
      "corrup": 2936,
      "documents": 2937,
      "empi": 2938,
      "hope": 2939,
      "hoped": 2940,
      "objected": 2941,
      "percent": 2942,
      "perhap": 2943,
      "prim": 2944,
      "primar": 2945,
      "separation": 2946,
      "separate": 2947,
      "##acturing": 2948,
      "concentrated": 2949,
      "goods": 2950,
      "1950s": 2951,
      "1918": 2952,
      "extrem": 2953,
      "1819": 2954,
      "1812": 2955,
      "order": 2956,
      "ordered": 2957,
      "encoura": 2958,
      "Compromise": 2959,
      "English": 2960,
      "escaped": 2961,
      "negotiated": 2962,
      "negotiations": 2963,
      "Above": 2964,
      "Abraham": 2965,
      "August": 2966,
      "Augustine": 2967,
      "Farm": 2968,
      "Farmers": 2969,
      "Monroe": 2970,
      "Poland": 2971,
      "Paine": 2972,
      "Painting": 2973,
      "Resear": 2974,
      "appointed": 2975,
      "cargo": 2976,
      "costs": 2977,
      "fears": 2978,
      "feared": 2979,
      "holding": 2980,
      "loose": 2981,
      "ourished": 2982,
      "pressure": 2983,
      "presented": 2984,
      "suff": 2985,
      "suffi": 2986,
      "skilled": 2987,
      "trees": 2988,
      "##ATION": 2989,
      "##annah": 2990,
      "##althy": 2991,
      "towers": 2992,
      "toward": 2993,
      "collected": 2994,
      "charge": 2995,
      "Northerners": 2996,
      "attracted": 2997,
      "divergence": 2998,
      "Colonial": 2999,
      "Colonists": 3000,
      "largest": 3001,
      "largely": 3002,
      "Progressive": 3003,
      "Progressivism": 3004,
      "secretary": 3005,
      "improve": 3006,
      "improved": 3007,
      "historicalpr": 3008,
      "principal": 3009,
      "principles": 3010,
      "Governor": 3011,
      "Government": 3012,
      "21st": 3013,
      "AFP": 3014,
      "Diff": 3015,
      "Despite": 3016,
      "Eastman": 3017,
      "Greece": 3018,
      "Harry": 3019,
      "June": 3020,
      "Regional": 3021,
      "Russia": 3022,
      "Serra": 3023,
      "Statue": 3024,
      "While": 3025,
      "Works": 3026,
      "Woodrow": 3027,
      "bomb": 3028,
      "border": 3029,
      "created": 3030,
      "courts": 3031,
      "denied": 3032,
      "determined": 3033,
      "focus": 3034,
      "failed": 3035,
      "families": 3036,
      "grip": 3037,
      "happening": 3038,
      "mountains": 3039,
      "materials": 3040,
      "market": 3041,
      "point": 3042,
      "sworn": 3043,
      "since": 3044,
      "search": 3045,
      "type": 3046,
      "tensions": 3047,
      "urban": 3048,
      "voting": 3049,
      "varied": 3050,
      "writer": 3051,
      "##aiting": 3052,
      "infantry": 3053,
      "devised": 3054,
      "assemblies": 3055,
      "1980s": 3056,
      "stocks": 3057,
      "##ucky": 3058,
      "important": 3059,
      "unfair": 3060,
      "strengthen": 3061,
      "discuss": 3062,
      "oppressive": 3063,
      "ambassador": 3064,
      "precedent": 3065,
      "Columbus": 3066,
      "counterculture": 3067,
      "Antietam": 3068,
      "essential": 3069,
      "association": 3070,
      "restricted": 3071,
      "frontier": 3072,
      "harnessed": 3073,
      "violence": 3074,
      "employed": 3075,
      "railroads": 3076,
      "isolationism": 3077,
      "capital": 3078,
      "hostilities": 3079,
      "punishment": 3080,
      "scientist": 3081,
      "occupation": 3082,
      "benefi": 3083,
      "citizens": 3084,
      "diplomatic": 3085,
      "friendly": 3086,
      "purchase": 3087,
      "technological": 3088,
      "challenges": 3089,
      "Before": 3090,
      "Berlin": 3091,
      "Bettmann": 3092,
      "Culver": 3093,
      "Cuba": 3094,
      "Clinton": 3095,
      "Credits": 3096,
      "CORBIS": 3097,
      "Dutch": 3098,
      "Finley": 3099,
      "History": 3100,
      "IRC": 3101,
      "Jackie": 3102,
      "Kentucky": 3103,
      "Lyndon": 3104,
      "Llewel": 3105,
      "Luther": 3106,
      "Library": 3107,
      "McClell": 3108,
      "MTV": 3109,
      "Madison": 3110,
      "November": 3111,
      "Puerto": 3112,
      "Plains": 3113,
      "Richmond": 3114,
      "Sioux": 3115,
      "Slide": 3116,
      "Savannah": 3117,
      "Service": 3118,
      "Troiani": 3119,
      "Tama": 3120,
      "Time": 3121,
      "Years": 3122,
      "broke": 3123,
      "bitter": 3124,
      "brought": 3125,
      "bottom": 3126,
      "checks": 3127,
      "crops": 3128,
      "candidate": 3129,
      "credit": 3130,
      "cannot": 3131,
      "dropped": 3132,
      "doubled": 3133,
      "elderly": 3134,
      "famous": 3135,
      "fueled": 3136,
      "house": 3137,
      "horses": 3138,
      "ignored": 3139,
      "jobs": 3140,
      "joined": 3141,
      "music": 3142,
      "money": 3143,
      "necessary": 3144,
      "network": 3145,
      "portion": 3146,
      "patents": 3147,
      "picture": 3148,
      "payments": 3149,
      "rule": 3150,
      "slowly": 3151,
      "travel": 3152,
      "treatment": 3153,
      "villages": 3154,
      "www": 3155,
      "wrote": 3156,
      "words": 3157,
      "##ville": 3158,
      "##vidence": 3159,
      "##TER": 3160,
      "##tively": 3161,
      "Theodore": 3162,
      "third": 3163,
      "confron": 3164,
      "example": 3165,
      "announced": 3166,
      "imposing": 3167,
      "universal": 3168,
      "intensifi": 3169,
      "inconclusive": 3170,
      "supplies": 3171,
      "##ellorsville": 3172,
      "Chancellorsville": 3173,
      "previously": 3174,
      "baseball": 3175,
      "themselves": 3176,
      "recogn": 3177,
      "received": 3178,
      "remarkable": 3179,
      "Proclamation": 3180,
      "Assembly": 3181,
      "Parliament": 3182,
      "desperately": 3183,
      "Environmental": 3184,
      "distributed": 3185,
      "submarine": 3186,
      "insurgency": 3187,
      "framework": 3188,
      "manufacturing": 3189,
      "perhaps": 3190,
      "primarily": 3191,
      "extremely": 3192,
      "historicalprints": 3193,
      "Llewellyn": 3194,
      "McClellan": 3195,
      "!”": 3196,
      ",©": 3197,
      "--": 3198,
      ".;": 3199,
      "29": 3200,
      "26": 3201,
      "24": 3202,
      "28": 3203,
      "22": 3204,
      "31": 3205,
      "32M": 3206,
      "49": 3207,
      "45": 3208,
      "47": 3209,
      "43": 3210,
      "41": 3211,
      "42": 3212,
      "4th": 3213,
      "4culture": 3214,
      "56": 3215,
      "57": 3216,
      "53": 3217,
      "52M": 3218,
      "65": 3219,
      "64": 3220,
      "61": 3221,
      "6con": 3222,
      "7B": 3223,
      "750": 3224,
      "89": 3225,
      "86": 3226,
      "8T": 3227,
      "93": 3228,
      "98": 3229,
      ":/": 3230,
      "Au": 3231,
      "Ac": 3232,
      "Ap": 3233,
      "Aer": 3234,
      "Ari": 3235,
      "Acts": 3236,
      "Agency": 3237,
      "Bo": 3238,
      "Bl": 3239,
      "BR": 3240,
      "BU": 3241,
      "Bal": 3242,
      "Bro": 3243,
      "Bol": 3244,
      "Bur": 3245,
      "Bir": 3246,
      "Bigh": 3247,
      "Between": 3248,
      "Betty": 3249,
      "Bern": 3250,
      "Business": 3251,
      "Better": 3252,
      "Cé": 3253,
      "Cas": 3254,
      "Cap": 3255,
      "Cem": 3256,
      "Cab": 3257,
      "Call": 3258,
      "Cany": 3259,
      "Coun": 3260,
      "Cust": 3261,
      "Cib": 3262,
      "Camp": 3263,
      "Clar": 3264,
      "Cree": 3265,
      "Culture": 3266,
      "Certain": 3267,
      "Currency": 3268,
      "Cover": 3269,
      "Cowboy": 3270,
      "Dw": 3271,
      "DE": 3272,
      "Dre": 3273,
      "Del": 3274,
      "Det": 3275,
      "Doc": 3276,
      "Dew": 3277,
      "Dist": 3278,
      "Dod": 3279,
      "Dick": 3280,
      "Draw": 3281,
      "Danes": 3282,
      "Ec": 3283,
      "End": 3284,
      "Ear": 3285,
      "Eis": 3286,
      "Emer": 3287,
      "Eri": 3288,
      "Event": 3289,
      "Early": 3290,
      "Every": 3291,
      "Eman": 3292,
      "Elements": 3293,
      "Ert": 3294,
      "Evidence": 3295,
      "Fr": 3296,
      "Fl": 3297,
      "FO": 3298,
      "Fre": 3299,
      "Fil": 3300,
      "Fle": 3301,
      "Fir": 3302,
      "Free": 3303,
      "Ford": 3304,
      "Fort": 3305,
      "Famil": 3306,
      "Father": 3307,
      "Faced": 3308,
      "Gu": 3309,
      "Gl": 3310,
      "Gor": 3311,
      "Gar": 3312,
      "Gore": 3313,
      "Gate": 3314,
      "Gall": 3315,
      "Gren": 3316,
      "Gold": 3317,
      "Give": 3318,
      "Gio": 3319,
      "Grow": 3320,
      "Graham": 3321,
      "Grand": 3322,
      "Gift": 3323,
      "Hi": 3324,
      "Her": 3325,
      "Hal": 3326,
      "Hol": 3327,
      "Here": 3328,
      "How": 3329,
      "Hul": 3330,
      "Hem": 3331,
      "Haw": 3332,
      "Hern": 3333,
      "HIS": 3334,
      "Holid": 3335,
      "Id": 3336,
      "Ir": 3337,
      "Il": 3338,
      "Ire": 3339,
      "Iran": 3340,
      "Ide": 3341,
      "Iwo": 3342,
      "Jer": 3343,
      "Jac": 3344,
      "Jew": 3345,
      "Jay": 3346,
      "Just": 3347,
      "Jima": 3348,
      "Kos": 3349,
      "Krong": 3350,
      "Led": 3351,
      "Lou": 3352,
      "Lew": 3353,
      "Lus": 3354,
      "Long": 3355,
      "Law": 3356,
      "Lond": 3357,
      "Local": 3358,
      "Light": 3359,
      "Loyal": 3360,
      "Mu": 3361,
      "Mt": 3362,
      "Med": 3363,
      "Mes": 3364,
      "Man": 3365,
      "Mal": 3366,
      "Mil": 3367,
      "Mul": 3368,
      "Mos": 3369,
      "Mod": 3370,
      "Mast": 3371,
      "Mill": 3372,
      "Mag": 3373,
      "Mich": 3374,
      "Mild": 3375,
      "Mound": 3376,
      "Mach": 3377,
      "Much": 3378,
      "Mead": 3379,
      "Mao": 3380,
      "Memor": 3381,
      "Ne": 3382,
      "NA": 3383,
      "Nigh": 3384,
      "Nag": 3385,
      "Nav": 3386,
      "Nether": 3387,
      "NAT": 3388,
      "Oh": 3389,
      "Opp": 3390,
      "Oreg": 3391,
      "Pon": 3392,
      "Por": 3393,
      "Pat": 3394,
      "Pent": 3395,
      "Pic": 3396,
      "Pil": 3397,
      "Pres": 3398,
      "Pot": 3399,
      "Pear": 3400,
      "Post": 3401,
      "Public": 3402,
      "Page": 3403,
      "Port": 3404,
      "Period": 3405,
      "Place": 3406,
      "Papers": 3407,
      "PRO": 3408,
      "Ru": 3409,
      "Rh": 3410,
      "Ron": 3411,
      "Rad": 3412,
      "Rome": 3413,
      "Rever": 3414,
      "Relie": 3415,
      "Rail": 3416,
      "Right": 3417,
      "Rather": 3418,
      "Rush": 3419,
      "Royal": 3420,
      "Se": 3421,
      "Sm": 3422,
      "ST": 3423,
      "Sen": 3424,
      "Sin": 3425,
      "Sar": 3426,
      "Sol": 3427,
      "Sil": 3428,
      "Sam": 3429,
      "Sher": 3430,
      "Sla": 3431,
      "Sett": 3432,
      "Sinc": 3433,
      "Sure": 3434,
      "Self": 3435,
      "Sull": 3436,
      "Sea": 3437,
      "Sco": 3438,
      "Sense": 3439,
      "Soto": 3440,
      "Sli": 3441,
      "Several": 3442,
      "Sugar": 3443,
      "Ta": 3444,
      "Ter": 3445,
      "Tar": 3446,
      "Tre": 3447,
      "Tur": 3448,
      "Tod": 3449,
      "Tea": 3450,
      "Tower": 3451,
      "Up": 3452,
      "Uly": 3453,
      "Vá": 3454,
      "Ves": 3455,
      "Ven": 3456,
      "Val": 3457,
      "Var": 3458,
      "Vent": 3459,
      "Vers": 3460,
      "Writ": 3461,
      "Wild": 3462,
      "Water": 3463,
      "Wide": 3464,
      "Young": 3465,
      "Zed": 3466,
      "Zun": 3467,
      "ahe": 3468,
      "aro": 3469,
      "aut": 3470,
      "ated": 3471,
      "aim": 3472,
      "affi": 3473,
      "away": 3474,
      "arist": 3475,
      "aerial": 3476,
      "averted": 3477,
      "bo": 3478,
      "ban": 3479,
      "bar": 3480,
      "bic": 3481,
      "bil": 3482,
      "bur": 3483,
      "bri": 3484,
      "bul": 3485,
      "bay": 3486,
      "bran": 3487,
      "breat": 3488,
      "ball": 3489,
      "boy": 3490,
      "better": 3491,
      "can": 3492,
      "cir": 3493,
      "cop": 3494,
      "cos": 3495,
      "core": 3496,
      "cial": 3497,
      "cab": 3498,
      "cast": 3499,
      "cust": 3500,
      "cant": 3501,
      "cry": 3502,
      "cult": 3503,
      "cance": 3504,
      "culture": 3505,
      "cros": 3506,
      "cases": 3507,
      "crest": 3508,
      "cials": 3509,
      "code": 3510,
      "cuts": 3511,
      "cowboy": 3512,
      "craft": 3513,
      "census": 3514,
      "dy": 3515,
      "da": 3516,
      "dan": 3517,
      "dent": 3518,
      "dut": 3519,
      "dub": 3520,
      "diss": 3521,
      "dum": 3522,
      "dens": 3523,
      "drew": 3524,
      "dams": 3525,
      "dau": 3526,
      "due": 3527,
      "dating": 3528,
      "dashes": 3529,
      "ey": 3530,
      "eet": 3531,
      "ever": 3532,
      "eth": 3533,
      "eigh": 3534,
      "element": 3535,
      "eight": 3536,
      "eros": 3537,
      "elim": 3538,
      "evidence": 3539,
      "fa": 3540,
      "fer": 3541,
      "fth": 3542,
      "fut": 3543,
      "ful": 3544,
      "fra": 3545,
      "foun": 3546,
      "food": 3547,
      "father": 3548,
      "fund": 3549,
      "gy": 3550,
      "gat": 3551,
      "gain": 3552,
      "giv": 3553,
      "grant": 3554,
      "ht": 3555,
      "hon": 3556,
      "hin": 3557,
      "hat": 3558,
      "hom": 3559,
      "hig": 3560,
      "hur": 3561,
      "hand": 3562,
      "how": 3563,
      "him": 3564,
      "hast": 3565,
      "hill": 3566,
      "hum": 3567,
      "hav": 3568,
      "hered": 3569,
      "handed": 3570,
      "hair": 3571,
      "hugg": 3572,
      "ir": 3573,
      "ice": 3574,
      "itish": 3575,
      "ips": 3576,
      "jus": 3577,
      "ke": 3578,
      "kil": 3579,
      "killed": 3580,
      "lu": 3581,
      "lm": 3582,
      "lin": 3583,
      "lic": 3584,
      "lay": 3585,
      "less": 3586,
      "lock": 3587,
      "lture": 3588,
      "lled": 3589,
      "light": 3590,
      "loyal": 3591,
      "lumber": 3592,
      "lanes": 3593,
      "lacked": 3594,
      "liter": 3595,
      "my": 3596,
      "mm": 3597,
      "min": 3598,
      "mar": 3599,
      "mom": 3600,
      "mid": 3601,
      "mig": 3602,
      "mul": 3603,
      "may": 3604,
      "mem": 3605,
      "mass": 3606,
      "miss": 3607,
      "mild": 3608,
      "mound": 3609,
      "mach": 3610,
      "mapp": 3611,
      "might": 3612,
      "mother": 3613,
      "march": 3614,
      "mansion": 3615,
      "mix": 3616,
      "mech": 3617,
      "making": 3618,
      "nd": 3619,
      "ner": 3620,
      "nar": 3621,
      "nom": 3622,
      "nts": 3623,
      "nam": 3624,
      "nuc": 3625,
      "nity": 3626,
      "name": 3627,
      "none": 3628,
      "nance": 3629,
      "numb": 3630,
      "nanced": 3631,
      "ow": 3632,
      "ore": 3633,
      "oce": 3634,
      "ori": 3635,
      "ood": 3636,
      "oath": 3637,
      "owed": 3638,
      "py": 3639,
      "ped": 3640,
      "pot": 3641,
      "pers": 3642,
      "pus": 3643,
      "pork": 3644,
      "pub": 3645,
      "phen": 3646,
      "pace": 3647,
      "pamp": 3648,
      "pains": 3649,
      "pression": 3650,
      "pick": 3651,
      "push": 3652,
      "path": 3653,
      "paper": 3654,
      "poor": 3655,
      "rd": 3656,
      "ra": 3657,
      "rou": 3658,
      "ring": 3659,
      "rom": 3660,
      "ret": 3661,
      "rig": 3662,
      "rul": 3663,
      "rall": 3664,
      "rag": 3665,
      "raw": 3666,
      "rum": 3667,
      "rsu": 3668,
      "round": 3669,
      "rout": 3670,
      "rates": 3671,
      "river": 3672,
      "ranks": 3673,
      "ranc": 3674,
      "rung": 3675,
      "rivers": 3676,
      "rope": 3677,
      "son": 3678,
      "san": 3679,
      "sit": 3680,
      "sol": 3681,
      "sing": 3682,
      "sand": 3683,
      "sem": 3684,
      "sting": 3685,
      "sust": 3686,
      "sum": 3687,
      "sav": 3688,
      "sens": 3689,
      "sail": 3690,
      "senti": 3691,
      "site": 3692,
      "sort": 3693,
      "sense": 3694,
      "sources": 3695,
      "sale": 3696,
      "solid": 3697,
      "sne": 3698,
      "segreg": 3699,
      "sugar": 3700,
      "ted": 3701,
      "tal": 3702,
      "tide": 3703,
      "tons": 3704,
      "tests": 3705,
      "tanks": 3706,
      "tired": 3707,
      "tang": 3708,
      "taking": 3709,
      "us": 3710,
      "ut": 3711,
      "uid": 3712,
      "uential": 3713,
      "uenced": 3714,
      "von": 3715,
      "van": 3716,
      "vig": 3717,
      "vand": 3718,
      "vow": 3719,
      "virgin": 3720,
      "wi": 3721,
      "wor": 3722,
      "wit": 3723,
      "wel": 3724,
      "wid": 3725,
      "wall": 3726,
      "wary": 3727,
      "wave": 3728,
      "wound": 3729,
      "wine": 3730,
      "wide": 3731,
      "wages": 3732,
      "wood": 3733,
      "wage": 3734,
      "wise": 3735,
      "wool": 3736,
      "wrong": 3737,
      "waiting": 3738,
      "you": 3739,
      "##ni": 3740,
      "##nal": 3741,
      "##nic": 3742,
      "##nec": 3743,
      "##nap": 3744,
      "##nett": 3745,
      "##nov": 3746,
      "##nowled": 3747,
      "##ds": 3748,
      "##dens": 3749,
      "##dons": 3750,
      "##duce": 3751,
      "##dependent": 3752,
      "##door": 3753,
      "##uti": 3754,
      "##uation": 3755,
      "##umer": 3756,
      "##uter": 3757,
      "##ugh": 3758,
      "##uild": 3759,
      "##ss": 3760,
      "##sc": 3761,
      "##sl": 3762,
      "##sm": 3763,
      "##sar": 3764,
      "##sing": 3765,
      "##sid": 3766,
      "##sion": 3767,
      "##sup": 3768,
      "##sity": 3769,
      "##sary": 3770,
      "##shev": 3771,
      "##tr": 3772,
      "##tp": 3773,
      "##tal": 3774,
      "##tent": 3775,
      "##tre": 3776,
      "##tol": 3777,
      "##tec": 3778,
      "##tle": 3779,
      "##teg": 3780,
      "##town": 3781,
      "##table": 3782,
      "##tang": 3783,
      "##rat": 3784,
      "##ris": 3785,
      "##rad": 3786,
      "##rig": 3787,
      "##ram": 3788,
      "##rity": 3789,
      "##rate": 3790,
      "##rised": 3791,
      "##rtist": 3792,
      "##ruit": 3793,
      "##ys": 3794,
      "##yl": 3795,
      "##yed": 3796,
      "##yst": 3797,
      "##ying": 3798,
      "##if": 3799,
      "##ik": 3800,
      "##ire": 3801,
      "##iel": 3802,
      "##iber": 3803,
      "##iform": 3804,
      "##ients": 3805,
      "##iately": 3806,
      "##can": 3807,
      "##ction": 3808,
      "##col": 3809,
      "##cil": 3810,
      "##cri": 3811,
      "##cow": 3812,
      "##cies": 3813,
      "##cos": 3814,
      "##cial": 3815,
      "##cip": 3816,
      "##cest": 3817,
      "##catt": 3818,
      "##ctive": 3819,
      "##cord": 3820,
      "##chers": 3821,
      "##cott": 3822,
      "##cuit": 3823,
      "##craft": 3824,
      "##xury": 3825,
      "##hl": 3826,
      "##hin": 3827,
      "##hol": 3828,
      "##hod": 3829,
      "##hich": 3830,
      "##hold": 3831,
      "##hone": 3832,
      "##homas": 3833,
      "##happ": 3834,
      "##hoto": 3835,
      "##hok": 3836,
      "##hower": 3837,
      "##bon": 3838,
      "##bis": 3839,
      "##bil": 3840,
      "##ble": 3841,
      "##bers": 3842,
      "##bul": 3843,
      "##bate": 3844,
      "##bine": 3845,
      "##bile": 3846,
      "##building": 3847,
      "##board": 3848,
      "##oa": 3849,
      "##ois": 3850,
      "##oil": 3851,
      "##oad": 3852,
      "##oot": 3853,
      "##obile": 3854,
      "##ey": 3855,
      "##ez": 3856,
      "##ek": 3857,
      "##ein": 3858,
      "##ean": 3859,
      "##evan": 3860,
      "##eered": 3861,
      "##ealth": 3862,
      "##95": 3863,
      "##98": 3864,
      "##90s": 3865,
      "##52": 3866,
      "##50s": 3867,
      "##fy": 3868,
      "##fo": 3869,
      "##fted": 3870,
      "##fay": 3871,
      "##fess": 3872,
      "##fered": 3873,
      "##ael": 3874,
      "##ape": 3875,
      "##aill": 3876,
      "##aust": 3877,
      "##aments": 3878,
      "##affi": 3879,
      "##aults": 3880,
      "##lm": 3881,
      "##ling": 3882,
      "##lip": 3883,
      "##lington": 3884,
      "##local": 3885,
      "##lustration": 3886,
      "##gar": 3887,
      "##gri": 3888,
      "##got": 3889,
      "##gers": 3890,
      "##gie": 3891,
      "##gun": 3892,
      "##gry": 3893,
      "##gone": 3894,
      "##gage": 3895,
      "##gile": 3896,
      "##gged": 3897,
      "##ground": 3898,
      "##gues": 3899,
      "##vy": 3900,
      "##val": 3901,
      "##vis": 3902,
      "##vies": 3903,
      "##vate": 3904,
      "##vant": 3905,
      "##men": 3906,
      "##mation": 3907,
      "##mig": 3908,
      "##more": 3909,
      "##mod": 3910,
      "##mish": 3911,
      "##mians": 3912,
      "##mopol": 3913,
      "##mission": 3914,
      "##moil": 3915,
      "##pt": 3916,
      "##pin": 3917,
      "##pan": 3918,
      "##pent": 3919,
      "##pol": 3920,
      "##pil": 3921,
      "##pres": 3922,
      "##pri": 3923,
      "##puc": 3924,
      "##pare": 3925,
      "##pents": 3926,
      "##phic": 3927,
      "##pines": 3928,
      "##pansion": 3929,
      "##place": 3930,
      "##phib": 3931,
      "##ponents": 3932,
      "##wa": 3933,
      "##whe": 3934,
      "##were": 3935,
      "##work": 3936,
      "##weg": 3937,
      "##wine": 3938,
      "##ward": 3939,
      "##where": 3940,
      "##worn": 3941,
      "##which": 3942,
      "##wealth": 3943,
      "##zo": 3944,
      "##zon": 3945,
      "##zan": 3946,
      "##zqu": 3947,
      "##76": 3948,
      "##72": 3949,
      "##40": 3950,
      "##ko": 3951,
      "##ker": 3952,
      "##knowled": 3953,
      "##khol": 3954,
      "##39": 3955,
      "##38": 3956,
      "##08": 3957,
      "##88": 3958,
      "##81": 3959,
      "##13": 3960,
      "##181": 3961,
      "##NT": 3962,
      "##NATION": 3963,
      "##To": 3964,
      "##TM": 3965,
      "##TOR": 3966,
      "##TION": 3967,
      "##TRO": 3968,
      "##RA": 3969,
      "##RE": 3970,
      "##Rel": 3971,
      "##Road": 3972,
      "##RTM": 3973,
      "##DU": 3974,
      "##USA": 3975,
      "##Cultural": 3976,
      "##CTION": 3977,
      "##IE": 3978,
      "##AU": 3979,
      "##AL": 3980,
      "##Art": 3981,
      "##Artist": 3982,
      "##ARTM": 3983,
      "##21": 3984,
      "##22": 3985,
      "##MS": 3986,
      "##MATION": 3987,
      "##jug": 3988,
      "##ject": 3989,
      "##jacked": 3990,
      "##Spin": 3991,
      "##John": 3992,
      "##LIO": 3993,
      "##GRA": 3994,
      "##Early": 3995,
      "##ENT": 3996,
      "##Plan": 3997,
      "##Photo": 3998,
      "##PARTM": 3999,
      "##FOR": 4000,
      "##FUSA": 4001,
      "##Writ": 4002,
      "##WOR": 4003,
      "##áve": 4004,
      "##íper": 4005,
      "##ón": 4006,
      "##heed": 4007,
      "##healthy": 4008,
      "##hemians": 4009,
      "##ert": 4010,
      "##ering": 4011,
      "##erts": 4012,
      "##erting": 4013,
      "##erfi": 4014,
      "##erog": 4015,
      "##erates": 4016,
      "##erable": 4017,
      "##erences": 4018,
      "##ony": 4019,
      "##ones": 4020,
      "##onoun": 4021,
      "##onable": 4022,
      "##onau": 4023,
      "##onado": 4024,
      "##onets": 4025,
      "##onzo": 4026,
      "theory": 4027,
      "##eds": 4028,
      "##edy": 4029,
      "##ede": 4030,
      "##edies": 4031,
      "##esome": 4032,
      "##estions": 4033,
      "##nds": 4034,
      "##nda": 4035,
      "##ndreds": 4036,
      "##tier": 4037,
      "##tial": 4038,
      "##tire": 4039,
      "##tifi": 4040,
      "##tiles": 4041,
      "##time": 4042,
      "##tiously": 4043,
      "##enal": 4044,
      "##ention": 4045,
      "##enans": 4046,
      "##enland": 4047,
      "##enger": 4048,
      "##enship": 4049,
      "##encing": 4050,
      "##encies": 4051,
      "##enhower": 4052,
      "##oral": 4053,
      "##oring": 4054,
      "##orts": 4055,
      "##orched": 4056,
      "##orship": 4057,
      "##orado": 4058,
      "##orously": 4059,
      "##inal": 4060,
      "##inas": 4061,
      "##inet": 4062,
      "##inter": 4063,
      "##inem": 4064,
      "##inate": 4065,
      "##inting": 4066,
      "##inery": 4067,
      "##integ": 4068,
      "##info": 4069,
      "##ants": 4070,
      "##ange": 4071,
      "##anim": 4072,
      "##anton": 4073,
      "##ances": 4074,
      "##anical": 4075,
      "##ald": 4076,
      "##aling": 4077,
      "##alated": 4078,
      "##alyst": 4079,
      "off": 4080,
      "##ats": 4081,
      "##ateral": 4082,
      "##atog": 4083,
      "##atroop": 4084,
      "##atory": 4085,
      "##atform": 4086,
      "##arity": 4087,
      "##arting": 4088,
      "##argo": 4089,
      "##arps": 4090,
      "##arters": 4091,
      "##arization": 4092,
      "##artering": 4093,
      "##artial": 4094,
      "inct": 4095,
      "initi": 4096,
      "inade": 4097,
      "intim": 4098,
      "insure": 4099,
      "information": 4100,
      "inev": 4101,
      "innov": 4102,
      "top": 4103,
      "told": 4104,
      "town": 4105,
      "tobac": 4106,
      "tough": 4107,
      "total": 4108,
      "##rous": 4109,
      "##rosh": 4110,
      "##roach": 4111,
      "##royed": 4112,
      "##roval": 4113,
      "##enton": 4114,
      "##ented": 4115,
      "##entum": 4116,
      "##entenn": 4117,
      "##ites": 4118,
      "##itment": 4119,
      "##itary": 4120,
      "##ittered": 4121,
      "##itably": 4122,
      "##itarian": 4123,
      "##stall": 4124,
      "##stamp": 4125,
      "##stock": 4126,
      "##standing": 4127,
      "##stein": 4128,
      "##iced": 4129,
      "##icol": 4130,
      "##icts": 4131,
      "##icies": 4132,
      "##icial": 4133,
      "##ications": 4134,
      "##reen": 4135,
      "##reet": 4136,
      "##rehen": 4137,
      "##reational": 4138,
      "##recon": 4139,
      "##revoc": 4140,
      "##reless": 4141,
      "##reaffi": 4142,
      "##ason": 4143,
      "##ased": 4144,
      "##asing": 4145,
      "##asiv": 4146,
      "##ashed": 4147,
      "##asak": 4148,
      "##asazi": 4149,
      "##ola": 4150,
      "##olis": 4151,
      "##olved": 4152,
      "##iser": 4153,
      "##ises": 4154,
      "##ision": 4155,
      "##istic": 4156,
      "##isive": 4157,
      "##istice": 4158,
      "##isiana": 4159,
      "Then": 4160,
      "Ther": 4161,
      "##oms": 4162,
      "##omet": 4163,
      "##omac": 4164,
      "##ommun": 4165,
      "##omobile": 4166,
      "##eces": 4167,
      "##ecution": 4168,
      "##eches": 4169,
      "##ecurity": 4170,
      "##ectiously": 4171,
      "##ecommun": 4172,
      "##ilos": 4173,
      "##ella": 4174,
      "##elands": 4175,
      "##ading": 4176,
      "##adem": 4177,
      "##adqu": 4178,
      "##adde": 4179,
      "##adian": 4180,
      "##ationship": 4181,
      "##eton": 4182,
      "##eted": 4183,
      "##etely": 4184,
      "##ettered": 4185,
      "##etery": 4186,
      "##etorship": 4187,
      "thres": 4188,
      "thri": 4189,
      "thus": 4190,
      "though": 4191,
      "threw": 4192,
      "##verse": 4193,
      "##versy": 4194,
      "##vereign": 4195,
      "##versary": 4196,
      "##verstein": 4197,
      "##cement": 4198,
      "##ceasing": 4199,
      "##mera": 4200,
      "forth": 4201,
      "forcing": 4202,
      "forgot": 4203,
      "##ids": 4204,
      "##iding": 4205,
      "##idly": 4206,
      "##idated": 4207,
      "##idges": 4208,
      "##idered": 4209,
      "##lyphic": 4210,
      "##aine": 4211,
      "##aining": 4212,
      "##ainment": 4213,
      "##lear": 4214,
      "##igo": 4215,
      "##igation": 4216,
      "##igins": 4217,
      "##iginal": 4218,
      "##aces": 4219,
      "##action": 4220,
      "##acter": 4221,
      "##acting": 4222,
      "##aches": 4223,
      "##aciers": 4224,
      "##thou": 4225,
      "##thical": 4226,
      "##thday": 4227,
      "##thony": 4228,
      "Amerigo": 4229,
      "reest": 4230,
      "refi": 4231,
      "requ": 4232,
      "refor": 4233,
      "repl": 4234,
      "reapers": 4235,
      "reverted": 4236,
      "rework": 4237,
      "reject": 4238,
      "retire": 4239,
      "reverse": 4240,
      "Americas": 4241,
      "##amatic": 4242,
      "##amines": 4243,
      "##ura": 4244,
      "##uries": 4245,
      "##urban": 4246,
      "##irmish": 4247,
      "##ria": 4248,
      "##rimin": 4249,
      "ons": 4250,
      "onomic": 4251,
      "##ando": 4252,
      "##sey": 4253,
      "##seas": 4254,
      "##seum": 4255,
      "##sequ": 4256,
      "confi": 4257,
      "congress": 4258,
      "conduc": 4259,
      "consu": 4260,
      "conven": 4261,
      "confer": 4262,
      "connected": 4263,
      "conquered": 4264,
      "consequ": 4265,
      "##opher": 4266,
      "##ophy": 4267,
      "dead": 4268,
      "defi": 4269,
      "depos": 4270,
      "depl": 4271,
      "deposed": 4272,
      "death": 4273,
      "defer": 4274,
      "##terminated": 4275,
      "aside": 4276,
      "##ute": 4277,
      "##utal": 4278,
      "##utral": 4279,
      "##utants": 4280,
      "prove": 4281,
      "proced": 4282,
      "projected": 4283,
      "prohib": 4284,
      "profound": 4285,
      "produce": 4286,
      "proble": 4287,
      "profess": 4288,
      "propri": 4289,
      "##ote": 4290,
      "##otas": 4291,
      "##otos": 4292,
      "##otland": 4293,
      "##ansformation": 4294,
      "##ocide": 4295,
      "##ocratic": 4296,
      "##ocrat": 4297,
      "##ocaust": 4298,
      "##eway": 4299,
      "##ewell": 4300,
      "##using": 4301,
      "##usual": 4302,
      "##usko": 4303,
      "##ulations": 4304,
      "##ularly": 4305,
      "##ticut": 4306,
      "##ticultural": 4307,
      "beef": 4308,
      "begun": 4309,
      "##peached": 4310,
      "##pealing": 4311,
      "##romises": 4312,
      "##ithson": 4313,
      "whites": 4314,
      "##istran": 4315,
      "gov": 4316,
      "goal": 4317,
      "going": 4318,
      "##gement": 4319,
      "##geable": 4320,
      "1900": 4321,
      "1950": 4322,
      "19be": 4323,
      "1908": 4324,
      "Convention": 4325,
      "Connec": 4326,
      "Concord": 4327,
      "within": 4328,
      "without": 4329,
      "als": 4330,
      "alive": 4331,
      "altern": 4332,
      "although": 4333,
      "althou": 4334,
      "existed": 4335,
      "examines": 4336,
      "exterminated": 4337,
      "stand": 4338,
      "stay": 4339,
      "stric": 4340,
      "stag": 4341,
      "stud": 4342,
      "stamp": 4343,
      "stone": 4344,
      "story": 4345,
      "stayed": 4346,
      "stret": 4347,
      "stead": 4348,
      "storm": 4349,
      "standing": 4350,
      "staked": 4351,
      "stones": 4352,
      "##aptation": 4353,
      "ator": 4354,
      "atomic": 4355,
      "##ays": 4356,
      "##ighbor": 4357,
      "anim": 4358,
      "anger": 4359,
      "anarchy": 4360,
      "ancest": 4361,
      "angry": 4362,
      "analyst": 4363,
      "governed": 4364,
      "governing": 4365,
      "color": 4366,
      "##uction": 4367,
      "##ivan": 4368,
      "polarization": 4369,
      "##tue": 4370,
      "##tures": 4371,
      "##tugues": 4372,
      "nationally": 4373,
      "nationwide": 4374,
      "come": 4375,
      "composed": 4376,
      "##osure": 4377,
      "##berry": 4378,
      "170": 4379,
      "1790s": 4380,
      "1750s": 4381,
      "1738": 4382,
      "##law": 4383,
      "##lair": 4384,
      "##laves": 4385,
      "least": 4386,
      "leave": 4387,
      "leases": 4388,
      "levy": 4389,
      "colonized": 4390,
      "colonization": 4391,
      "1898": 4392,
      "1852": 4393,
      "1876": 4394,
      "1821": 4395,
      "##rast": 4396,
      "##rating": 4397,
      "##rative": 4398,
      "##raord": 4399,
      "##razan": 4400,
      "##ables": 4401,
      "##abella": 4402,
      "##rang": 4403,
      "##ranean": 4404,
      "##odity": 4405,
      "##odied": 4406,
      "##ghter": 4407,
      "Institution": 4408,
      "Invent": 4409,
      "Instruction": 4410,
      "Inside": 4411,
      "Instead": 4412,
      "Intol": 4413,
      "impor": 4414,
      "impeached": 4415,
      "oral": 4416,
      "origins": 4417,
      "yearning": 4418,
      "##ipment": 4419,
      "##ipients": 4420,
      "##ippines": 4421,
      "##esses": 4422,
      "expand": 4423,
      "export": 4424,
      "expanding": 4425,
      "expressing": 4426,
      "exposure": 4427,
      "articles": 4428,
      "arrest": 4429,
      "artifi": 4430,
      "newcom": 4431,
      "united": 4432,
      "unqu": 4433,
      "unions": 4434,
      "unable": 4435,
      "unreas": 4436,
      "uncom": 4437,
      "unli": 4438,
      "unrest": 4439,
      "unless": 4440,
      "uniform": 4441,
      "unhapp": 4442,
      "unhealthy": 4443,
      "uninter": 4444,
      "unanim": 4445,
      "unceasing": 4446,
      "unusual": 4447,
      "##ritory": 4448,
      "##ritten": 4449,
      "##ief": 4450,
      "##ieties": 4451,
      "##ephone": 4452,
      "##astating": 4453,
      "##astrous": 4454,
      "##ette": 4455,
      "Norweg": 4456,
      "##estown": 4457,
      "##illing": 4458,
      "ens": 4459,
      "enfor": 4460,
      "engin": 4461,
      "entered": 4462,
      "environment": 4463,
      "enumer": 4464,
      "entang": 4465,
      "engage": 4466,
      "neys": 4467,
      "neutral": 4468,
      "neighbor": 4469,
      "noted": 4470,
      "notable": 4471,
      "notables": 4472,
      "wars": 4473,
      "warned": 4474,
      "wartime": 4475,
      "##une": 4476,
      "##unges": 4477,
      "##unched": 4478,
      "##uben": 4479,
      "ect": 4480,
      "ectively": 4481,
      "eclip": 4482,
      "##ounts": 4483,
      "ground": 4484,
      "shing": 4485,
      "shack": 4486,
      "shift": 4487,
      "shows": 4488,
      "shapes": 4489,
      "shoot": 4490,
      "##atio": 4491,
      "##aties": 4492,
      "##atise": 4493,
      "##atism": 4494,
      "Newly": 4495,
      "Newfound": 4496,
      "politics": 4497,
      "politician": 4498,
      "politicians": 4499,
      "ady": 4500,
      "advant": 4501,
      "adversary": 4502,
      "adaptation": 4503,
      "indisp": 4504,
      "##ports": 4505,
      "##porate": 4506,
      "##uste": 4507,
      "##rich": 4508,
      "##rick": 4509,
      "##ricts": 4510,
      "##agon": 4511,
      "##aged": 4512,
      "##aging": 4513,
      "##agreements": 4514,
      "height": 4515,
      "health": 4516,
      "heads": 4517,
      "headqu": 4518,
      "##itious": 4519,
      "##itime": 4520,
      "decide": 4521,
      "platform": 4522,
      "places": 4523,
      "plunges": 4524,
      "##aware": 4525,
      "integ": 4526,
      "intend": 4527,
      "intact": 4528,
      "intention": 4529,
      "##asslands": 4530,
      "##assinated": 4531,
      "landing": 4532,
      "landown": 4533,
      "try": 4534,
      "traced": 4535,
      "truste": 4536,
      "##umed": 4537,
      "allies": 4538,
      "allian": 4539,
      "allied": 4540,
      "struts": 4541,
      "freed": 4542,
      "party": 4543,
      "parks": 4544,
      "parents": 4545,
      "parties": 4546,
      "parlia": 4547,
      "pardons": 4548,
      "paratroop": 4549,
      "##ques": 4550,
      "##quis": 4551,
      "##quate": 4552,
      "Northwest": 4553,
      "displ": 4554,
      "disabl": 4555,
      "disapp": 4556,
      "disco": 4557,
      "disper": 4558,
      "disability": 4559,
      "disinteg": 4560,
      "disastrous": 4561,
      "disagreements": 4562,
      "opted": 4563,
      "optim": 4564,
      "opened": 4565,
      "opening": 4566,
      "operation": 4567,
      "overboard": 4568,
      "overwhe": 4569,
      "overseas": 4570,
      "##rysl": 4571,
      "##fortable": 4572,
      "##akened": 4573,
      "##lications": 4574,
      "##onomic": 4575,
      "##ishing": 4576,
      "attenti": 4577,
      "attainment": 4578,
      "action": 4579,
      "access": 4580,
      "accep": 4581,
      "accept": 4582,
      "accom": 4583,
      "actually": 4584,
      "acknowled": 4585,
      "center": 4586,
      "centers": 4587,
      "centrist": 4588,
      "centuries": 4589,
      "effi": 4590,
      "motion": 4591,
      "mobil": 4592,
      "movies": 4593,
      "result": 4594,
      "reserv": 4595,
      "reserved": 4596,
      "resistance": 4597,
      "results": 4598,
      "resumed": 4599,
      "superi": 4600,
      "supreme": 4601,
      "suprem": 4602,
      "##duction": 4603,
      "##sues": 4604,
      "##avior": 4605,
      "nationality": 4606,
      "peoples": 4607,
      "That": 4608,
      "Thousands": 4609,
      "Thadde": 4610,
      "ammun": 4611,
      "amphib": 4612,
      "ghter": 4613,
      "lift": 4614,
      "##sperity": 4615,
      "##tyrannical": 4616,
      "##racial": 4617,
      "##ganization": 4618,
      "##venting": 4619,
      "##pled": 4620,
      "##plied": 4621,
      "##planes": 4622,
      "##pluses": 4623,
      "interest": 4624,
      "intervention": 4625,
      "intercon": 4626,
      "interdependent": 4627,
      "interfered": 4628,
      "interaction": 4629,
      "interracial": 4630,
      "##ildren": 4631,
      "Congressman": 4632,
      "Constitutional": 4633,
      "Arkans": 4634,
      "Arlington": 4635,
      "Chapp": 4636,
      "Chines": 4637,
      "Christ": 4638,
      "Chuck": 4639,
      "Chris": 4640,
      "Cháve": 4641,
      "Change": 4642,
      "Chief": 4643,
      "Chrysl": 4644,
      "Children": 4645,
      "Indian": 4646,
      "Indiana": 4647,
      "Leif": 4648,
      "León": 4649,
      "Yorktown": 4650,
      "ending": 4651,
      "endure": 4652,
      "enduring": 4653,
      "endured": 4654,
      "prelim": 4655,
      "prepare": 4656,
      "preventing": 4657,
      "societies": 4658,
      "##torious": 4659,
      "##inceton": 4660,
      "contain": 4661,
      "contained": 4662,
      "contested": 4663,
      "contrad": 4664,
      "contrast": 4665,
      "Southwest": 4666,
      "able": 4667,
      "above": 4668,
      "abrup": 4669,
      "abund": 4670,
      "abuses": 4671,
      "aboard": 4672,
      "cover": 4673,
      "coff": 4674,
      "covered": 4675,
      "symb": 4676,
      "twin": 4677,
      "##enses": 4678,
      "##ension": 4679,
      "##ensable": 4680,
      "##aching": 4681,
      "regain": 4682,
      "regard": 4683,
      "regained": 4684,
      "regional": 4685,
      "groupings": 4686,
      "base": 4687,
      "basing": 4688,
      "worldwide": 4689,
      "##ibility": 4690,
      "##ibbe": 4691,
      "##vants": 4692,
      "##vanni": 4693,
      "##outlaw": 4694,
      "##ampment": 4695,
      "command": 4696,
      "commander": 4697,
      "committed": 4698,
      "commemor": 4699,
      "commitment": 4700,
      "commodity": 4701,
      "legi": 4702,
      "legacy": 4703,
      "continual": 4704,
      "continuing": 4705,
      "continuity": 4706,
      "continually": 4707,
      "Colorado": 4708,
      "Germans": 4709,
      "Immig": 4710,
      "Reaching": 4711,
      "Space": 4712,
      "delayed": 4713,
      "deliber": 4714,
      "farthe": 4715,
      "larger": 4716,
      "meat": 4717,
      "means": 4718,
      "meant": 4719,
      "metimes": 4720,
      "signer": 4721,
      "signing": 4722,
      "##tained": 4723,
      "##luded": 4724,
      "themes": 4725,
      "##elyWrit": 4726,
      "defeating": 4727,
      "1864": 4728,
      "1860s": 4729,
      "armed": 4730,
      "armame": 4731,
      "armaments": 4732,
      "armistice": 4733,
      "Andrew": 4734,
      "Mark": 4735,
      "Mariana": 4736,
      "Marcos": 4737,
      "Maritime": 4738,
      "Marquis": 4739,
      "Steff": 4740,
      "Stanton": 4741,
      "Starting": 4742,
      "Street": 4743,
      "build": 4744,
      "county": 4745,
      "elections": 4746,
      "helping": 4747,
      "mills": 4748,
      "presidents": 4749,
      "quiet": 4750,
      "question": 4751,
      "questions": 4752,
      "quotas": 4753,
      "redco": 4754,
      "reduction": 4755,
      "recent": 4756,
      "reconstruction": 4757,
      "recurring": 4758,
      "recession": 4759,
      "recruit": 4760,
      "recreational": 4761,
      "recipients": 4762,
      "recounts": 4763,
      "soon": 4764,
      "sovereign": 4765,
      "sea": 4766,
      "seeds": 4767,
      "season": 4768,
      "##ugs": 4769,
      "##ails": 4770,
      "##icals": 4771,
      "remains": 4772,
      "remind": 4773,
      "remedies": 4774,
      "develo": 4775,
      "protected": 4776,
      "protests": 4777,
      "protested": 4778,
      "compet": 4779,
      "company": 4780,
      "complex": 4781,
      "compete": 4782,
      "computer": 4783,
      "comprised": 4784,
      "immoral": 4785,
      "immune": 4786,
      "freedoms": 4787,
      "include": 4788,
      "systematic": 4789,
      "Anse": 4790,
      "Another": 4791,
      "Anci": 4792,
      "Annap": 4793,
      "Anasazi": 4794,
      "Anthony": 4795,
      "Proper": 4796,
      "Protec": 4797,
      "Proponents": 4798,
      "Production": 4799,
      "Prosperity": 4800,
      "greatly": 4801,
      "greatest": 4802,
      "ideal": 4803,
      "ideals": 4804,
      "idealism": 4805,
      "outlin": 4806,
      "output": 4807,
      "outdoor": 4808,
      "outworn": 4809,
      "secure": 4810,
      "second": 4811,
      "sectional": 4812,
      "secured": 4813,
      "secession": 4814,
      "secessions": 4815,
      "secede": 4816,
      "surges": 4817,
      "surround": 4818,
      "surpluses": 4819,
      "someone": 4820,
      "trial": 4821,
      "trips": 4822,
      "tripled": 4823,
      "votes": 4824,
      "##cessful": 4825,
      "##linois": 4826,
      "##minal": 4827,
      "##onsored": 4828,
      "##onsibility": 4829,
      "provisions": 4830,
      "1786": 4831,
      "1781": 4832,
      "leader": 4833,
      "leading": 4834,
      "##ablishing": 4835,
      "impo": 4836,
      "impose": 4837,
      "implement": 4838,
      "impact": 4839,
      "imperial": 4840,
      "impartial": 4841,
      "implications": 4842,
      "##forming": 4843,
      "supporters": 4844,
      "Common": 4845,
      "Committ": 4846,
      "Commander": 4847,
      "Commission": 4848,
      "controversy": 4849,
      "delegate": 4850,
      "develope": 4851,
      "development": 4852,
      "developments": 4853,
      "populated": 4854,
      "Confederatio": 4855,
      "130": 4856,
      "13th": 4857,
      "13To": 4858,
      "Also": 4859,
      "Alask": 4860,
      "Alonzo": 4861,
      "Decisive": 4862,
      "Mission": 4863,
      "ered": 4864,
      "equipment": 4865,
      "fact": 4866,
      "faced": 4867,
      "factions": 4868,
      "foundations": 4869,
      "northeast": 4870,
      "owned": 4871,
      "posing": 4872,
      "position": 4873,
      "serve": 4874,
      "served": 4875,
      "serious": 4876,
      "serpents": 4877,
      "servants": 4878,
      "##onded": 4879,
      "1774": 4880,
      "1778": 4881,
      "1770s": 4882,
      "growers": 4883,
      "liberate": 4884,
      "liberalism": 4885,
      "Philippines": 4886,
      "representation": 4887,
      "Africa": 4888,
      "Africans": 4889,
      "1550": 4890,
      "1540": 4891,
      "1539": 4892,
      "1513": 4893,
      "1522": 4894,
      "Adenans": 4895,
      "Defense": 4896,
      "Deadly": 4897,
      "Debate": 4898,
      "Trenton": 4899,
      "Transformation": 4900,
      "bright": 4901,
      "bridges": 4902,
      "brutal": 4903,
      "clan": 4904,
      "class": 4905,
      "cloth": 4906,
      "clashes": 4907,
      "deserved": 4908,
      "desegreg": 4909,
      "desire": 4910,
      "deserts": 4911,
      "genocide": 4912,
      "monument": 4913,
      "monuments": 4914,
      "mainland": 4915,
      "relative": 4916,
      "relationship": 4917,
      "scope": 4918,
      "scorched": 4919,
      "screen": 4920,
      "undergone": 4921,
      "vice": 4922,
      "##ksburg": 4923,
      "organize": 4924,
      "organizing": 4925,
      "establish": 4926,
      "1600s": 4927,
      "1690": 4928,
      "1620": 4929,
      "1695": 4930,
      "1672": 4931,
      "1688": 4932,
      "16Artist": 4933,
      "20com": 4934,
      "Enacting": 4935,
      "Sectional": 4936,
      "guided": 4937,
      "guard": 4938,
      "knitting": 4939,
      "knowled": 4940,
      "lived": 4941,
      "longer": 4942,
      "longstanding": 4943,
      "navigation": 4944,
      "passage": 4945,
      "passenger": 4946,
      "spur": 4947,
      "space": 4948,
      "spark": 4949,
      "sprang": 4950,
      "sponsored": 4951,
      "##ointing": 4952,
      "##erving": 4953,
      "##thorse": 4954,
      "##thority": 4955,
      "assaults": 4956,
      "asserting": 4957,
      "assassinated": 4958,
      "1949": 4959,
      "1941": 4960,
      "1929": 4961,
      "1920": 4962,
      "alongside": 4963,
      "##appers": 4964,
      "arriv": 4965,
      "arrive": 4966,
      "arriving": 4967,
      "shipment": 4968,
      "shipbuilding": 4969,
      "plane": 4970,
      "planes": 4971,
      "planning": 4972,
      "planters": 4973,
      "immigrant": 4974,
      "victors": 4975,
      "taxed": 4976,
      "Century": 4977,
      "Civilian": 4978,
      "Edgar": 4979,
      "Federalist": 4980,
      "Genoa": 4981,
      "III": 4982,
      "Miners": 4983,
      "aux": 4984,
      "airs": 4985,
      "airli": 4986,
      "aircraft": 4987,
      "airports": 4988,
      "airplanes": 4989,
      "district": 4990,
      "districts": 4991,
      "gether": 4992,
      "getting": 4993,
      "nearing": 4994,
      "nearly": 4995,
      "prison": 4996,
      "pronoun": 4997,
      "printing": 4998,
      "permit": 4999,
      "permitted": 5000,
      "restored": 5001,
      "restoring": 5002,
      "ratify": 5003,
      "setting": 5004,
      "subjec": 5005,
      "subsid": 5006,
      "submission": 5007,
      "subjug": 5008,
      "suburban": 5009,
      "wealthy": 5010,
      "week": 5011,
      "##ructive": 5012,
      "insecurity": 5013,
      "##omenal": 5014,
      "rebuilding": 5015,
      "rebrand": 5016,
      "rebuild": 5017,
      "conserve": 5018,
      "consolid": 5019,
      "consensus": 5020,
      "conscri": 5021,
      "considered": 5022,
      "constitutions": 5023,
      "debt": 5024,
      "debated": 5025,
      "prospered": 5026,
      "prospect": 5027,
      "anyone": 5028,
      "Italian": 5029,
      "Italians": 5030,
      "added": 5031,
      "addition": 5032,
      "addressing": 5033,
      "partly": 5034,
      "JohnsonArt": 5035,
      "measure": 5036,
      "territory": 5037,
      "Declaring": 5038,
      "1000": 5039,
      "1001": 5040,
      "Former": 5041,
      "Formation": 5042,
      "Islands": 5043,
      "Isabella": 5044,
      "Issues": 5045,
      "Koreans": 5046,
      "backfi": 5047,
      "evenly": 5048,
      "frustration": 5049,
      "grapes": 5050,
      "grasslands": 5051,
      "harsh": 5052,
      "manage": 5053,
      "managed": 5054,
      "method": 5055,
      "preserving": 5056,
      "postage": 5057,
      "soup": 5058,
      "##their": 5059,
      "##key": 5060,
      "##erned": 5061,
      "##ernization": 5062,
      "invited": 5063,
      "invading": 5064,
      "##rector": 5065,
      "revolutionaries": 5066,
      "depiction": 5067,
      "depicts": 5068,
      "1969": 5069,
      "1966": 5070,
      "1939": 5071,
      "1935": 5072,
      "1934": 5073,
      "1932": 5074,
      "stars": 5075,
      "start": 5076,
      "1763": 5077,
      "explored": 5078,
      "experiment": 5079,
      "experience": 5080,
      "experiencing": 5081,
      "individuals": 5082,
      "decisions": 5083,
      "attempted": 5084,
      "centralized": 5085,
      "regulated": 5086,
      "regularly": 5087,
      "##tillo": 5088,
      "possessions": 5089,
      "possesses": 5090,
      "maintains": 5091,
      "maintaining": 5092,
      "territorial": 5093,
      "followed": 5094,
      "10Rel": 5095,
      "2000": 5096,
      "Carbon": 5097,
      "Cartier": 5098,
      "Caribbe": 5099,
      "Hispan": 5100,
      "Jamestown": 5101,
      "Life": 5102,
      "Westward": 5103,
      "businesses": 5104,
      "correct": 5105,
      "corporation": 5106,
      "corporate": 5107,
      "civilized": 5108,
      "civilians": 5109,
      "educate": 5110,
      "educational": 5111,
      "hopes": 5112,
      "limit": 5113,
      "limits": 5114,
      "obvious": 5115,
      "obsc": 5116,
      "obtained": 5117,
      "performing": 5118,
      "private": 5119,
      "presidency": 5120,
      "presidencies": 5121,
      "railway": 5122,
      "separated": 5123,
      "turn": 5124,
      "turning": 5125,
      "turned": 5126,
      "turbul": 5127,
      "turmoil": 5128,
      "upon": 5129,
      "value": 5130,
      "valley": 5131,
      "version": 5132,
      "##namic": 5133,
      "##continental": 5134,
      "##content": 5135,
      "##coming": 5136,
      "##gering": 5137,
      "##gerous": 5138,
      "refrig": 5139,
      "concert": 5140,
      "concluded": 5141,
      "concerned": 5142,
      "##opolitical": 5143,
      "1956": 5144,
      "1954": 5145,
      "1951": 5146,
      "1915": 5147,
      "1917": 5148,
      "1914": 5149,
      "extent": 5150,
      "extraord": 5151,
      "extension": 5152,
      "1816": 5153,
      "agricu": 5154,
      "agriculture": 5155,
      "ordinary": 5156,
      "isolate": 5157,
      "isolated": 5158,
      "encroach": 5159,
      "enclaves": 5160,
      "encampment": 5161,
      "adopt": 5162,
      "adoption": 5163,
      "##umbent": 5164,
      "responsibility": 5165,
      "responded": 5166,
      "resolution": 5167,
      "resoluti": 5168,
      "Archive": 5169,
      "Compact": 5170,
      "Compromises": 5171,
      "##incipal": 5172,
      "generation": 5173,
      "religion": 5174,
      "escape": 5175,
      "escorts": 5176,
      "escalated": 5177,
      "permanently": 5178,
      "southwest": 5179,
      "negotiate": 5180,
      "14The": 5181,
      "1492": 5182,
      "11Road": 5183,
      "Clack": 5184,
      "Canadian": 5185,
      "INTER": 5186,
      "INTRO": 5187,
      "INFOR": 5188,
      "Monopolies": 5189,
      "Montre": 5190,
      "Poles": 5191,
      "Policies": 5192,
      "Reserve": 5193,
      "Resources": 5194,
      "agenda": 5195,
      "approval": 5196,
      "apprehen": 5197,
      "cease": 5198,
      "caused": 5199,
      "causes": 5200,
      "camera": 5201,
      "causing": 5202,
      "carried": 5203,
      "carrier": 5204,
      "capture": 5205,
      "glaciers": 5206,
      "hundreds": 5207,
      "hostile": 5208,
      "holds": 5209,
      "illustration": 5210,
      "loved": 5211,
      "look": 5212,
      "ourish": 5213,
      "punitive": 5214,
      "periods": 5215,
      "skyl": 5216,
      "skirmish": 5217,
      "successful": 5218,
      "trends": 5219,
      "treaties": 5220,
      "willing": 5221,
      "waterways": 5222,
      "##nessed": 5223,
      "##rupted": 5224,
      "##lier": 5225,
      "##ATE": 5226,
      "reality": 5227,
      "realized": 5228,
      "realize": 5229,
      "beginning": 5230,
      "collecting": 5231,
      "collectively": 5232,
      "commercial": 5233,
      "chartered": 5234,
      "character": 5235,
      "Incumbent": 5236,
      "argument": 5237,
      "newspapers": 5238,
      "administration": 5239,
      "administered": 5240,
      "administering": 5241,
      "administrative": 5242,
      "particularly": 5243,
      "opportunities": 5244,
      "attract": 5245,
      "attracte": 5246,
      "diverse": 5247,
      "diversity": 5248,
      "beliefs": 5249,
      "commonwealth": 5250,
      "##ography": 5251,
      "terrain": 5252,
      "bringing": 5253,
      "science": 5254,
      "blacks": 5255,
      "historic": 5256,
      "historically": 5257,
      "guaranteeing": 5258,
      "occurring": 5259,
      "21reaffi": 5260,
      "39catt": 5261,
      "35their": 5262,
      "440": 5263,
      "44for": 5264,
      "AFTER": 5265,
      "Bridge": 5266,
      "Brandy": 5267,
      "Corps": 5268,
      "Corporation": 5269,
      "Coronado": 5270,
      "Director": 5271,
      "Design": 5272,
      "Exhib": 5273,
      "Executive": 5274,
      "Expansion": 5275,
      "Eastern": 5276,
      "Greenland": 5277,
      "Harbor": 5278,
      "Juníper": 5279,
      "Mayfl": 5280,
      "Queen": 5281,
      "Quakers": 5282,
      "Quartering": 5283,
      "Regulations": 5284,
      "Serpent": 5285,
      "State": 5286,
      "Underground": 5287,
      "What": 5288,
      "Workers": 5289,
      "Woodstock": 5290,
      "awaiting": 5291,
      "awesome": 5292,
      "awakened": 5293,
      "actor": 5294,
      "actors": 5295,
      "balance": 5296,
      "balanced": 5297,
      "balances": 5298,
      "bombs": 5299,
      "birth": 5300,
      "births": 5301,
      "birds": 5302,
      "borders": 5303,
      "cruel": 5304,
      "cracked": 5305,
      "crashed": 5306,
      "crime": 5307,
      "critics": 5308,
      "criminal": 5309,
      "creators": 5310,
      "course": 5311,
      "career": 5312,
      "denying": 5313,
      "details": 5314,
      "draft": 5315,
      "drafted": 5316,
      "dragged": 5317,
      "embargo": 5318,
      "embittered": 5319,
      "embodied": 5320,
      "focused": 5321,
      "failure": 5322,
      "family": 5323,
      "geopolitical": 5324,
      "geography": 5325,
      "grievan": 5326,
      "happiness": 5327,
      "journe": 5328,
      "journal": 5329,
      "mount": 5330,
      "materiel": 5331,
      "marked": 5332,
      "missionaries": 5333,
      "phases": 5334,
      "philos": 5335,
      "photos": 5336,
      "points": 5337,
      "room": 5338,
      "road": 5339,
      "roads": 5340,
      "rming": 5341,
      "rmation": 5342,
      "swept": 5343,
      "sinkhol": 5344,
      "sentence": 5345,
      "speech": 5346,
      "speedy": 5347,
      "speeches": 5348,
      "searches": 5349,
      "tyrannical": 5350,
      "telev": 5351,
      "telecommun": 5352,
      "telephone": 5353,
      "urging": 5354,
      "voiced": 5355,
      "various": 5356,
      "writers": 5357,
      "##ciusko": 5358,
      "##oklyn": 5359,
      "##frustration": 5360,
      "##aii": 5361,
      "infectiously": 5362,
      "reforms": 5363,
      "devastating": 5364,
      "assemble": 5365,
      "1980": 5366,
      "withdrawal": 5367,
      "withdrawing": 5368,
      "stockpil": 5369,
      "collapse": 5370,
      "collapsed": 5371,
      "collapsing": 5372,
      "polls": 5373,
      "pollution": 5374,
      "pollutants": 5375,
      "complied": 5376,
      "complete": 5377,
      "completely": 5378,
      "expectations": 5379,
      "expeditionary": 5380,
      "unfettered": 5381,
      "needs": 5382,
      "shortly": 5383,
      "traders": 5384,
      "tradition": 5385,
      "traditions": 5386,
      "transfer": 5387,
      "transformation": 5388,
      "transcontinental": 5389,
      "struggle": 5390,
      "struggled": 5391,
      "struggling": 5392,
      "strength": 5393,
      "discrimin": 5394,
      "oppression": 5395,
      "ambitious": 5396,
      "precedents": 5397,
      "Columbia": 5398,
      "PhotoSpin": 5399,
      "Steve": 5400,
      "Steinem": 5401,
      "Steuben": 5402,
      "peacefully": 5403,
      "generals": 5404,
      "generalization": 5405,
      "essays": 5406,
      "spiritual": 5407,
      "associate": 5408,
      "restrictions": 5409,
      "frontiers": 5410,
      "violated": 5411,
      "viewing": 5412,
      "employment": 5413,
      "isolationist": 5414,
      "capitalism": 5415,
      "hostility": 5416,
      "participate": 5417,
      "participated": 5418,
      "participatory": 5419,
      "terrorist": 5420,
      "terrorism": 5421,
      "terrorists": 5422,
      "scientifi": 5423,
      "occupied": 5424,
      "achieve": 5425,
      "achieving": 5426,
      "achievement": 5427,
      "beneath": 5428,
      "celebration": 5429,
      "celebrated": 5430,
      "celebrate": 5431,
      "citizenship": 5432,
      "diplomat": 5433,
      "friends": 5434,
      "purchased": 5435,
      "technically": 5436,
      "challenge": 5437,
      "12stamp": 5438,
      "27tyrannical": 5439,
      "36recon": 5440,
      "37local": 5441,
      "330": 5442,
      "33The": 5443,
      "48The": 5444,
      "59John": 5445,
      "55Plan": 5446,
      "60were": 5447,
      "Austro": 5448,
      "Austria": 5449,
      "Battle": 5450,
      "Battles": 5451,
      "Disputes": 5452,
      "Discontent": 5453,
      "Demands": 5454,
      "Democrat": 5455,
      "Ellis": 5456,
      "Elvis": 5457,
      "Friedan": 5458,
      "Friedrich": 5459,
      "Gloria": 5460,
      "Glorious": 5461,
      "Hoover": 5462,
      "Hohok": 5463,
      "Hopi": 5464,
      "Hopewell": 5465,
      "Hungary": 5466,
      "Hungarian": 5467,
      "Latin": 5468,
      "Lafay": 5469,
      "Locke": 5470,
      "Lockheed": 5471,
      "Original": 5472,
      "Organization": 5473,
      "Princeton": 5474,
      "Principal": 5475,
      "Scare": 5476,
      "Scotland": 5477,
      "Show": 5478,
      "Sharps": 5479,
      "Swedes": 5480,
      "Sweden": 5481,
      "Verde": 5482,
      "Verrazan": 5483,
      "Victorious": 5484,
      "Vicksburg": 5485,
      "YaoPhoto": 5486,
      "appealing": 5487,
      "applied": 5488,
      "broadly": 5489,
      "cient": 5490,
      "ciency": 5491,
      "creation": 5492,
      "create": 5493,
      "clean": 5494,
      "clear": 5495,
      "culties": 5496,
      "culminated": 5497,
      "dramatic": 5498,
      "drugs": 5499,
      "destroyed": 5500,
      "destructive": 5501,
      "everywhere": 5502,
      "foot": 5503,
      "funeral": 5504,
      "function": 5505,
      "guns": 5506,
      "hijacked": 5507,
      "hierog": 5508,
      "houses": 5509,
      "housing": 5510,
      "hardened": 5511,
      "judging": 5512,
      "judicial": 5513,
      "launched": 5514,
      "lowered": 5515,
      "matter": 5516,
      "matured": 5517,
      "melted": 5518,
      "melting": 5519,
      "model": 5520,
      "modernization": 5521,
      "pieces": 5522,
      "painting": 5523,
      "painful": 5524,
      "practices": 5525,
      "practical": 5526,
      "portrait": 5527,
      "ricultural": 5528,
      "riches": 5529,
      "radio": 5530,
      "radicals": 5531,
      "racial": 5532,
      "racism": 5533,
      "slation": 5534,
      "sliding": 5535,
      "sheep": 5536,
      "sheets": 5537,
      "silk": 5538,
      "silent": 5539,
      "sixth": 5540,
      "tireless": 5541,
      "texts": 5542,
      "textiles": 5543,
      "verished": 5544,
      "vertical": 5545,
      "visors": 5546,
      "visible": 5547,
      "virtually": 5548,
      "virtue": 5549,
      "westwa": 5550,
      "##bachev": 5551,
      "##lisher": 5552,
      "theorist": 5553,
      "theorists": 5554,
      "##estionably": 5555,
      "invented": 5556,
      "inventor": 5557,
      "involving": 5558,
      "involvement": 5559,
      "##iterranean": 5560,
      "##itania": 5561,
      "##isphere": 5562,
      "repeal": 5563,
      "repealed": 5564,
      "reaching": 5565,
      "promised": 5566,
      "promote": 5567,
      "proposal": 5568,
      "proposals": 5569,
      "projector": 5570,
      "behind": 5571,
      "behavior": 5572,
      "1975": 5573,
      "1970": 5574,
      "Conservation": 5575,
      "Conservatives": 5576,
      "exception": 5577,
      "exceptional": 5578,
      "1835": 5579,
      "1836": 5580,
      "1803": 5581,
      "1801": 5582,
      "explode": 5583,
      "explaining": 5584,
      "expansionism": 5585,
      "arsenal": 5586,
      "artists": 5587,
      "unwritten": 5588,
      "unwilling": 5589,
      "unemployed": 5590,
      "unemployment": 5591,
      "Normal": 5592,
      "Normandy": 5593,
      "Northeastern": 5594,
      "enjoyed": 5595,
      "enjoying": 5596,
      "shuttle": 5597,
      "sharehold": 5598,
      "advance": 5599,
      "advanced": 5600,
      "players": 5601,
      "plantations": 5602,
      "Francisco": 5603,
      "Franciscan": 5604,
      "coordinated": 5605,
      "coordinate": 5606,
      "militia": 5607,
      "militias": 5608,
      "committee": 5609,
      "committees": 5610,
      "Reforms": 5611,
      "farming": 5612,
      "electric": 5613,
      "seeking": 5614,
      "immediate": 5615,
      "immediately": 5616,
      "climate": 5617,
      "climbed": 5618,
      "closed": 5619,
      "closely": 5620,
      "blockaded": 5621,
      "countrymen": 5622,
      "restraining": 5623,
      "restraints": 5624,
      "weaken": 5625,
      "instincts": 5626,
      "instinctive": 5627,
      "conservatives": 5628,
      "conservatism": 5629,
      "Carolina": 5630,
      "Carolinas": 5631,
      "corrupt": 5632,
      "corruption": 5633,
      "empire": 5634,
      "empires": 5635,
      "primary": 5636,
      "primitive": 5637,
      "encouraged": 5638,
      "encouragement": 5639,
      "Farmland": 5640,
      "Research": 5641,
      "Researchers": 5642,
      "Differences": 5643,
      "bombing": 5644,
      "marketplace": 5645,
      "searching": 5646,
      "strengthened": 5647,
      "scientists": 5648,
      "musicians": 5649,
      "travels": 5650,
      "traveled": 5651,
      "confronted": 5652,
      "confrontation": 5653,
      "recognized": 5654,
      "recognize": 5655,
      "29sup": 5656,
      "26outlaw": 5657,
      "24in": 5658,
      "28Early": 5659,
      "22the": 5660,
      "31181": 5661,
      "32Maine": 5662,
      "49to": 5663,
      "45on": 5664,
      "47The": 5665,
      "43pol": 5666,
      "42pres": 5667,
      "56Cultural": 5668,
      "57frustration": 5669,
      "53in": 5670,
      "52Most": 5671,
      "61which": 5672,
      "6conquered": 5673,
      "7By": 5674,
      "8Thomas": 5675,
      "985": 5676,
      "://": 5677,
      "Authority": 5678,
      "Academ": 5679,
      "Apaches": 5680,
      "Aeronau": 5681,
      "Arizon": 5682,
      "Bohemians": 5683,
      "Black": 5684,
      "BRIE": 5685,
      "BURE": 5686,
      "Balkans": 5687,
      "Brooklyn": 5688,
      "Bolshev": 5689,
      "Burnett": 5690,
      "Birthday": 5691,
      "Bighorn": 5692,
      "Bernice": 5693,
      "Businesses": 5694,
      "César": 5695,
      "Castillo": 5696,
      "Capistran": 5697,
      "Cemetery": 5698,
      "Cabot": 5699,
      "Calls": 5700,
      "Canyon": 5701,
      "County": 5702,
      "Custer": 5703,
      "Cibola": 5704,
      "Campbell": 5705,
      "Clark": 5706,
      "Creek": 5707,
      "Cowboys": 5708,
      "Dwight": 5709,
      "DEPARTM": 5710,
      "Dreiser": 5711,
      "Delaware": 5712,
      "Detail": 5713,
      "Doctr": 5714,
      "Dewey": 5715,
      "District": 5716,
      "Dodgers": 5717,
      "Drawing": 5718,
      "Economic": 5719,
      "Earlier": 5720,
      "Eisenhower": 5721,
      "Emergency": 5722,
      "Erik": 5723,
      "Events": 5724,
      "Emancip": 5725,
      "Ertman": 5726,
      "Fray": 5727,
      "Flappers": 5728,
      "FOLIO": 5729,
      "Freedom": 5730,
      "Films": 5731,
      "Fleet": 5732,
      "First": 5733,
      "Families": 5734,
      "Guam": 5735,
      "Glass": 5736,
      "Gorbachev": 5737,
      "Garbis": 5738,
      "Gallery": 5739,
      "Grenada": 5740,
      "Golden": 5741,
      "Giovanni": 5742,
      "Growth": 5743,
      "Hirosh": 5744,
      "Herbert": 5745,
      "Halstead": 5746,
      "Holocaust": 5747,
      "Howard": 5748,
      "Hulton": 5749,
      "Hemisphere": 5750,
      "Hawaii": 5751,
      "Hernando": 5752,
      "HISTOR": 5753,
      "Holiday": 5754,
      "Ida": 5755,
      "Irish": 5756,
      "Illinois": 5757,
      "Ireland": 5758,
      "Idealism": 5759,
      "Jersey": 5760,
      "Jacques": 5761,
      "Jews": 5762,
      "Kosciusko": 5763,
      "Krongard": 5764,
      "Louisiana": 5765,
      "Lewis": 5766,
      "Lusitania": 5767,
      "Laws": 5768,
      "London": 5769,
      "Lightning": 5770,
      "Loyalists": 5771,
      "Museum": 5772,
      "Mediterranean": 5773,
      "Mesa": 5774,
      "Managing": 5775,
      "Malcol": 5776,
      "Miles": 5777,
      "Mulberry": 5778,
      "Moscow": 5779,
      "Moderates": 5780,
      "Masterfi": 5781,
      "Millions": 5782,
      "Maggie": 5783,
      "Michael": 5784,
      "Mildred": 5785,
      "Machines": 5786,
      "Meadows": 5787,
      "Memorial": 5788,
      "NeelyWrit": 5789,
      "NASA": 5790,
      "Nighthorse": 5791,
      "Nagasak": 5792,
      "Naval": 5793,
      "Netherlands": 5794,
      "NATO": 5795,
      "Ohio": 5796,
      "Opponents": 5797,
      "Oregon": 5798,
      "Ponce": 5799,
      "Portugues": 5800,
      "Patrick": 5801,
      "Pentagon": 5802,
      "Pictures": 5803,
      "Pilgri": 5804,
      "Presley": 5805,
      "Potomac": 5806,
      "Pearl": 5807,
      "Portrait": 5808,
      "PROGRA": 5809,
      "Ruins": 5810,
      "Rhode": 5811,
      "Ronald": 5812,
      "Radical": 5813,
      "Reverend": 5814,
      "Relief": 5815,
      "Railroad": 5816,
      "Rushmore": 5817,
      "Seven": 5818,
      "Smithson": 5819,
      "STATE": 5820,
      "Senate": 5821,
      "Since": 5822,
      "Saratog": 5823,
      "Solá": 5824,
      "Silverstein": 5825,
      "Samuel": 5826,
      "Sherman": 5827,
      "Slave": 5828,
      "Settlement": 5829,
      "Sinclair": 5830,
      "Surely": 5831,
      "Sullivan": 5832,
      "Scots": 5833,
      "Sliker": 5834,
      "Taft": 5835,
      "Territory": 5836,
      "Tarbell": 5837,
      "Treatise": 5838,
      "Turkey": 5839,
      "Today": 5840,
      "Upton": 5841,
      "Ulyss": 5842,
      "Vázqu": 5843,
      "Vespuc": 5844,
      "Venice": 5845,
      "Valley": 5846,
      "Various": 5847,
      "Ventura": 5848,
      "Versaill": 5849,
      "Writers": 5850,
      "Zedong": 5851,
      "Zuni": 5852,
      "ahead": 5853,
      "arose": 5854,
      "automobile": 5855,
      "aimed": 5856,
      "aristocratic": 5857,
      "boom": 5858,
      "banking": 5859,
      "barrier": 5860,
      "bicentenn": 5861,
      "bilateral": 5862,
      "burdens": 5863,
      "brief": 5864,
      "bulb": 5865,
      "bayonets": 5866,
      "branches": 5867,
      "breathe": 5868,
      "ballots": 5869,
      "boycott": 5870,
      "circuit": 5871,
      "copies": 5872,
      "cosmopol": 5873,
      "cabinet": 5874,
      "customs": 5875,
      "crystall": 5876,
      "crossed": 5877,
      "dynamic": 5878,
      "dangerous": 5879,
      "duty": 5880,
      "dubbed": 5881,
      "dissolved": 5882,
      "dumped": 5883,
      "densely": 5884,
      "daughter": 5885,
      "eyes": 5886,
      "ethnic": 5887,
      "eighth": 5888,
      "erosion": 5889,
      "eliminated": 5890,
      "faith": 5891,
      "fertile": 5892,
      "future": 5893,
      "fully": 5894,
      "fragile": 5895,
      "fountain": 5896,
      "gateway": 5897,
      "giving": 5898,
      "http": 5899,
      "honest": 5900,
      "hinted": 5901,
      "hatreds": 5902,
      "homelands": 5903,
      "higher": 5904,
      "hurried": 5905,
      "hastening": 5906,
      "hills": 5907,
      "humans": 5908,
      "haven": 5909,
      "hereditary": 5910,
      "hugging": 5911,
      "irrevoc": 5912,
      "justices": 5913,
      "keep": 5914,
      "kilomet": 5915,
      "luxury": 5916,
      "liner": 5917,
      "licenses": 5918,
      "locked": 5919,
      "loyalty": 5920,
      "literature": 5921,
      "mythical": 5922,
      "minute": 5923,
      "marched": 5924,
      "momentum": 5925,
      "migration": 5926,
      "multicultural": 5927,
      "maybe": 5928,
      "members": 5929,
      "massive": 5930,
      "missions": 5931,
      "milder": 5932,
      "mounds": 5933,
      "machinery": 5934,
      "mapped": 5935,
      "marching": 5936,
      "mechanical": 5937,
      "nerous": 5938,
      "narrow": 5939,
      "nominated": 5940,
      "named": 5941,
      "nuclear": 5942,
      "numbers": 5943,
      "ower": 5944,
      "oceans": 5945,
      "oriented": 5946,
      "pyram": 5947,
      "persecution": 5948,
      "pushed": 5949,
      "publisher": 5950,
      "phenomenal": 5951,
      "pamphl": 5952,
      "picking": 5953,
      "pushin": 5954,
      "raised": 5955,
      "routed": 5956,
      "romise": 5957,
      "rethin": 5958,
      "rigidly": 5959,
      "ruled": 5960,
      "rallied": 5961,
      "ragists": 5962,
      "rsuasiv": 5963,
      "routes": 5964,
      "ranchers": 5965,
      "sank": 5966,
      "situation": 5967,
      "soli": 5968,
      "single": 5969,
      "semicol": 5970,
      "sustained": 5971,
      "summer": 5972,
      "savings": 5973,
      "sailors": 5974,
      "sentiment": 5975,
      "solidarity": 5976,
      "sneaked": 5977,
      "segregat": 5978,
      "talks": 5979,
      "tangible": 5980,
      "usinfo": 5981,
      "uttering": 5982,
      "vanished": 5983,
      "vigorously": 5984,
      "vandalism": 5985,
      "vowed": 5986,
      "wield": 5987,
      "worse": 5988,
      "witnessed": 5989,
      "welcoming": 5990,
      "widely": 5991,
      "wounded": 5992,
      "wrongly": 5993,
      "youth": 5994,
      "##ciliation": 5995,
      "##lmed": 5996,
      "##modation": 5997,
      "##NATIONAL": 5998,
      "##DUCTION": 5999,
      "##WORD": 6000,
      "initiated": 6001,
      "inadequate": 6002,
      "intimidated": 6003,
      "inevitably": 6004,
      "innovation": 6005,
      "tobacco": 6006,
      "totalitarian": 6007,
      "##etorships": 6008,
      "threshers": 6009,
      "thrive": 6010,
      "forgotten": 6011,
      "##lyphics": 6012,
      "reestablishing": 6013,
      "required": 6014,
      "reformers": 6015,
      "replaced": 6016,
      "reworks": 6017,
      "retirement": 6018,
      "conduct": 6019,
      "consumer": 6020,
      "conventions": 6021,
      "conference": 6022,
      "consequences": 6023,
      "deposits": 6024,
      "depleted": 6025,
      "deferred": 6026,
      "procedures": 6027,
      "prohibited": 6028,
      "problems": 6029,
      "professional": 6030,
      "proprietorships": 6031,
      "Connecticut": 6032,
      "alternatives": 6033,
      "stricter": 6034,
      "staggering": 6035,
      "students": 6036,
      "stretched": 6037,
      "steady": 6038,
      "animals": 6039,
      "ancestors": 6040,
      "Inventors": 6041,
      "Instructional": 6042,
      "Intolerable": 6043,
      "imported": 6044,
      "newcomers": 6045,
      "unquestionably": 6046,
      "unreasonable": 6047,
      "uncomfortable": 6048,
      "unlike": 6049,
      "uniforms": 6050,
      "unhappy": 6051,
      "uninterrupted": 6052,
      "unanimity": 6053,
      "Norwegians": 6054,
      "enforced": 6055,
      "engineered": 6056,
      "enumerate": 6057,
      "entanglements": 6058,
      "engagement": 6059,
      "neighboring": 6060,
      "eclipsed": 6061,
      "shackles": 6062,
      "Newfoundland": 6063,
      "advantage": 6064,
      "indispensable": 6065,
      "headquarters": 6066,
      "integrity": 6067,
      "intended": 6068,
      "intentioned": 6069,
      "landowners": 6070,
      "alliance": 6071,
      "parliaments": 6072,
      "paratroopers": 6073,
      "display": 6074,
      "disabled": 6075,
      "disappointing": 6076,
      "discovered": 6077,
      "disperse": 6078,
      "disintegrating": 6079,
      "optimistic": 6080,
      "overwhelmed": 6081,
      "attentio": 6082,
      "accepted": 6083,
      "acceptable": 6084,
      "accommodation": 6085,
      "acknowledged": 6086,
      "mobilizing": 6087,
      "reservations": 6088,
      "superior": 6089,
      "supremacy": 6090,
      "Thaddeus": 6091,
      "ammunition": 6092,
      "amphibious": 6093,
      "interconnected": 6094,
      "Arkansas": 6095,
      "Chappel": 6096,
      "Chinese": 6097,
      "Christopher": 6098,
      "Christine": 6099,
      "Chávez": 6100,
      "Chrysler": 6101,
      "preliminary": 6102,
      "contradiction": 6103,
      "abrupt": 6104,
      "abundant": 6105,
      "symbol": 6106,
      "regarded": 6107,
      "commemorating": 6108,
      "Immigrants": 6109,
      "deliberation": 6110,
      "redcoats": 6111,
      "recruitment": 6112,
      "sovereignty": 6113,
      "reminded": 6114,
      "Ancient": 6115,
      "Annapolis": 6116,
      "Properties": 6117,
      "Protection": 6118,
      "outlining": 6119,
      "surrounded": 6120,
      "imperialism": 6121,
      "Committee": 6122,
      "Alaska": 6123,
      "clothing": 6124,
      "desegregating": 6125,
      "20combine": 6126,
      "knowledgeable": 6127,
      "sparked": 6128,
      "airlift": 6129,
      "pronouncement": 6130,
      "subjects": 6131,
      "subsidies": 6132,
      "subjugated": 6133,
      "consolidation": 6134,
      "conscript": 6135,
      "methods": 6136,
      "10Relations": 6137,
      "Caribbean": 6138,
      "Hispanic": 6139,
      "obscure": 6140,
      "turbulent": 6141,
      "valleys": 6142,
      "refriger": 6143,
      "extraordinary": 6144,
      "encroachment": 6145,
      "INTERNATIONAL": 6146,
      "INTRODUCTION": 6147,
      "INFORMATION": 6148,
      "Montreal": 6149,
      "apprehension": 6150,
      "skyline": 6151,
      "characterized": 6152,
      "39cattle": 6153,
      "AFTERWORD": 6154,
      "Brandywine": 6155,
      "Exhibition": 6156,
      "Junípero": 6157,
      "grievances": 6158,
      "journey": 6159,
      "journalist": 6160,
      "philosophy": 6161,
      "sinkhole": 6162,
      "television": 6163,
      "telecommunications": 6164,
      "stockpiling": 6165,
      "discrimination": 6166,
      "12stamps": 6167,
      "36reconciliation": 6168,
      "59Johnson": 6169,
      "Hohokam": 6170,
      "Hopewellians": 6171,
      "Lafayette": 6172,
      "Sharpsburg": 6173,
      "Verrazano": 6174,
      "dramatically": 6175,
      "functioning": 6176,
      "hieroglyphics": 6177,
      "shareholders": 6178,
      "29support": 6179,
      "311812": 6180,
      "43political": 6181,
      "42preserve": 6182,
      "Academy": 6183,
      "Aeronautics": 6184,
      "Arizona": 6185,
      "BRIEFUSA": 6186,
      "BUREAU": 6187,
      "Bolshevik": 6188,
      "Capistrano": 6189,
      "DEPARTMENT": 6190,
      "Doctrine": 6191,
      "Emancipation": 6192,
      "Garbisch": 6193,
      "Hiroshima": 6194,
      "HISTORY": 6195,
      "Malcolm": 6196,
      "NeelyWriter": 6197,
      "Nagasaki": 6198,
      "Portuguese": 6199,
      "Pilgrims": 6200,
      "PROGRAMS": 6201,
      "Smithsonian": 6202,
      "Saratoga": 6203,
      "Ulysses": 6204,
      "Vázquez": 6205,
      "Vespucci": 6206,
      "Versailles": 6207,
      "bicentennial": 6208,
      "burdensome": 6209,
      "cosmopolitan": 6210,
      "crystallize": 6211,
      "irrevocably": 6212,
      "kilometers": 6213,
      "pyramids": 6214,
      "pamphlet": 6215,
      "rethinking": 6216,
      "rsuasively": 6217,
      "semicolons": 6218
    }
  }
}