<unk>	0
<s>	0
</s>	0
▁t	-0
he	-1
▁a	-2
in	-3
er	-4
on	-5
▁the	-6
ed	-7
es	-8
en	-9
at	-10
or	-11
an	-12
▁w	-13
▁o	-14
it	-15
▁s	-16
nd	-17
▁c	-18
al	-19
▁f	-20
▁of	-21
▁p	-22
ar	-23
▁in	-24
▁and	-25
ion	-26
re	-27
ic	-28
▁b	-29
is	-30
ent	-31
ro	-32
▁to	-33
as	-34
▁d	-35
▁A	-36
▁T	-37
ing	-38
ou	-39
▁m	-40
▁n	-41
▁S	-42
le	-43
ol	-44
st	-45
▁e	-46
▁h	-47
▁g	-48
▁The	-49
▁C	-50
▁1	-51
il	-52
om	-53
▁l	-54
ad	-55
ation	-56
et	-57
res	-58
ver	-59
▁th	-60
ut	-61
ec	-62
ly	-63
ve	-64
id	-65
▁I	-66
ce	-67
mer	-68
ment	-69
▁for	-70
▁re	-71
ts	-72
▁U	-73
▁r	-74
ain	-75
ig	-76
▁B	-77
ac	-78
tat	-79
▁was	-80
ur	-81
meric	-82
am	-83
▁P	-84
th	-85
▁Americ	-86
ir	-87
ies	-88
im	-89
▁de	-90
▁on	-91
se	-92
ere	-93
▁M	-94
and	-95
tates	-96
▁were	-97
▁N	-98
▁Un	-99
ot	-100
▁W	-101
ter	-102
▁con	-103
op	-104
her	-105
▁as	-106
▁be	-107
▁pro	-108
ans	-109
ow	-110
▁that	-111
▁G	-112
ew	-113
▁R	-114
oc	-115
▁F	-116
ted	-117
ld	-118
ers	-119
▁fi	-120
un	-121
▁E	-122
ited	-123
us	-124
ul	-125
▁L	-126
end	-127
rom	-128
▁it	-129
iv	-130
ith	-131
▁United	-132
el	-133
ge	-134
tr	-135
rit	-136
▁D	-137
ear	-138
▁wh	-139
▁States	-140
ct	-141
pp	-142
over	-143
▁had	-144
▁J	-145
▁Con	-146
▁with	-147
ia	-148
ost	-149
▁al	-150
▁ex	-151
▁v	-152
▁19	-153
ep	-154
▁y	-155
▁by	-156
00	-157
ay	-158
▁H	-159
▁at	-160
overn	-161
▁—	-162
igh	-163
▁an	-164
ther	-165
▁from	-166
ial	-167
ress	-168
em	-169
ish	-170
ive	-171
▁col	-172
ff	-173
ity	-174
overnment	-175
▁pol	-176
▁Brit	-177
ap	-178
ch	-179
ate	-180
ical	-181
▁nation	-182
ution	-183
ore	-184
▁their	-185
ber	-186
ill	-187
▁he	-188
▁su	-189
iz	-190
ork	-191
▁com	-192
▁Americans	-193
▁government	-194
ess	-195
est	-196
▁ag	-197
▁le	-198
▁st	-199
reat	-200
▁colon	-201
ab	-202
os	-203
ist	-204
ould	-205
▁but	-206
resid	-207
gh	-208
if	-209
od	-210
rou	-211
▁17	-212
la	-213
all	-214
ong	-215
our	-216
ran	-217
▁18	-218
▁In	-219
▁im	-220
▁or	-221
▁tr	-222
ence	-223
▁exp	-224
▁cont	-225
resident	-226
ie	-227
ip	-228
ary	-229
ett	-230
iss	-231
▁ar	-232
▁ch	-233
▁They	-234
pe	-235
▁2	-236
ome	-237
▁un	-238
ears	-239
▁new	-240
qu	-241
man	-242
ous	-243
ust	-244
▁It	-245
▁American	-246
ame	-247
ton	-248
▁Nor	-249
ag	-250
ign	-251
▁ne	-252
▁pe	-253
▁not	-254
▁war	-255
▁would	-256
▁3	-257
▁Y	-258
oun	-259
ions	-260
vent	-261
▁righ	-262
▁they	-263
▁years	-264
▁O	-265
▁sh	-266
ated	-267
▁Sou	-268
▁states	-269
aw	-270
▁V	-271
art	-272
ast	-273
con	-274
▁bec	-275
▁polit	-276
▁u	-277
▁“	-278
ide	-279
ort	-280
ure	-281
▁ad	-282
▁ind	-283
▁rst	-284
gress	-285
▁British	-286
ack	-287
ant	-288
enc	-289
iet	-290
ved	-291
eral	-292
orld	-293
rope	-294
stit	-295
▁res	-296
▁who	-297
▁America	-298
stitution	-299
▁(	-300
any	-301
▁Eu	-302
▁New	-303
▁Europe	-304
▁political	-305
bl	-306
ave	-307
hed	-308
ict	-309
▁pl	-310
▁dec	-311
▁dis	-312
▁int	-313
▁Union	-314
▁again	-315
fl	-316
ass	-317
ting	-318
▁its	-319
▁str	-320
epend	-321
ib	-322
uc	-323
▁is	-324
ilit	-325
land	-326
ough	-327
▁all	-328
ments	-329
▁land	-330
▁sett	-331
▁other	-332
▁contin	-333
▁against	-334
▁5	-335
eor	-336
hen	-337
ose	-338
ree	-339
ual	-340
▁en	-341
▁War	-342
▁dem	-343
▁imp	-344
thern	-345
▁Geor	-346
▁North	-347
▁colonies	-348
ak	-349
ade	-350
ied	-351
ime	-352
ubl	-353
ult	-354
vel	-355
fter	-356
conom	-357
▁Fran	-358
▁most	-359
▁over	-360
ependence	-361
▁national	-362
▁President	-363
av	-364
cl	-365
hn	-366
▁©	-367
gin	-368
ich	-369
ism	-370
▁ro	-371
ists	-372
ower	-373
▁eff	-374
▁his	-375
▁led	-376
ublic	-377
▁comp	-378
▁more	-379
▁peop	-380
ington	-381
▁econom	-382
▁rights	-383
▁Britain	-384
ft	-385
ru	-386
ue	-387
▁4	-388
▁j	-389
▁k	-390
ces	-391
gan	-392
ild	-393
inc	-394
ine	-395
▁Th	-396
▁am	-397
▁gh	-398
▁mo	-399
ever	-400
ious	-401
ized	-402
reed	-403
ural	-404
▁are	-405
▁def	-406
▁sla	-407
erman	-408
▁cent	-409
▁into	-410
▁many	-411
▁inter	-412
▁people	-413
▁Congress	-414
▁Constitution	-415
).	-416
ud	-417
we	-418
ace	-419
ice	-420
ifi	-421
les	-422
lor	-423
old	-424
ood	-425
orm	-426
ric	-427
row	-428
son	-429
vol	-430
▁Ar	-431
▁Le	-432
▁Com	-433
▁end	-434
▁pre	-435
▁soc	-436
ction	-437
▁York	-438
▁been	-439
▁chan	-440
▁grou	-441
▁have	-442
ations	-443
resent	-444
▁South	-445
▁after	-446
ry	-447
um	-448
wo	-449
000	-450
ach	-451
act	-452
att	-453
enn	-454
ens	-455
lie	-456
ohn	-457
▁Re	-458
▁Ro	-459
▁ab	-460
▁di	-461
▁sy	-462
ages	-463
ater	-464
iber	-465
ound	-466
▁Ind	-467
▁att	-468
▁law	-469
▁reg	-470
▁ter	-471
▁supp	-472
▁belie	-473
▁group	-474
▁milit	-475
▁power	-476
▁these	-477
▁president	-478
ty	-479
▁K	-480
acy	-481
amp	-482
ash	-483
ect	-484
ell	-485
ian	-486
leg	-487
ocr	-488
ory	-489
per	-490
ued	-491
urr	-492
ury	-493
van	-494
▁Ch	-495
▁ed	-496
▁er	-497
▁pr	-498
arly	-499
etwe	-500
ided	-501
ives	-502
osed	-503
tern	-504
▁bas	-505
▁leg	-506
▁rep	-507
ative	-508
▁John	-509
▁Wash	-510
▁comm	-511
▁work	-512
etween	-513
▁world	-514
ational	-515
volution	-516
▁Washington	-517
fi	-518
ced	-519
lar	-520
out	-521
▁At	-522
▁Im	-523
▁Sp	-524
▁co	-525
▁se	-526
ains	-527
clud	-528
very	-529
▁Col	-530
▁arm	-531
▁ele	-532
▁lar	-533
▁vot	-534
irgin	-535
rough	-536
uring	-537
▁part	-538
▁sign	-539
▁stat	-540
▁them	-541
▁when	-542
eneral	-543
owever	-544
reedom	-545
▁polic	-546
▁George	-547
▁between	-548
▁economic	-549
lp	-550
og	-551
oy	-552
ph	-553
pt	-554
te	-555
ail	-556
ard	-557
min	-558
one	-559
ors	-560
own	-561
▁Ph	-562
▁bu	-563
▁me	-564
▁ow	-565
▁qu	-566
,000	-567
ates	-568
cess	-569
ered	-570
ivil	-571
nder	-572
roop	-573
stem	-574
▁186	-575
▁And	-576
▁Jap	-577
▁far	-578
▁imm	-579
▁iss	-580
▁one	-581
▁opp	-582
▁two	-583
ained	-584
ected	-585
ished	-586
ought	-587
▁batt	-588
▁came	-589
▁grow	-590
▁help	-591
▁mill	-592
▁prod	-593
▁prot	-594
▁time	-595
▁devel	-596
irginia	-597
▁France	-598
▁German	-599
▁Images	-600
▁became	-601
▁democr	-602
▁includ	-603
▁strong	-604
▁system	-605
▁freedom	-606
▁Southern	-607
▁Virginia	-608
ks	-609
ov	-610
so	-611
ug	-612
abl	-613
app	-614
are	-615
eri	-616
fed	-617
ile	-618
ize	-619
lin	-620
ons	-621
ren	-622
rol	-623
▁fl	-624
▁so	-625
ians	-626
opul	-627
ourt	-628
used	-629
vers	-630
▁178	-631
▁ide	-632
▁out	-633
▁red	-634
▁rem	-635
feder	-636
roops	-637
ually	-638
▁Comm	-639
▁Penn	-640
▁coun	-641
▁lead	-642
▁move	-643
▁prov	-644
▁what	-645
estern	-646
▁Japan	-647
▁World	-648
▁deleg	-649
▁great	-650
▁peace	-651
▁popul	-652
▁right	-653
▁which	-654
▁forces	-655
▁produc	-656
▁settle	-657
▁troops	-658
▁develop	-659
▁through	-660
▁Confeder	-661
▁military	-662
1,	-663
50	-664
ra	-665
yl	-666
age	-667
elf	-668
erv	-669
ite	-670
ond	-671
ord	-672
ral	-673
rem	-674
rew	-675
▁13	-676
▁Af	-677
▁Al	-678
▁An	-679
▁As	-680
▁He	-681
▁ac	-682
▁br	-683
▁es	-684
▁fr	-685
able	-686
ance	-687
ests	-688
form	-689
▁177	-690
▁Dec	-691
▁Pro	-692
▁act	-693
▁des	-694
▁equ	-695
▁men	-696
▁own	-697
▁pos	-698
▁sec	-699
▁too	-700
ember	-701
ental	-702
ition	-703
ories	-704
▁Miss	-705
▁Phil	-706
▁also	-707
▁defe	-708
▁than	-709
ederal	-710
establ	-711
▁Afric	-712
▁early	-713
▁found	-714
▁large	-715
▁liber	-716
▁state	-717
▁trade	-718
▁become	-719
▁control	-720
▁delegates	-721
▁democracy	-722
▁represent	-723
OC	-724
pr	-725
up	-726
▁6	-727
ark	-728
ept	-729
ges	-730
ise	-731
isl	-732
led	-733
oln	-734
red	-735
syl	-736
ven	-737
▁Ad	-738
▁De	-739
▁cl	-740
▁gr	-741
adel	-742
ades	-743
amil	-744
ands	-745
cted	-746
eded	-747
ency	-748
ents	-749
fore	-750
imes	-751
mers	-752
ocal	-753
omas	-754
phia	-755
reas	-756
reme	-757
▁Sov	-758
▁dep	-759
▁has	-760
▁mon	-761
▁nor	-762
▁rel	-763
vania	-764
▁Linc	-765
▁call	-766
▁main	-767
▁equal	-768
▁event	-769
▁organ	-770
▁there	-771
▁under	-772
ultural	-773
▁Soviet	-774
▁establ	-775
▁legisl	-776
▁policy	-777
adelphia	-778
sylvania	-779
▁Lincoln	-780
▁decades	-781
▁however	-782
▁leaders	-783
▁prevent	-784
▁process	-785
▁slavery	-786
▁believed	-787
▁Independence	-788
▁Pennsylvania	-789
▁Philadelphia	-790
▁independence	-791
-1	-792
20	-793
5.	-794
ax	-795
pl	-796
ams	-797
com	-798
ffi	-799
low	-800
oin	-801
orn	-802
ten	-803
ves	-804
▁20	-805
▁AP	-806
▁By	-807
▁En	-808
▁bl	-809
▁em	-810
▁gu	-811
▁kn	-812
cept	-813
here	-814
ight	-815
ived	-816
most	-817
ored	-818
oung	-819
ures	-820
▁194	-821
▁LOC	-822
▁Mar	-823
▁Rep	-824
▁Yet	-825
▁arr	-826
▁ass	-827
▁div	-828
▁nav	-829
▁rec	-830
▁ser	-831
▁tax	-832
anded	-833
ities	-834
reaty	-835
▁Sept	-836
▁Some	-837
▁cons	-838
▁four	-839
▁just	-840
▁left	-841
▁long	-842
▁orts	-843
▁pass	-844
▁plan	-845
▁surr	-846
▁vict	-847
▁Court	-848
▁along	-849
▁immig	-850
▁three	-851
ression	-852
▁Thomas	-853
▁change	-854
▁countr	-855
▁during	-856
▁ghting	-857
▁indust	-858
▁public	-859
▁social	-860
▁societ	-861
▁African	-862
▁century	-863
▁surrend	-864
▁National	-865
▁movement	-866
▁September	-867
▁developed	-868
▁interests	-869
▁Revolution	-870
▁settlement	-871
▁established	-872
au	-873
ci	-874
io	-875
ke	-876
ti	-877
xt	-878
▁”	-879
ays	-880
ert	-881
ful	-882
ged	-883
gia	-884
hes	-885
hor	-886
ief	-887
ife	-888
ilt	-889
ipp	-890
ips	-891
oth	-892
ues	-893
ull	-894
urg	-895
▁15	-896
▁16	-897
▁II	-898
▁St	-899
▁ce	-900
▁sp	-901
▁te	-902
▁we	-903
eign	-904
etts	-905
etty	-906
istr	-907
lant	-908
omen	-909
sper	-910
usin	-911
velt	-912
▁Act	-913
▁Dep	-914
▁Min	-915
▁Sec	-916
▁add	-917
▁air	-918
▁any	-919
▁aut	-920
▁deb	-921
▁met	-922
▁per	-923
▁rat	-924
▁reb	-925
▁sub	-926
▁won	-927
achus	-928
ander	-929
anish	-930
ather	-931
ctive	-932
enter	-933
ially	-934
ional	-935
orted	-936
other	-937
round	-938
▁Mass	-939
▁form	-940
▁grew	-941
▁infl	-942
▁meas	-943
▁near	-944
▁only	-945
▁some	-946
▁this	-947
▁vote	-948
atives	-949
jected	-950
lantic	-951
ration	-952
romise	-953
▁Civil	-954
▁Great	-955
▁Roose	-956
▁about	-957
▁amend	-958
▁began	-959
▁built	-960
▁coast	-961
▁force	-962
▁later	-963
▁never	-964
▁those	-965
▁young	-966
▁Commun	-967
▁Declar	-968
▁Native	-969
▁attack	-970
▁before	-971
▁defeat	-972
▁groups	-973
▁territ	-974
▁Georgia	-975
▁Germany	-976
▁Johnson	-977
▁Spanish	-978
▁general	-979
▁growing	-980
▁society	-981
achusetts	-982
▁Atlantic	-983
▁Roosevelt	-984
▁colonists	-985
▁continued	-986
▁organized	-987
▁constitution	-988
▁Massachusetts	-989
0,	-990
2,	-991
ms	-992
ob	-993
sp	-994
ss	-995
The	-996
air	-997
aly	-998
arb	-999
day	-1000
dle	-1001
eff	-1002
emp	-1003
got	-1004
ick	-1005
ida	-1006
lex	-1007
ock	-1008
the	-1009
tin	-1010
tle	-1011
uce	-1012
ush	-1013
▁Ed	-1014
▁On	-1015
▁Tr	-1016
▁hu	-1017
▁no	-1018
▁sm	-1019
▁vi	-1020
abor	-1021
aced	-1022
aded	-1023
ante	-1024
atic	-1025
ayed	-1026
ened	-1027
ense	-1028
erve	-1029
ible	-1030
ison	-1031
ivid	-1032
laim	-1033
lers	-1034
outh	-1035
pril	-1036
rect	-1037
road	-1038
stru	-1039
▁176	-1040
▁193	-1041
▁Par	-1042
▁Sup	-1043
▁app	-1044
▁did	-1045
▁era	-1046
▁ers	-1047
▁fol	-1048
▁get	-1049
▁ict	-1050
▁inc	-1051
▁ins	-1052
▁inv	-1053
▁nat	-1054
▁now	-1055
▁par	-1056
▁ref	-1057
▁set	-1058
▁wan	-1059
▁yet	-1060
iddle	-1061
iving	-1062
oston	-1063
rants	-1064
▁City	-1065
▁Flor	-1066
▁Jeff	-1067
▁Kore	-1068
▁army	-1069
▁back	-1070
▁even	-1071
▁free	-1072
▁guar	-1073
▁hist	-1074
▁king	-1075
▁life	-1076
▁next	-1077
▁offi	-1078
▁poss	-1079
▁post	-1080
▁pres	-1081
▁role	-1082
▁self	-1083
▁sold	-1084
▁such	-1085
▁took	-1086
ilding	-1087
ulture	-1088
▁April	-1089
▁based	-1090
▁claim	-1091
▁confl	-1092
▁decis	-1093
▁erson	-1094
▁issue	-1095
▁known	-1096
▁labor	-1097
▁lands	-1098
▁maint	-1099
▁often	-1100
▁regul	-1101
▁small	-1102
▁taxes	-1103
▁where	-1104
▁women	-1105
ilities	-1106
ividual	-1107
sperity	-1108
usiness	-1109
vention	-1110
▁almost	-1111
▁attemp	-1112
▁author	-1113
▁battle	-1114
▁called	-1115
▁experi	-1116
▁explor	-1117
▁follow	-1118
▁fought	-1119
▁needed	-1120
▁ratifi	-1121
▁signed	-1122
▁wanted	-1123
tinental	-1124
▁Federal	-1125
▁Florida	-1126
▁General	-1127
▁Supreme	-1128
▁battles	-1129
▁central	-1130
▁farmers	-1131
▁foreign	-1132
▁million	-1133
▁nations	-1134
▁natural	-1135
▁thought	-1136
▁western	-1137
struction	-1138
▁Republic	-1139
▁guarante	-1140
▁measures	-1141
▁produced	-1142
▁provided	-1143
▁settlers	-1144
▁Europeans	-1145
▁countries	-1146
▁including	-1147
▁supported	-1148
▁eventually	-1149
▁individual	-1150
▁revolution	-1151
▁Confederate	-1152
▁Declaration	-1153
.”	-1154
5,	-1155
6.	-1156
OR	-1157
aj	-1158
sh	-1159
▁9	-1160
aid	-1161
ake	-1162
als	-1163
elt	-1164
ger	-1165
hip	-1166
ico	-1167
ier	-1168
ley	-1169
nam	-1170
ocu	-1171
ool	-1172
oto	-1173
ove	-1174
pec	-1175
pon	-1176
put	-1177
ret	-1178
sem	-1179
uch	-1180
umb	-1181
uss	-1182
▁30	-1183
▁Is	-1184
▁Ju	-1185
▁go	-1186
▁ob	-1187
ajor	-1188
ause	-1189
bert	-1190
cean	-1191
epar	-1192
goti	-1193
iers	-1194
ised	-1195
iver	-1196
klin	-1197
ning	-1198
omet	-1199
opol	-1200
ploy	-1201
ters	-1202
▁100	-1203
▁181	-1204
▁191	-1205
▁196	-1206
▁Eng	-1207
▁For	-1208
▁His	-1209
▁Jam	-1210
▁cor	-1211
▁enc	-1212
▁esc	-1213
▁ght	-1214
▁hop	-1215
▁lim	-1216
▁nal	-1217
▁ord	-1218
▁tow	-1219
▁tur	-1220
▁use	-1221
▁val	-1222
▁way	-1223
ached	-1224
alism	-1225
eared	-1226
ences	-1227
eriod	-1228
ether	-1229
ility	-1230
incip	-1231
ittle	-1232
lands	-1233
lared	-1234
rench	-1235
thers	-1236
urity	-1237
▁1787	-1238
▁1920	-1239
▁Alex	-1240
▁Arch	-1241
▁Asia	-1242
▁Comp	-1243
▁Deal	-1244
▁From	-1245
▁Left	-1246
▁Many	-1247
▁Most	-1248
▁West	-1249
▁adop	-1250
▁diff	-1251
▁docu	-1252
▁educ	-1253
▁fact	-1254
▁felt	-1255
▁good	-1256
▁laws	-1257
▁prop	-1258
▁rail	-1259
▁said	-1260
▁star	-1261
▁trib	-1262
▁used	-1263
▁vers	-1264
ildren	-1265
ission	-1266
itions	-1267
ressed	-1268
▁Adams	-1269
▁Colle	-1270
▁Hamil	-1271
▁Italy	-1272
▁Spain	-1273
▁Their	-1274
▁These	-1275
▁agric	-1276
▁areas	-1277
▁civil	-1278
▁could	-1279
▁espec	-1280
▁local	-1281
▁major	-1282
▁north	-1283
▁relig	-1284
▁resol	-1285
▁restr	-1286
▁separ	-1287
▁south	-1288
▁still	-1289
▁while	-1290
ization	-1291
ministr	-1292
ousands	-1293
▁Boston	-1294
▁French	-1295
▁Others	-1296
▁debate	-1297
▁disapp	-1298
▁enough	-1299
▁except	-1300
▁govern	-1301
▁negoti	-1302
▁others	-1303
▁passed	-1304
▁perman	-1305
▁slaves	-1306
▁treaty	-1307
▁worked	-1308
▁Mississ	-1309
▁Western	-1310
▁another	-1311
▁arrived	-1312
▁because	-1313
▁divided	-1314
▁economy	-1315
▁elected	-1316
▁liberty	-1317
▁opposed	-1318
▁popular	-1319
▁European	-1320
▁Franklin	-1321
▁Hamilton	-1322
▁attempts	-1323
▁business	-1324
▁colonial	-1325
▁declared	-1326
▁included	-1327
▁industry	-1328
▁millions	-1329
▁Alexander	-1330
▁Communist	-1331
▁following	-1332
▁permanent	-1333
▁especially	-1334
▁immigrants	-1335
▁population	-1336
▁prosperity	-1337
▁Continental	-1338
▁represented	-1339
▁territories	-1340
3.	-1341
8:	-1342
9.	-1343
90	-1344
AT	-1345
IO	-1346
cc	-1347
co	-1348
ea	-1349
gr	-1350
ll	-1351
my	-1352
ps	-1353
su	-1354
ub	-1355
ada	-1356
ait	-1357
alf	-1358
ann	-1359
aph	-1360
aps	-1361
ask	-1362
ath	-1363
ead	-1364
ern	-1365
iam	-1366
ics	-1367
ift	-1368
ior	-1369
its	-1370
ogr	-1371
ped	-1372
por	-1373
raw	-1374
sel	-1375
ths	-1376
tic	-1377
ugg	-1378
voc	-1379
war	-1380
yal	-1381
▁10	-1382
▁14	-1383
▁Ab	-1384
▁Cl	-1385
▁IN	-1386
▁aw	-1387
▁ca	-1388
▁do	-1389
▁gl	-1390
▁lo	-1391
▁op	-1392
▁sk	-1393
▁up	-1394
▁ve	-1395
aign	-1396
alif	-1397
alth	-1398
amin	-1399
anks	-1400
aper	-1401
arch	-1402
burg	-1403
cent	-1404
ched	-1405
econ	-1406
emen	-1407
enry	-1408
icts	-1409
iefl	-1410
imin	-1411
ippi	-1412
ired	-1413
lace	-1414
lect	-1415
ness	-1416
olog	-1417
oral	-1418
ount	-1419
ouri	-1420
rant	-1421
ross	-1422
ving	-1423
ways	-1424
▁200	-1425
▁Aug	-1426
▁Ben	-1427
▁Can	-1428
▁Far	-1429
▁Inc	-1430
▁Its	-1431
▁Lee	-1432
▁Mon	-1433
▁Pac	-1434
▁Pol	-1435
▁Res	-1436
▁Soc	-1437
▁Ste	-1438
▁Wil	-1439
▁aid	-1440
▁arg	-1441
▁cap	-1442
▁car	-1443
▁ext	-1444
▁fac	-1445
▁fav	-1446
▁har	-1447
▁man	-1448
▁occ	-1449
▁our	-1450
▁pun	-1451
▁saw	-1452
▁sch	-1453
▁sci	-1454
▁suc	-1455
▁tog	-1456
Getty	-1457
acted	-1458
ating	-1459
enced	-1460
ening	-1461
erved	-1462
ivism	-1463
ornia	-1464
ortun	-1465
putes	-1466
tered	-1467
umber	-1468
▁Army	-1469
▁Bill	-1470
▁Bush	-1471
▁Cent	-1472
▁King	-1473
▁Mary	-1474
▁Pain	-1475
▁This	-1476
▁Viet	-1477
▁Will	-1478
▁attr	-1479
▁both	-1480
▁camp	-1481
▁char	-1482
▁cost	-1483
▁disc	-1484
▁done	-1485
▁full	-1486
▁half	-1487
▁hold	-1488
▁host	-1489
▁idea	-1490
▁isol	-1491
▁last	-1492
▁made	-1493
▁much	-1494
▁prim	-1495
▁real	-1496
▁sent	-1497
▁stop	-1498
▁terr	-1499
▁then	-1500
▁will	-1501
▁year	-1502
ansion	-1503
ervice	-1504
iberty	-1505
isions	-1506
ograph	-1507
ources	-1508
ticles	-1509
utemen	-1510
▁Calif	-1511
▁Colon	-1512
▁Henry	-1513
▁James	-1514
▁Paris	-1515
▁River	-1516
▁Trade	-1517
▁begin	-1518
▁being	-1519
▁black	-1520
▁bring	-1521
▁distr	-1522
▁ended	-1523
▁impro	-1524
▁newly	-1525
▁newsp	-1526
▁press	-1527
▁quick	-1528
▁somet	-1529
▁terms	-1530
▁uence	-1531
▁water	-1532
▁white	-1533
reasing	-1534
reasury	-1535
▁August	-1536
▁Pacifi	-1537
▁Robert	-1538
▁Social	-1539
▁Wilson	-1540
▁around	-1541
▁belief	-1542
▁chiefl	-1543
▁commer	-1544
▁commit	-1545
▁common	-1546
▁compet	-1547
▁direct	-1548
▁ective	-1549
▁former	-1550
▁gather	-1551
▁issued	-1552
▁living	-1553
▁partic	-1554
▁period	-1555
▁played	-1556
▁remain	-1557
▁school	-1558
▁secret	-1559
▁threat	-1560
▁versus	-1561
ological	-1562
▁However	-1563
▁Indians	-1564
▁Vietnam	-1565
▁William	-1566
▁changes	-1567
▁favored	-1568
▁greater	-1569
▁history	-1570
▁postwar	-1571
▁princip	-1572
▁protest	-1573
▁reached	-1574
▁refused	-1575
▁support	-1576
▁Archives	-1577
▁Maryland	-1578
▁Missouri	-1579
▁Northern	-1580
▁Security	-1581
▁building	-1582
▁campaign	-1583
▁election	-1584
▁expanded	-1585
▁northern	-1586
▁opportun	-1587
▁policies	-1588
▁possible	-1589
▁progress	-1590
▁rejected	-1591
▁soldiers	-1592
▁together	-1593
government	-1594
▁Minutemen	-1595
▁gathering	-1596
▁generally	-1597
▁guarantee	-1598
▁religious	-1599
▁sometimes	-1600
▁surrender	-1601
▁thousands	-1602
▁California	-1603
▁Depression	-1604
▁Republican	-1605
▁compromise	-1606
▁convention	-1607
▁facilities	-1608
▁increasing	-1609
▁throughout	-1610
ministration	-1611
▁Mississippi	-1612
▁continental	-1613
▁legislation	-1614
▁surrendered	-1615
econstruction	-1616
▁revolutionary	-1617
▁constitutional	-1618
1.	-1619
4.	-1620
4:	-1621
70	-1622
8,	-1623
80	-1624
Ar	-1625
IS	-1626
ao	-1627
az	-1628
be	-1629
ck	-1630
de	-1631
ex	-1632
fr	-1633
go	-1634
ik	-1635
ix	-1636
ok	-1637
sc	-1638
-19	-1639
ION	-1640
New	-1641
ale	-1642
ase	-1643
asy	-1644
azi	-1645
ban	-1646
bin	-1647
cto	-1648
cts	-1649
ene	-1650
eng	-1651
ery	-1652
ese	-1653
esp	-1654
esy	-1655
gar	-1656
ham	-1657
ike	-1658
ina	-1659
ipl	-1660
ird	-1661
ire	-1662
leb	-1663
lia	-1664
lyn	-1665
oci	-1666
ode	-1667
omb	-1668
ots	-1669
ott	-1670
reg	-1671
see	-1672
til	-1673
uck	-1674
uel	-1675
une	-1676
vir	-1677
▁1,	-1678
▁21	-1679
▁23	-1680
▁35	-1681
▁39	-1682
▁Br	-1683
▁Di	-1684
▁Ex	-1685
▁Fr	-1686
▁Sl	-1687
▁Wh	-1688
▁cr	-1689
▁ee	-1690
▁ge	-1691
▁il	-1692
▁ph	-1693
▁rm	-1694
▁sc	-1695
▁sw	-1696
▁tw	-1697
▁ty	-1698
ably	-1699
adly	-1700
aled	-1701
anes	-1702
arth	-1703
ases	-1704
chie	-1705
draw	-1706
echn	-1707
ects	-1708
ecut	-1709
erra	-1710
hers	-1711
ials	-1712
iana	-1713
idge	-1714
iend	-1715
ince	-1716
irit	-1717
itiz	-1718
king	-1719
obal	-1720
olid	-1721
onti	-1722
orks	-1723
raft	-1724
reak	-1725
rest	-1726
ries	-1727
rist	-1728
rupt	-1729
semb	-1730
time	-1731
urch	-1732
ured	-1733
uses	-1734
uted	-1735
west	-1736
▁11,	-1737
▁17,	-1738
▁192	-1739
▁195	-1740
▁300	-1741
▁Car	-1742
▁Cor	-1743
▁Gre	-1744
▁Lex	-1745
▁May	-1746
▁Mex	-1747
▁Reg	-1748
▁Tru	-1749
▁age	-1750
▁ago	-1751
▁amb	-1752
▁art	-1753
▁bal	-1754
▁big	-1755
▁cot	-1756
▁day	-1757
▁den	-1758
▁det	-1759
▁dev	-1760
▁dom	-1761
▁emb	-1762
▁ens	-1763
▁ess	-1764
▁foc	-1765
▁fur	-1766
▁inf	-1767
▁las	-1768
▁ort	-1769
▁pow	-1770
▁spe	-1771
▁sur	-1772
▁unf	-1773
▁var	-1774
acked	-1775
akers	-1776
allen	-1777
apers	-1778
apons	-1779
arbor	-1780
archy	-1781
asons	-1782
ately	-1783
ature	-1784
earch	-1785
ennes	-1786
estic	-1787
ights	-1788
igned	-1789
illed	-1790
iplom	-1791
isted	-1792
ivers	-1793
jamin	-1794
legal	-1795
ordin	-1796
ponse	-1797
pport	-1798
raham	-1799
rated	-1800
riter	-1801
shall	-1802
urban	-1803
vious	-1804
viron	-1805
▁1890	-1806
▁1950	-1807
▁1960	-1808
▁Bell	-1809
▁Clay	-1810
▁Figh	-1811
▁Hall	-1812
▁July	-1813
▁Just	-1814
▁Octo	-1815
▁Russ	-1816
▁Stat	-1817
▁When	-1818
▁Wood	-1819
▁area	-1820
▁base	-1821
▁bene	-1822
▁bomb	-1823
▁bord	-1824
▁care	-1825
▁city	-1826
▁coll	-1827
▁cond	-1828
▁cour	-1829
▁deal	-1830
▁dist	-1831
▁down	-1832
▁east	-1833
▁easy	-1834
▁emer	-1835
▁fail	-1836
▁fair	-1837
▁fell	-1838
▁gave	-1839
▁happ	-1840
▁high	-1841
▁home	-1842
▁huge	-1843
▁jour	-1844
▁late	-1845
▁mark	-1846
▁navy	-1847
▁need	-1848
▁nine	-1849
▁poll	-1850
▁port	-1851
▁rock	-1852
▁same	-1853
▁ship	-1854
▁soil	-1855
▁subm	-1856
▁take	-1857
▁task	-1858
▁tele	-1859
▁tens	-1860
▁trad	-1861
▁vast	-1862
▁view	-1863
▁viol	-1864
▁welf	-1865
▁well	-1866
▁went	-1867
Americ	-1868
aining	-1869
anding	-1870
binson	-1871
ceeded	-1872
ential	-1873
ertain	-1874
everal	-1875
ically	-1876
itting	-1877
nessed	-1878
orious	-1879
ormous	-1880
ployed	-1881
tering	-1882
though	-1883
▁1775.	-1884
▁1787.	-1885
▁After	-1886
▁Elect	-1887
▁Korea	-1888
▁Ocean	-1889
▁Stamp	-1890
▁There	-1891
▁Under	-1892
▁achie	-1893
▁advoc	-1894
▁among	-1895
▁break	-1896
▁capit	-1897
▁celeb	-1898
▁chief	-1899
▁citiz	-1900
▁colle	-1901
▁court	-1902
▁creat	-1903
▁diver	-1904
▁enter	-1905
▁erent	-1906
▁escap	-1907
▁exped	-1908
▁famil	-1909
▁legal	-1910
▁lives	-1911
▁mater	-1912
▁mount	-1913
▁nally	-1914
▁occup	-1915
▁purch	-1916
▁royal	-1917
▁seize	-1918
▁ships	-1919
▁short	-1920
▁slave	-1921
▁techn	-1922
▁trans	-1923
▁treat	-1924
▁tried	-1925
▁union	-1926
▁until	-1927
▁voted	-1928
ability	-1929
artment	-1930
culture	-1931
ecutive	-1932
eration	-1933
istance	-1934
opolies	-1935
urrency	-1936
▁Canada	-1937
▁Center	-1938
▁Columb	-1939
▁Edison	-1940
▁Island	-1941
▁Mexico	-1942
▁Middle	-1943
▁Rights	-1944
▁Second	-1945
▁Tennes	-1946
▁Treaty	-1947
▁Truman	-1948
▁across	-1949
▁agreed	-1950
▁always	-1951
▁argued	-1952
▁armies	-1953
▁associ	-1954
▁cities	-1955
▁cotton	-1956
▁defend	-1957
▁diplom	-1958
▁expect	-1959
▁forced	-1960
▁formed	-1961
▁friend	-1962
▁fronti	-1963
▁gained	-1964
▁global	-1965
▁headed	-1966
▁helped	-1967
▁import	-1968
▁landed	-1969
▁lasted	-1970
▁little	-1971
▁middle	-1972
▁months	-1973
▁number	-1974
▁powers	-1975
▁preced	-1976
▁punish	-1977
▁reduce	-1978
▁reform	-1979
▁region	-1980
▁scient	-1981
▁series	-1982
▁spirit	-1983
▁status	-1984
▁streng	-1985
▁strugg	-1986
▁terror	-1987
▁tribal	-1988
▁values	-1989
American	-1990
ependent	-1991
ographic	-1992
reements	-1993
▁Central	-1994
▁College	-1995
▁England	-1996
▁Liberty	-1997
▁Nations	-1998
▁October	-1999
▁adopted	-2000
▁attacks	-2001
▁challen	-2002
▁counter	-2003
▁emerged	-2004
▁equally	-2005
▁erences	-2006
▁federal	-2007
▁founded	-2008
▁further	-2009
▁illegal	-2010
▁imposed	-2011
▁justice	-2012
▁liberal	-2013
▁limited	-2014
▁mission	-2015
▁present	-2016
▁protect	-2017
▁quickly	-2018
▁reasons	-2019
▁schools	-2020
▁settled	-2021
▁started	-2022
▁stopped	-2023
▁victory	-2024
▁weapons	-2025
▁welfare	-2026
▁working	-2027
formation	-2028
ustration	-2029
vironment	-2030
▁Articles	-2031
▁Benjamin	-2032
▁Courtesy	-2033
▁Fighting	-2034
▁Progress	-2035
▁Robinson	-2036
▁children	-2037
▁citizens	-2038
▁commerce	-2039
▁continue	-2040
▁cultural	-2041
▁decision	-2042
▁defeated	-2043
▁demanded	-2044
▁designed	-2045
▁directly	-2046
▁disputes	-2047
▁document	-2048
▁domestic	-2049
▁enormous	-2050
▁majority	-2051
▁particip	-2052
▁peaceful	-2053
▁preserve	-2054
▁products	-2055
▁proposed	-2056
▁railroad	-2057
▁remained	-2058
▁republic	-2059
▁resolved	-2060
▁response	-2061
▁withdraw	-2062
▁Electoral	-2063
▁Lexington	-2064
▁Tennessee	-2065
▁addressed	-2066
▁advocated	-2067
▁amendment	-2068
▁authority	-2069
▁continent	-2070
▁divisions	-2071
▁education	-2072
▁factories	-2073
▁isolation	-2074
▁newspaper	-2075
▁relations	-2076
▁succeeded	-2077
▁Department	-2078
▁amendments	-2079
▁expedition	-2080
▁industries	-2081
▁leadership	-2082
▁threatened	-2083
▁demographic	-2084
▁disappeared	-2085
▁experienced	-2086
▁exploration	-2087
▁legislative	-2088
▁opportunity	-2089
▁settlements	-2090
▁agricultural	-2091
▁increasingly	-2092
▁presidential	-2093
▁Administration	-2094
▁Reconstruction	-2095
),	-2096
);	-2097
,”	-2098
-6	-2099
.,	-2100
..	-2101
0-	-2102
17	-2103
18	-2104
1:	-2105
2.	-2106
3,	-2107
38	-2108
5:	-2109
6,	-2110
8.	-2111
9,	-2112
AF	-2113
Ch	-2114
ER	-2115
IR	-2116
Ph	-2117
RO	-2118
SA	-2119
TV	-2120
ah	-2121
by	-2122
cC	-2123
cr	-2124
eg	-2125
ey	-2126
fo	-2127
ih	-2128
sv	-2129
uf	-2130
wh	-2131
ww	-2132
▁,	-2133
▁7	-2134
▁8	-2135
-70	-2136
AFP	-2137
Art	-2138
BIS	-2139
COR	-2140
IRC	-2141
NAT	-2142
TER	-2143
ado	-2144
ads	-2145
ady	-2146
ama	-2147
ang	-2148
ano	-2149
bac	-2150
bed	-2151
boy	-2152
cis	-2153
cks	-2154
ece	-2155
ech	-2156
edi	-2157
eel	-2158
els	-2159
era	-2160
ets	-2161
etw	-2162
fer	-2163
for	-2164
hev	-2165
hib	-2166
ibr	-2167
ily	-2168
ima	-2169
ins	-2170
iou	-2171
irt	-2172
isp	-2173
joy	-2174
lew	-2175
mit	-2176
mun	-2177
ned	-2178
obs	-2179
ogn	-2180
ona	-2181
oor	-2182
ows	-2183
ram	-2184
rig	-2185
roe	-2186
sla	-2187
tal	-2188
tee	-2189
try	-2190
uba	-2191
und	-2192
ung	-2193
uts	-2194
vid	-2195
vis	-2196
wed	-2197
ynd	-2198
▁12	-2199
▁27	-2200
▁36	-2201
▁37	-2202
▁38	-2203
▁44	-2204
▁46	-2205
▁50	-2206
▁55	-2207
▁59	-2208
▁60	-2209
▁62	-2210
▁Be	-2211
▁Er	-2212
▁Ho	-2213
▁Jr	-2214
▁OF	-2215
▁Pl	-2216
▁Pr	-2217
▁Pu	-2218
▁Sc	-2219
▁Sh	-2220
▁Su	-2221
▁US	-2222
▁ci	-2223
▁if	-2224
▁la	-2225
▁pi	-2226
▁sl	-2227
▁ts	-2228
▁ye	-2229
Chih	-2230
ador	-2231
agan	-2232
aged	-2233
ague	-2234
aked	-2235
amew	-2236
andy	-2237
apes	-2238
arry	-2239
arty	-2240
ball	-2241
bled	-2242
cCle	-2243
ches	-2244
clam	-2245
clus	-2246
edit	-2247
emed	-2248
emor	-2249
erly	-2250
erto	-2251
fron	-2252
gest	-2253
haps	-2254
hist	-2255
hood	-2256
iani	-2257
ices	-2258
ichm	-2259
ides	-2260
iest	-2261
iles	-2262
ille	-2263
ines	-2264
ings	-2265
ints	-2266
ioux	-2267
irth	-2268
itan	-2269
itor	-2270
ject	-2271
kans	-2272
lear	-2273
less	-2274
lete	-2275
lied	-2276
lies	-2277
lish	-2278
llan	-2279
llor	-2280
mann	-2281
mber	-2282
noun	-2283
oard	-2284
ocks	-2285
oint	-2286
omic	-2287
oney	-2288
ords	-2289
orse	-2290
ortr	-2291
ouse	-2292
oyal	-2293
pped	-2294
pted	-2295
rand	-2296
rann	-2297
reds	-2298
rees	-2299
rich	-2300
rier	-2301
roke	-2302
rong	-2303
rops	-2304
rote	-2305
self	-2306
serv	-2307
side	-2308
tent	-2309
term	-2310
then	-2311
tiet	-2312
ture	-2313
ucky	-2314
ults	-2315
umer	-2316
unal	-2317
usic	-2318
utch	-2319
wide	-2320
year	-2321
yond	-2322
▁180	-2323
▁183	-2324
▁19,	-2325
▁199	-2326
▁250	-2327
▁Age	-2328
▁All	-2329
▁Ber	-2330
▁But	-2331
▁Cul	-2332
▁Day	-2333
▁Dem	-2334
▁Dis	-2335
▁Don	-2336
▁Hop	-2337
▁Ice	-2338
▁Lut	-2339
▁Mad	-2340
▁Now	-2341
▁One	-2342
▁San	-2343
▁Sav	-2344
▁Tro	-2345
▁Two	-2346
▁Yao	-2347
▁aff	-2348
▁ars	-2349
▁beh	-2350
▁bit	-2351
▁ces	-2352
▁che	-2353
▁cre	-2354
▁del	-2355
▁dou	-2356
▁dro	-2357
▁eld	-2358
▁emp	-2359
▁ent	-2360
▁fam	-2361
▁few	-2362
▁fun	-2363
▁gen	-2364
▁got	-2365
▁gun	-2366
▁ign	-2367
▁jud	-2368
▁mat	-2369
▁mod	-2370
▁nec	-2371
▁oil	-2372
▁pat	-2373
▁pay	-2374
▁put	-2375
▁quo	-2376
▁rac	-2377
▁rad	-2378
▁ric	-2379
▁see	-2380
▁she	-2381
▁sil	-2382
▁six	-2383
▁sup	-2384
▁tea	-2385
▁unw	-2386
▁ver	-2387
▁vis	-2388
▁www	-2389
,000.	-2390
-1980	-2391
Photo	-2392
ackie	-2393
aking	-2394
althy	-2395
ample	-2396
anced	-2397
andid	-2398
anies	-2399
annah	-2400
annot	-2401
antry	-2402
aries	-2403
arily	-2404
arine	-2405
artin	-2406
ashes	-2407
asion	-2408
attle	-2409
blies	-2410
chers	-2411
ellyn	-2412
ensus	-2413
erial	-2414
ermin	-2415
ested	-2416
etter	-2417
ettys	-2418
found	-2419
gence	-2420
gency	-2421
grams	-2422
icted	-2423
ighth	-2424
inley	-2425
itive	-2426
izing	-2427
limin	-2428
lowly	-2429
minis	-2430
odore	-2431
oined	-2432
olish	-2433
oring	-2434
orses	-2435
osing	-2436
ottom	-2437
ounty	-2438
owboy	-2439
owled	-2440
redit	-2441
scale	-2442
stead	-2443
stood	-2444
suffi	-2445
ueled	-2446
ufact	-2447
ument	-2448
yndon	-2449
▁1500	-2450
▁1700	-2451
▁1764	-2452
▁1765	-2453
▁1800	-2454
▁1850	-2455
▁1860	-2456
▁1930	-2457
▁1948	-2458
▁Arts	-2459
▁Aust	-2460
▁Bett	-2461
▁Both	-2462
▁Bull	-2463
▁Clin	-2464
▁Cold	-2465
▁Cred	-2466
▁Cuba	-2467
▁Desp	-2468
▁Diff	-2469
▁East	-2470
▁Even	-2471
▁Farm	-2472
▁Fine	-2473
▁Glor	-2474
▁Hist	-2475
▁Juan	-2476
▁June	-2477
▁Kent	-2478
▁Less	-2479
▁Libr	-2480
▁Llew	-2481
▁More	-2482
▁Nazi	-2483
▁Norm	-2484
▁Nove	-2485
▁Offi	-2486
▁Only	-2487
▁Over	-2488
▁Park	-2489
▁Rico	-2490
▁Swed	-2491
▁Tama	-2492
▁With	-2493
▁acts	-2494
▁ames	-2495
▁anti	-2496
▁bold	-2497
▁clim	-2498
▁conc	-2499
▁coop	-2500
▁cult	-2501
▁died	-2502
▁each	-2503
▁ects	-2504
▁expl	-2505
▁fall	-2506
▁farm	-2507
▁game	-2508
▁give	-2509
▁grad	-2510
▁grip	-2511
▁hard	-2512
▁held	-2513
▁here	-2514
▁hope	-2515
▁hous	-2516
▁icts	-2517
▁inst	-2518
▁jobs	-2519
▁lawm	-2520
▁line	-2521
▁lost	-2522
▁make	-2523
▁netw	-2524
▁once	-2525
▁open	-2526
▁pain	-2527
▁pict	-2528
▁play	-2529
▁prom	-2530
▁race	-2531
▁rebu	-2532
▁rece	-2533
▁refl	-2534
▁repe	-2535
▁resp	-2536
▁rest	-2537
▁reve	-2538
▁shot	-2539
▁shut	-2540
▁size	-2541
▁subj	-2542
▁suff	-2543
▁type	-2544
▁unea	-2545
▁unem	-2546
▁vill	-2547
▁virt	-2548
▁ways	-2549
▁weak	-2550
▁west	-2551
▁whom	-2552
▁wide	-2553
CORBIS	-2554
aching	-2555
aiting	-2556
astern	-2557
ellion	-2558
ensifi	-2559
essary	-2560
estion	-2561
histor	-2562
ibuted	-2563
icalpr	-2564
iction	-2565
inated	-2566
ipping	-2567
itical	-2568
lement	-2569
llorsv	-2570
nected	-2571
ointed	-2572
overed	-2573
quered	-2574
remely	-2575
riters	-2576
rought	-2577
selves	-2578
sembly	-2579
tation	-2580
terior	-2581
tietam	-2582
uction	-2583
urring	-2584
vement	-2585
verted	-2586
▁1860,	-2587
▁1862,	-2588
▁1865,	-2589
▁1944.	-2590
▁Above	-2591
▁Carol	-2592
▁China	-2593
▁Confl	-2594
▁Dutch	-2595
▁Fried	-2596
▁Grant	-2597
▁Harry	-2598
▁Mario	-2599
▁McCle	-2600
▁Norse	-2601
▁Paine	-2602
▁Party	-2603
▁Photo	-2604
▁Richm	-2605
▁Serra	-2606
▁Sioux	-2607
▁Slide	-2608
▁Those	-2609
▁While	-2610
▁Works	-2611
▁Years	-2612
▁adopt	-2613
▁advan	-2614
▁alike	-2615
▁assem	-2616
▁banks	-2617
▁basic	-2618
▁basis	-2619
▁block	-2620
▁blood	-2621
▁broad	-2622
▁broke	-2623
▁calls	-2624
▁cargo	-2625
▁contr	-2626
▁costs	-2627
▁crops	-2628
▁diffi	-2629
▁ected	-2630
▁elect	-2631
▁enjoy	-2632
▁every	-2633
▁exist	-2634
▁fears	-2635
▁focus	-2636
▁gains	-2637
▁goals	-2638
▁goods	-2639
▁grain	-2640
▁grown	-2641
▁hands	-2642
▁hired	-2643
▁hoped	-2644
▁house	-2645
▁human	-2646
▁ideas	-2647
▁image	-2648
▁incon	-2649
▁invol	-2650
▁journ	-2651
▁loose	-2652
▁money	-2653
▁moved	-2654
▁music	-2655
▁naval	-2656
▁ocean	-2657
▁order	-2658
▁parts	-2659
▁place	-2660
▁plant	-2661
▁pract	-2662
▁quite	-2663
▁ready	-2664
▁rural	-2665
▁share	-2666
▁shots	-2667
▁signs	-2668
▁since	-2669
▁steel	-2670
▁sworn	-2671
▁theor	-2672
▁third	-2673
▁times	-2674
▁today	-2675
▁trave	-2676
▁trees	-2677
▁truce	-2678
▁twice	-2679
▁urban	-2680
▁vocal	-2681
▁whose	-2682
▁words	-2683
▁wrote	-2684
agement	-2685
amework	-2686
arkable	-2687
assador	-2688
clusive	-2689
ermined	-2690
essions	-2691
iversal	-2692
lements	-2693
liament	-2694
minated	-2695
nounced	-2696
ortrait	-2697
overnor	-2698
ressing	-2699
ressive	-2700
urgency	-2701
vidence	-2702
viously	-2703
▁Almost	-2704
▁Before	-2705
▁Berlin	-2706
▁Chance	-2707
▁Christ	-2708
▁Cities	-2709
▁Culver	-2710
▁During	-2711
▁Editor	-2712
▁Gettys	-2713
▁Greece	-2714
▁Jackie	-2715
▁Korean	-2716
▁League	-2717
▁Luther	-2718
▁Lyndon	-2719
▁Martin	-2720
▁Monroe	-2721
▁Northe	-2722
▁Plains	-2723
▁Poland	-2724
▁Puerto	-2725
▁Reform	-2726
▁Russia	-2727
▁Statue	-2728
▁active	-2729
▁benefi	-2730
▁beyond	-2731
▁bitter	-2732
▁border	-2733
▁bottom	-2734
▁bridge	-2735
▁candid	-2736
▁cannot	-2737
▁cation	-2738
▁chance	-2739
▁charge	-2740
▁checks	-2741
▁cially	-2742
▁claims	-2743
▁colony	-2744
▁coming	-2745
▁corpor	-2746
▁courts	-2747
▁credit	-2748
▁deadly	-2749
▁demand	-2750
▁denied	-2751
▁depart	-2752
▁desper	-2753
▁encour	-2754
▁ensure	-2755
▁events	-2756
▁failed	-2757
▁famous	-2758
▁feared	-2759
▁fourth	-2760
▁fueled	-2761
▁ghters	-2762
▁growth	-2763
▁harbor	-2764
▁histor	-2765
▁horses	-2766
▁immedi	-2767
▁income	-2768
▁intern	-2769
▁invent	-2770
▁issues	-2771
▁itself	-2772
▁joined	-2773
▁market	-2774
▁mostly	-2775
▁moving	-2776
▁native	-2777
▁navies	-2778
▁nearby	-2779
▁permit	-2780
▁placed	-2781
▁plains	-2782
▁presid	-2783
▁propos	-2784
▁proved	-2785
▁rebels	-2786
▁recogn	-2787
▁search	-2788
▁seemed	-2789
▁seized	-2790
▁should	-2791
▁slowly	-2792
▁stance	-2793
▁stocks	-2794
▁supply	-2795
▁toward	-2796
▁towers	-2797
▁tribes	-2798
▁unfair	-2799
▁varied	-2800
▁voting	-2801
▁writer	-2802
National	-2803
ectional	-2804
ications	-2805
ployment	-2806
rannical	-2807
standing	-2808
▁Abraham	-2809
▁Clinton	-2810
▁Conserv	-2811
▁Credits	-2812
▁Despite	-2813
▁Eastman	-2814
▁English	-2815
▁Farmers	-2816
▁Francis	-2817
▁History	-2818
▁Justice	-2819
▁Library	-2820
▁Madison	-2821
▁Proclam	-2822
▁Service	-2823
▁Sitting	-2824
▁Support	-2825
▁Troiani	-2826
▁Woodrow	-2827
▁abolish	-2828
▁actions	-2829
▁adminis	-2830
▁attract	-2831
▁believe	-2832
▁brought	-2833
▁capital	-2834
▁certain	-2835
▁changed	-2836
▁claimed	-2837
▁collaps	-2838
▁concent	-2839
▁concept	-2840
▁confron	-2841
▁conserv	-2842
▁continu	-2843
▁coordin	-2844
▁corrupt	-2845
▁country	-2846
▁created	-2847
▁decided	-2848
▁defense	-2849
▁devised	-2850
▁discuss	-2851
▁distant	-2852
▁doubled	-2853
▁dropped	-2854
▁elderly	-2855
▁enacted	-2856
▁escaped	-2857
▁example	-2858
▁holding	-2859
▁ignored	-2860
▁improve	-2861
▁invaded	-2862
▁islands	-2863
▁largely	-2864
▁largest	-2865
▁network	-2866
▁ordered	-2867
▁patents	-2868
▁percent	-2869
▁perhaps	-2870
▁picture	-2871
▁politic	-2872
▁portion	-2873
▁provide	-2874
▁regimes	-2875
▁service	-2876
▁several	-2877
▁signifi	-2878
▁skilled	-2879
▁strains	-2880
▁workers	-2881
▁Although	-2882
▁Antietam	-2883
▁Assembly	-2884
▁Bettmann	-2885
▁Colonial	-2886
▁Columbus	-2887
▁December	-2888
▁Governor	-2889
▁Interior	-2890
▁Japanese	-2891
▁Kentucky	-2892
▁Marshall	-2893
▁November	-2894
▁Painting	-2895
▁Regional	-2896
▁Richmond	-2897
▁Savannah	-2898
▁Theodore	-2899
▁Treasury	-2900
▁activism	-2901
▁attacked	-2902
▁baseball	-2903
▁colonize	-2904
▁communal	-2905
▁complete	-2906
▁currency	-2907
▁decisive	-2908
▁employed	-2909
▁equality	-2910
▁expected	-2911
▁families	-2912
▁founding	-2913
▁friendly	-2914
▁frontier	-2915
▁imposing	-2916
▁improved	-2917
▁infantry	-2918
▁insisted	-2919
▁invasion	-2920
▁laborers	-2921
▁maintain	-2922
▁manufact	-2923
▁militant	-2924
▁monarchy	-2925
▁objected	-2926
▁ourished	-2927
▁payments	-2928
▁powerful	-2929
▁pressure	-2930
▁programs	-2931
▁protects	-2932
▁provides	-2933
▁purchase	-2934
▁received	-2935
▁regulate	-2936
▁revealed	-2937
▁separate	-2938
▁shipping	-2939
▁strongly	-2940
▁supplies	-2941
▁tensions	-2942
▁treasury	-2943
▁villages	-2944
▁violence	-2945
icalprints	-2946
llorsville	-2947
▁Augustine	-2948
▁Colonists	-2949
▁Communism	-2950
▁Llewellyn	-2951
▁McClellan	-2952
▁Represent	-2953
▁announced	-2954
▁appointed	-2955
▁attracted	-2956
▁bloodiest	-2957
▁candidate	-2958
▁collected	-2959
▁companies	-2960
▁documents	-2961
▁essential	-2962
▁executive	-2963
▁existence	-2964
▁expansion	-2965
▁explorers	-2966
▁expressed	-2967
▁extremely	-2968
▁formation	-2969
▁framework	-2970
▁governors	-2971
▁gradually	-2972
▁happening	-2973
▁harnessed	-2974
▁important	-2975
▁intensifi	-2976
▁lawmakers	-2977
▁materials	-2978
▁mountains	-2979
▁naturally	-2980
▁necessary	-2981
▁positions	-2982
▁precedent	-2983
▁presented	-2984
▁preserved	-2985
▁prevented	-2986
▁primarily	-2987
▁principal	-2988
▁producing	-2989
▁railroads	-2990
▁rebellion	-2991
▁resources	-2992
▁secretary	-2993
▁stability	-2994
▁statehood	-2995
▁submarine	-2996
▁treatment	-2997
▁universal	-2998
▁victories	-2999
vironmental	-3000
▁Collection	-3001
▁Compromise	-3002
▁Gettysburg	-3003
▁Government	-3004
▁Parliament	-3005
▁Southerner	-3006
▁agreements	-3007
▁ambassador	-3008
▁assemblies	-3009
▁assistance	-3010
▁authorized	-3011
▁challenges	-3012
▁conditions	-3013
▁democratic	-3014
▁depression	-3015
▁determined	-3016
▁diplomatic	-3017
▁divergence	-3018
▁foundation	-3019
▁guarantees	-3020
▁insurgency	-3021
▁maintained	-3022
▁monopolies	-3023
▁negotiated	-3024
▁occupation	-3025
▁oppressive	-3026
▁previously	-3027
▁principles	-3028
▁punishment	-3029
▁regulation	-3030
▁remarkable	-3031
▁represents	-3032
▁restricted	-3033
▁separation	-3034
▁strengthen	-3035
▁themselves	-3036
▁understood	-3037
▁victorious	-3038
▁Confederacy	-3039
▁Federalists	-3040
▁Northerners	-3041
▁Progressive	-3042
▁Republicans	-3043
▁Southerners	-3044
▁association	-3045
▁competition	-3046
▁cooperation	-3047
▁departments	-3048
▁desperately	-3049
▁distributed	-3050
▁hostilities	-3051
▁ideological	-3052
▁immigration	-3053
▁independent	-3054
▁legislature	-3055
▁politically	-3056
▁Proclamation	-3057
▁concentrated	-3058
▁inconclusive	-3059
▁isolationism	-3060
▁negotiations	-3061
▁Confederation	-3062
▁Environmental	-3063
▁international	-3064
▁manufacturing	-3065
▁nationalities	-3066
▁technological	-3067
▁counterculture	-3068
historicalprints	-3069
▁Representatives	-3070
▁representatives	-3071
,©	-3072
-8	-3073
.5	-3074
.;	-3075
//	-3076
12	-3077
33	-3078
39	-3079
3:	-3080
4,	-3081
5)	-3082
60	-3083
61	-3084
69	-3085
72	-3086
7:	-3087
88	-3088
98	-3089
AL	-3090
AM	-3091
AR	-3092
AU	-3093
An	-3094
By	-3095
CT	-3096
DU	-3097
EF	-3098
EN	-3099
--	-3100
EP	-3101
Ed	-3102
FO	-3103
GR	-3104
Mt	-3105
NA	-3106
Pl	-3107
RE	-3108
RI	-3109
Re	-3110
Ro	-3111
Sp	-3112
St	-3113
TM	-3114
Th	-3115
To	-3116
af	-3117
ai	-3118
bu	-3119
cu	-3120
da	-3121
ee	-3122
ef	-3123
ek	-3124
ev	-3125
ez	-3126
gs	-3127
ho	-3128
hy	-3129
ij	-3130
kn	-3131
ko	-3132
lm	-3133
ls	-3134
mb	-3135
mo	-3136
ne	-3137
ni	-3138
oa	-3139
sl	-3140
to	-3141
tp	-3142
ux	-3143
vy	-3144
wa	-3145
ys	-3146
zo	-3147
▁:	-3148
22,	-3149
3).	-3150
750	-3151
AMS	-3152
Arl	-3153
Des	-3154
FOL	-3155
FOR	-3156
Gor	-3157
Hun	-3158
Ind	-3159
Mar	-3160
Mas	-3161
Pro	-3162
Red	-3163
Rel	-3164
URE	-3165
WOR	-3166
War	-3167
aii	-3168
aki	-3169
alc	-3170
ald	-3171
ank	-3172
arl	-3173
ats	-3174
aux	-3175
bil	-3176
ble	-3177
can	-3178
cip	-3179
cow	-3180
ded	-3181
eal	-3182
ean	-3183
ede	-3184
eds	-3185
edy	-3186
eep	-3187
ein	-3188
enh	-3189
erm	-3190
erp	-3191
esa	-3192
ews	-3193
gie	-3194
gov	-3195
hem	-3196
hle	-3197
hok	-3198
ias	-3199
-89	-3200
://	-3201
aft	-3202
cad	-3203
cil	-3204
gun	-3205
ify	-3206
ims	-3207
ind	-3208
ink	-3209
ipi	-3210
iro	-3211
iti	-3212
itu	-3213
jec	-3214
key	-3215
law	-3216
lit	-3217
men	-3218
nap	-3219
nic	-3220
oic	-3221
ois	-3222
ola	-3223
oli	-3224
olm	-3225
ols	-3226
oms	-3227
ony	-3228
oom	-3229
ope	-3230
ori	-3231
oup	-3232
pac	-3233
pan	-3234
pil	-3235
pol	-3236
rac	-3237
raf	-3238
rag	-3239
rea	-3240
rov	-3241
roy	-3242
sar	-3243
sey	-3244
tol	-3245
tra	-3246
tre	-3247
tru	-3248
uam	-3249
uar	-3250
uct	-3251
ulb	-3252
ule	-3253
use	-3254
ute	-3255
uti	-3256
vez	-3257
whe	-3258
xts	-3259
yes	-3260
▁11	-3261
▁1:	-3262
▁22	-3263
▁26	-3264
▁31	-3265
▁32	-3266
▁4,	-3267
▁45	-3268
▁52	-3269
▁53	-3270
▁54	-3271
▁6,	-3272
▁61	-3273
▁63	-3274
▁7,	-3275
▁86	-3276
▁9,	-3277
▁AF	-3278
▁El	-3279
▁Gl	-3280
▁Il	-3281
▁Oh	-3282
▁Rh	-3283
▁Ru	-3284
▁ST	-3285
▁Se	-3286
▁Sm	-3287
▁Up	-3288
▁da	-3289
▁dy	-3290
▁ec	-3291
▁fa	-3292
▁fo	-3293
▁gy	-3294
▁ht	-3295
▁lm	-3296
▁mm	-3297
▁my	-3298
▁nd	-3299
ids	-3300
igo	-3301
lyW	-3302
mel	-3303
mig	-3304
oga	-3305
sid	-3306
ugh	-3307
ura	-3308
urd	-3309
urn	-3310
uty	-3311
▁(2	-3312
▁33	-3313
▁47	-3314
▁64	-3315
▁Bl	-3316
▁Bo	-3317
▁Ir	-3318
▁py	-3319
▁ra	-3320
▁rd	-3321
▁ti	-3322
▁ut	-3323
-169	-3324
-17:	-3325
1812	-3326
20),	-3327
330-	-3328
50).	-3329
DUCT	-3330
EPAR	-3331
Main	-3332
Most	-3333
TMEN	-3334
Wild	-3335
abin	-3336
abot	-3337
aces	-3338
aill	-3339
amed	-3340
ampb	-3341
amps	-3342
ange	-3343
ants	-3344
appy	-3345
arat	-3346
ased	-3347
aska	-3348
ason	-3349
atin	-3350
aybe	-3351
ayon	-3352
bate	-3353
bean	-3354
bers	-3355
ceas	-3356
cest	-3357
cing	-3358
comb	-3359
cots	-3360
crip	-3361
cuit	-3362
eady	-3363
earl	-3364
eces	-3365
emet	-3366
emic	-3367
enal	-3368
enda	-3369
ends	-3370
erts	-3371
eton	-3372
ette	-3373
eway	-3374
gers	-3375
gine	-3376
ging	-3377
gone	-3378
greg	-3379
head	-3380
heed	-3381
hips	-3382
hlet	-3383
icut	-3384
idly	-3385
igor	-3386
ilat	-3387
ills	-3388
ilms	-3389
imed	-3390
inal	-3391
inas	-3392
iner	-3393
ires	-3394
iser	-3395
ises	-3396
isol	-3397
itar	-3398
ites	-3399
0-4	-3400
08.	-3401
irm	-3402
oca	-3403
oot	-3404
ote	-3405
▁Or	-3406
▁ir	-3407
-65)	-3408
alls	-3409
ando	-3410
anim	-3411
cius	-3412
comm	-3413
evit	-3414
ewis	-3415
icks	-3416
imid	-3417
irst	-3418
ivan	-3419
lark	-3420
lean	-3421
leet	-3422
ling	-3423
mera	-3424
mmer	-3425
more	-3426
ocke	-3427
octr	-3428
oder	-3429
ogly	-3430
olis	-3431
omac	-3432
once	-3433
ones	-3434
orms	-3435
orts	-3436
otas	-3437
otos	-3438
ouis	-3439
owed	-3440
pare	-3441
play	-3442
pres	-3443
ptim	-3444
rang	-3445
reen	-3446
reet	-3447
rity	-3448
rose	-3449
rous	-3450
rule	-3451
rysl	-3452
ryst	-3453
seas	-3454
sequ	-3455
sion	-3456
sses	-3457
thin	-3458
thou	-3459
ties	-3460
tire	-3461
tman	-3462
ucci	-3463
ugar	-3464
umed	-3465
utal	-3466
uter	-3467
utes	-3468
vies	-3469
ward	-3470
were	-3471
wine	-3472
ying	-3473
▁130	-3474
▁15,	-3475
▁182	-3476
▁18:	-3477
▁197	-3478
▁19:	-3479
▁2.5	-3480
▁25:	-3481
▁46:	-3482
▁51:	-3483
▁59:	-3484
▁Aer	-3485
▁Aut	-3486
▁Bal	-3487
▁Bro	-3488
▁Def	-3489
▁Del	-3490
▁Det	-3491
▁Dew	-3492
▁Dod	-3493
▁End	-3494
▁Fla	-3495
▁Gen	-3496
▁HIS	-3497
▁Hal	-3498
▁How	-3499
00,	-3500
500	-3501
LOC	-3502
ael	-3503
bul	-3504
ctr	-3505
iel	-3506
ria	-3507
uni	-3508
▁Dw	-3509
RIEF	-3510
inem	-3511
omel	-3512
onzo	-3513
ppon	-3514
rate	-3515
tect	-3516
uled	-3517
ully	-3518
▁169	-3519
▁Dre	-3520
▁Eis	-3521
▁Hul	-3522
▁Ide	-3523
▁Ire	-3524
▁Iwo	-3525
▁Jac	-3526
▁Jer	-3527
▁Jun	-3528
▁Led	-3529
▁Lus	-3530
▁Man	-3531
▁Mao	-3532
▁Mos	-3533
▁Mul	-3534
▁Nav	-3535
▁Nee	-3536
▁Pat	-3537
▁Pil	-3538
▁Pot	-3539
▁Rad	-3540
▁Red	-3541
▁Rel	-3542
▁Ron	-3543
▁Sam	-3544
▁Sea	-3545
▁Sen	-3546
▁Sil	-3547
▁Sol	-3548
▁Ter	-3549
▁Tur	-3550
▁Uly	-3551
▁Val	-3552
▁Ven	-3553
▁Ver	-3554
▁ady	-3555
▁als	-3556
▁ban	-3557
▁bar	-3558
▁bic	-3559
▁bir	-3560
▁can	-3561
▁cir	-3562
▁cop	-3563
▁cos	-3564
▁cru	-3565
▁cul	-3566
▁dan	-3567
▁dru	-3568
▁dub	-3569
▁ect	-3570
▁eet	-3571
▁eth	-3572
▁fth	-3573
▁fut	-3574
▁gat	-3575
▁hat	-3576
▁hav	-3577
▁her	-3578
▁hig	-3579
▁hij	-3580
▁him	-3581
▁hin	-3582
▁hon	-3583
▁how	-3584
▁ill	-3585
▁inn	-3586
▁ips	-3587
▁lic	-3588
▁low	-3589
▁lux	-3590
▁mar	-3591
▁mel	-3592
▁mid	-3593
▁mig	-3594
▁min	-3595
▁mom	-3596
▁mot	-3597
▁nar	-3598
▁ner	-3599
emy	-3600
way	-3601
Give	-3602
Ital	-3603
apse	-3604
cial	-3605
fess	-3606
ighb	-3607
illo	-3608
isch	-3609
phib	-3610
rive	-3611
ueen	-3612
▁500	-3613
▁Cap	-3614
▁Cib	-3615
▁Hem	-3616
▁Her	-3617
▁Hol	-3618
▁Jay	-3619
▁MTV	-3620
▁Tod	-3621
▁adv	-3622
▁ang	-3623
▁lay	-3624
▁mem	-3625
▁nom	-3626
▁nts	-3627
▁oce	-3628
▁off	-3629
▁ons	-3630
▁ore	-3631
▁ped	-3632
▁pot	-3633
▁pus	-3634
▁rag	-3635
▁ran	-3636
▁raw	-3637
▁rew	-3638
▁rig	-3639
▁rsu	-3640
▁rum	-3641
▁sav	-3642
▁sea	-3643
▁son	-3644
▁tal	-3645
▁ted	-3646
▁top	-3647
▁try	-3648
▁unh	-3649
▁unl	-3650
▁van	-3651
▁von	-3652
▁wel	-3653
▁wit	-3654
88-89	-3655
Cover	-3656
Early	-3657
Earth	-3658
FOLIO	-3659
IONAL	-3660
Maine	-3661
ables	-3662
acter	-3663
ading	-3664
agger	-3665
aggie	-3666
agile	-3667
aints	-3668
alist	-3669
ances	-3670
arity	-3671
asazi	-3672
asive	-3673
astat	-3674
atory	-3675
avior	-3676
awaii	-3677
bacco	-3678
berry	-3679
ctric	-3680
earth	-3681
edies	-3682
egreg	-3683
enans	-3684
ended	-3685
ented	-3686
enton	-3687
entum	-3688
erned	-3689
erran	-3690
erraz	-3691
ersec	-3692
esses	-3693
fered	-3694
ghter	-3695
gians	-3696
heast	-3697
hevik	-3698
iance	-3699
MAT	-3700
ORY	-3701
cos	-3702
hod	-3703
▁56	-3704
1738	-3705
Anse	-3706
TORY	-3707
abel	-3708
atio	-3709
call	-3710
cord	-3711
hods	-3712
hold	-3713
ield	-3714
ilos	-3715
lair	-3716
lave	-3717
▁170	-3718
▁185	-3719
▁187	-3720
▁ood	-3721
atism	-3722
edong	-3723
icals	-3724
icial	-3725
icies	-3726
icter	-3727
iding	-3728
igins	-3729
iment	-3730
inary	-3731
iness	-3732
ingle	-3733
inter	-3734
ioned	-3735
iovan	-3736
irosh	-3737
isher	-3738
isive	-3739
issol	-3740
istic	-3741
ivate	-3742
leted	-3743
local	-3744
mopol	-3745
obile	-3746
ocrat	-3747
odity	-3748
oints	-3749
olden	-3750
onaut	-3751
ondon	-3752
onsib	-3753
opher	-3754
opted	-3755
orado	-3756
orial	-3757
osely	-3758
osion	-3759
ounts	-3760
ously	-3761
pents	-3762
phics	-3763
ports	-3764
ppers	-3765
recon	-3766
redco	-3767
regon	-3768
revoc	-3769
rised	-3770
slave	-3771
space	-3772
state	-3773
stein	-3774
tical	-3775
toler	-3776
ugues	-3777
umans	-3778
unges	-3779
uries	-3780
useum	-3781
ushin	-3782
using	-3783
usual	-3784
utral	-3785
vants	-3786
verse	-3787
versy	-3788
yline	-3789
▁14-1	-3790
▁1600	-3791
▁1790	-3792
▁1820	-3793
▁1898	-3794
▁1914	-3795
▁1954	-3796
▁1969	-3797
▁1980	-3798
▁1992	-3799
aws	-3800
zqu	-3801
▁24	-3802
▁25	-3803
▁28	-3804
▁29	-3805
▁2:	-3806
▁34	-3807
▁3:	-3808
Stan	-3809
adqu	-3810
agas	-3811
agon	-3812
ques	-3813
quis	-3814
uste	-3815
worn	-3816
▁440	-3817
▁Var	-3818
aging	-3819
arthe	-3820
esome	-3821
incts	-3822
onoun	-3823
place	-3824
quate	-3825
riger	-3826
spect	-3827
uster	-3828
vents	-3829
zquez	-3830
▁2000	-3831
▁Also	-3832
▁Amer	-3833
▁Anci	-3834
▁Anti	-3835
▁Ariz	-3836
▁Bigh	-3837
▁Carb	-3838
▁Cart	-3839
▁Cast	-3840
▁Conn	-3841
▁Cree	-3842
▁Eman	-3843
▁Emer	-3844
▁Erik	-3845
▁Form	-3846
▁Gall	-3847
▁Garb	-3848
▁Gate	-3849
▁Germ	-3850
▁Gore	-3851
▁Here	-3852
▁Hung	-3853
▁Iran	-3854
▁Ital	-3855
▁Jima	-3856
▁Laws	-3857
▁Lock	-3858
▁Long	-3859
▁Malc	-3860
▁Mill	-3861
▁Ohio	-3862
▁Orig	-3863
▁Pent	-3864
▁Pict	-3865
▁Post	-3866
▁Pres	-3867
▁Rail	-3868
▁Rome	-3869
▁STAT	-3870
▁Serp	-3871
▁Sett	-3872
▁Sher	-3873
▁Sinc	-3874
▁Slik	-3875
▁Tarb	-3876
▁That	-3877
▁Then	-3878
▁Ther	-3879
▁Time	-3880
▁Vent	-3881
▁Vers	-3882
▁Vesp	-3883
▁What	-3884
▁Work	-3885
▁acce	-3886
▁adap	-3887
▁affi	-3888
▁airl	-3889
▁anim	-3890
▁assa	-3891
▁ated	-3892
▁ator	-3893
▁ball	-3894
▁bran	-3895
▁cant	-3896
▁cast	-3897
▁cial	-3898
▁clan	-3899
▁51	-3900
▁57	-3901
▁58	-3902
▁5:	-3903
ROGR	-3904
Time	-3905
comf	-3906
free	-3907
inte	-3908
moil	-3909
rick	-3910
ried	-3911
▁eng	-3912
▁nuc	-3913
▁uid	-3914
anyon	-3915
ashed	-3916
itime	-3917
liter	-3918
ocide	-3919
odied	-3920
osure	-3921
phone	-3922
rehen	-3923
roval	-3924
scure	-3925
ultic	-3926
urely	-3927
▁1770	-3928
▁BURE	-3929
▁Fort	-3930
▁Free	-3931
▁Mich	-3932
▁Port	-3933
▁Shar	-3934
▁Vict	-3935
▁Wide	-3936
▁able	-3937
▁code	-3938
▁come	-3939
▁core	-3940
▁crit	-3941
▁cust	-3942
▁dead	-3943
▁dent	-3944
▁dest	-3945
▁drag	-3946
▁dram	-3947
▁duty	-3948
▁effi	-3949
▁ever	-3950
▁eyes	-3951
▁fert	-3952
▁fund	-3953
▁gain	-3954
▁gett	-3955
▁glac	-3956
▁goal	-3957
▁guns	-3958
▁hair	-3959
▁hand	-3960
▁hast	-3961
▁hurr	-3962
▁impe	-3963
▁impl	-3964
▁impo	-3965
▁inct	-3966
▁keep	-3967
▁laun	-3968
▁legi	-3969
▁less	-3970
▁lock	-3971
▁mach	-3972
▁mass	-3973
▁mech	-3974
▁mild	-3975
▁miss	-3976
▁monu	-3977
▁myth	-3978
▁name	-3979
▁nity	-3980
▁none	-3981
▁nort	-3982
▁oper	-3983
▁oral	-3984
▁owed	-3985
▁ower	-3986
▁pace	-3987
▁path	-3988
▁phen	-3989
▁pick	-3990
▁plat	-3991
▁poor	-3992
▁pork	-3993
▁publ	-3994
▁rall	-3995
▁requ	-3996
▁ring	-3997
▁road	-3998
▁roll	-3999
20.	-4000
▁40	-4001
▁42	-4002
▁43	-4003
▁48	-4004
▁49	-4005
1861	-4006
John	-4007
afay	-4008
deus	-4009
ruit	-4010
▁000	-4011
▁58:	-4012
▁due	-4013
▁dum	-4014
▁ecl	-4015
▁ice	-4016
▁kil	-4017
▁obt	-4018
-1960	-4019
chief	-4020
ievan	-4021
inery	-4022
laced	-4023
perse	-4024
priet	-4025
roach	-4026
rowth	-4027
ssues	-4028
▁1000	-4029
▁1812	-4030
▁Chin	-4031
▁Leif	-4032
▁Mach	-4033
▁Mild	-4034
▁Thad	-4035
▁defi	-4036
▁food	-4037
▁hier	-4038
▁rich	-4039
▁room	-4040
▁rule	-4041
▁rung	-4042
▁sale	-4043
▁sand	-4044
▁sank	-4045
▁sear	-4046
▁sens	-4047
▁situ	-4048
▁soli	-4049
▁soon	-4050
▁sort	-4051
▁soup	-4052
▁spur	-4053
▁stay	-4054
▁stud	-4055
▁sust	-4056
▁tang	-4057
▁thus	-4058
▁tide	-4059
▁tire	-4060
▁told	-4061
▁tons	-4062
▁town	-4063
▁trip	-4064
▁turn	-4065
▁twin	-4066
▁unhe	-4067
▁unif	-4068
▁unqu	-4069
▁vand	-4070
▁vice	-4071
▁wage	-4072
▁wall	-4073
▁wars	-4074
▁wary	-4075
▁wave	-4076
▁week	-4077
▁wine	-4078
▁wise	-4079
▁wood	-4080
▁wool	-4081
1738-1	-4082
Boston	-4083
Father	-4084
Little	-4085
Reagan	-4086
TERWOR	-4087
Thomas	-4088
abella	-4089
abinet	-4090
ackles	-4091
acting	-4092
ailles	-4093
alated	-4094
aments	-4095
anical	-4096
ardons	-4097
arlier	-4098
artial	-4099
85.	-4100
oyc	-4101
pero	-4102
▁Ida	-4103
▁Kos	-4104
adian	-4105
enses	-4106
ewell	-4107
ounds	-4108
terfi	-4109
▁1672	-4110
▁985.	-4111
▁Batt	-4112
▁boyc	-4113
▁coff	-4114
▁ered	-4115
▁lled	-4116
▁pamp	-4117
▁prin	-4118
▁refi	-4119
▁silk	-4120
action	-4121
arting	-4122
bachev	-4123
cademy	-4124
cement	-4125
cluded	-4126
comers	-4127
coming	-4128
commun	-4129
county	-4130
encies	-4131
encing	-4132
enland	-4133
ennial	-4134
ension	-4135
ensome	-4136
ernice	-4137
erting	-4138
erving	-4139
ession	-4140
gotten	-4141
gregat	-4142
ground	-4143
hority	-4144
iation	-4145
idered	-4146
illing	-4147
integr	-4148
iously	-4149
ipment	-4150
irmish	-4151
ishing	-4152
ispens	-4153
istice	-4154
istocr	-4155
itania	-4156
ithson	-4157
itious	-4158
jector	-4159
lining	-4160
minded	-4161
ocaust	-4162
omenal	-4163
onable	-4164
orched	-4165
otland	-4166
ounded	-4167
owered	-4168
oyalty	-4169
paches	-4170
piling	-4171
psburg	-4172
racial	-4173
rafted	-4174
ramids	-4175
rawing	-4176
reaffi	-4177
reathe	-4178
remacy	-4179
renada	-4180
ritory	-4181
rupted	-4182
semble	-4183
spered	-4184
uakers	-4185
ugging	-4186
ularly	-4187
umbent	-4188
umbers	-4189
undant	-4190
wealth	-4191
▁(1861	-4192
▁1522,	-4193
▁1620.	-4194
▁1690,	-4195
▁1765,	-4196
▁1776,	-4197
▁1783,	-4198
▁1789,	-4199
-15	-4200
-38	-4201
Spin	-4202
ails	-4203
mbol	-4204
roll	-4205
tees	-4206
town	-4207
▁10,	-4208
▁23:	-4209
▁48:	-4210
Holid	-4211
abled	-4212
apped	-4213
appel	-4214
arded	-4215
aware	-4216
erred	-4217
olons	-4218
onded	-4219
osits	-4220
panic	-4221
▁1750	-4222
▁1774	-4223
▁1863	-4224
▁Anth	-4225
▁Ford	-4226
▁Mark	-4227
▁Page	-4228
▁Prod	-4229
▁Self	-4230
▁bird	-4231
▁brid	-4232
▁drew	-4233
▁meat	-4234
▁outd	-4235
▁sail	-4236
▁site	-4237
Design	-4238
MATION	-4239
allize	-4240
antage	-4241
atroop	-4242
commod	-4243
estown	-4244
geable	-4245
gerous	-4246
owners	-4247
ugated	-4248
▁1781,	-4249
▁1819,	-4250
▁1850.	-4251
▁1852,	-4252
▁1861.	-4253
▁1864.	-4254
▁1876.	-4255
▁1921,	-4256
▁1921.	-4257
▁1929.	-4258
▁1932,	-4259
▁1934,	-4260
▁1941,	-4261
▁1945,	-4262
▁1945.	-4263
▁1949.	-4264
▁1951,	-4265
▁1966.	-4266
▁2001,	-4267
▁2001.	-4268
▁5,000	-4269
▁Black	-4270
▁Brook	-4271
▁Cabot	-4272
▁Carib	-4273
▁Chief	-4274
▁Clark	-4275
▁Coron	-4276
▁Doctr	-4277
▁Early	-4278
▁Every	-4279
▁Exhib	-4280
▁Famil	-4281
▁Fleet	-4282
▁Genoa	-4283
▁Glass	-4284
▁INFOR	-4285
▁Immig	-4286
▁Krong	-4287
▁Lewis	-4288
▁Local	-4289
▁Loyal	-4290
▁Medit	-4291
▁Miles	-4292
▁Moder	-4293
▁Mound	-4294
▁Naval	-4295
▁Newly	-4296
▁Norwe	-4297
▁Oppon	-4298
▁Organ	-4299
92,	-4300
▁151	-4301
▁154	-4302
▁III	-4303
▁dau	-4304
▁urg	-4305
arked	-4306
craft	-4307
cript	-4308
eches	-4309
entio	-4310
ipsed	-4311
laves	-4312
rimin	-4313
where	-4314
▁1803	-4315
▁Dick	-4316
▁Life	-4317
▁Sull	-4318
▁dams	-4319
▁text	-4320
RODUCT	-4321
cattle	-4322
eignty	-4323
neaked	-4324
ormers	-4325
othing	-4326
ritten	-4327
rongly	-4328
usinfo	-4329
▁1492,	-4330
▁1513.	-4331
▁1540,	-4332
▁1783.	-4333
▁Light	-4334
▁Pearl	-4335
▁Pilgr	-4336
▁Place	-4337
▁Ponce	-4338
▁Rever	-4339
▁Right	-4340
▁Ruins	-4341
▁Scare	-4342
▁Since	-4343
▁Space	-4344
▁Steff	-4345
▁Steub	-4346
▁Steve	-4347
▁Today	-4348
▁Tower	-4349
▁Trans	-4350
▁Treat	-4351
▁Upton	-4352
▁Vicks	-4353
▁Water	-4354
▁Young	-4355
▁above	-4356
▁actor	-4357
▁added	-4358
▁ahead	-4359
▁airpl	-4360
▁alive	-4361
▁anger	-4362
▁armed	-4363
▁arriv	-4364
▁aside	-4365
▁bayon	-4366
▁birds	-4367
▁brief	-4368
▁build	-4369
▁cance	-4370
▁cases	-4371
▁cease	-4372
▁child	-4373
▁cient	-4374
▁class	-4375
▁color	-4376
▁confi	-4377
▁cover	-4378
▁cross	-4379
▁cruel	-4380
▁death	-4381
▁disag	-4382
▁dynam	-4383
▁earth	-4384
▁eight	-4385
▁embar	-4386
▁embit	-4387
▁exter	-4388
▁forth	-4389
▁fount	-4390
▁freed	-4391
▁ghter	-4392
▁going	-4393
▁grant	-4394
▁grass	-4395
▁guard	-4396
▁haven	-4397
▁heads	-4398
▁homel	-4399
▁93	-4400
▁30,	-4401
▁30:	-4402
▁38:	-4403
▁Exp	-4404
alyst	-4405
stock	-4406
their	-4407
▁1763	-4408
▁1939	-4409
▁Much	-4410
▁Rush	-4411
▁airs	-4412
▁debt	-4413
▁hund	-4414
▁upon	-4415
akened	-4416
center	-4417
ensely	-4418
rector	-4419
rysler	-4420
▁1776.	-4421
▁1786.	-4422
▁1812.	-4423
▁1935.	-4424
▁Betty	-4425
▁Distr	-4426
▁Faced	-4427
▁Lafay	-4428
▁Sense	-4429
▁autom	-4430
▁birth	-4431
▁enfor	-4432
▁faced	-4433
▁hopes	-4434
▁ideal	-4435
▁inade	-4436
▁initi	-4437
▁insec	-4438
▁integ	-4439
▁itish	-4440
▁lanes	-4441
▁least	-4442
▁leave	-4443
▁light	-4444
▁limit	-4445
▁liner	-4446
▁lived	-4447
▁lture	-4448
▁march	-4449
▁maybe	-4450
▁means	-4451
▁meant	-4452
▁might	-4453
▁mills	-4454
▁mobil	-4455
▁model	-4456
▁nance	-4457
▁navig	-4458
▁needs	-4459
▁noted	-4460
▁optim	-4461
▁overb	-4462
▁owned	-4463
▁pains	-4464
▁paper	-4465
▁parks	-4466
▁party	-4467
▁plane	-4468
▁point	-4469
▁polar	-4470
▁prove	-4471
▁quest	-4472
▁quiet	-4473
▁radio	-4474
▁rates	-4475
▁reach	-4476
▁recon	-4477
▁recre	-4478
▁river	-4479
▁round	-4480
▁ruled	-4481
▁sense	-4482
▁serve	-4483
▁shift	-4484
▁shing	-4485
▁shows	-4486
▁sixth	-4487
▁solid	-4488
▁sover	-4489
▁spons	-4490
▁stamp	-4491
▁stand	-4492
▁start	-4493
▁sting	-4494
▁stock	-4495
▁stone	-4496
▁storm	-4497
▁story	-4498
▁stret	-4499
▁8:	-4500
▁9:	-4501
Mead	-4502
leys	-4503
llis	-4504
▁14-	-4505
▁44:	-4506
▁INT	-4507
▁Tea	-4508
▁mix	-4509
enger	-4510
which	-4511
▁1816	-4512
▁1917	-4513
▁Gift	-4514
▁Hern	-4515
▁Soto	-4516
▁away	-4517
▁lift	-4518
▁oath	-4519
17,000	-4520
arters	-4521
iminal	-4522
linois	-4523
orters	-4524
perior	-4525
▁1001,	-4526
▁1773.	-4527
▁1787,	-4528
▁1789.	-4529
▁1819.	-4530
▁1863.	-4531
▁1915.	-4532
▁BRIEF	-4533
▁Clack	-4534
▁Dewey	-4535
▁Ellis	-4536
▁Poles	-4537
▁Royal	-4538
▁Slave	-4539
▁State	-4540
▁arose	-4541
▁loved	-4542
▁scope	-4543
▁stars	-4544
▁sugar	-4545
▁swept	-4546
▁tanks	-4547
▁taxed	-4548
▁tests	-4549
▁texts	-4550
▁thres	-4551
▁threw	-4552
▁tired	-4553
▁total	-4554
▁trial	-4555
▁trips	-4556
▁unfet	-4557
▁value	-4558
▁vigor	-4559
▁votes	-4560
▁wages	-4561
▁wield	-4562
▁youth	-4563
750,000	-4564
Federal	-4565
Holiday	-4566
Johnson	-4567
Meadows	-4568
ROGRAMS	-4569
TERWORD	-4570
agasaki	-4571
ainment	-4572
ampment	-4573
astrous	-4574
ceasing	-4575
cedures	-4576
cessful	-4577
cession	-4578
combine	-4579
conomic	-4580
ctively	-4581
ecticut	-4582
editary	-4583
emetery	-4584
erences	-4585
ference	-4586
forming	-4587
hemians	-4588
ictions	-4589
inceton	-4590
incipal	-4591
inctive	-4592
irthday	-4593
istrano	-4594
knowled	-4595
lecting	-4596
napolis	-4597
ointing	-4598
ometers	-4599
▁8,	-4600
▁34:	-4601
▁39:	-4602
▁54:	-4603
hokam	-4604
▁1970	-4605
▁Acts	-4606
▁Burn	-4607
▁Fray	-4608
▁look	-4609
amines	-4610
garian	-4611
pluses	-4612
▁1778,	-4613
▁1918,	-4614
▁1956.	-4615
▁1975.	-4616
▁Chuck	-4617
▁Corps	-4618
▁Danes	-4619
▁Earth	-4620
▁Edgar	-4621
▁Mayfl	-4622
▁Regul	-4623
▁cials	-4624
▁craft	-4625
▁crest	-4626
▁draft	-4627
▁drugs	-4628
▁harsh	-4629
▁holds	-4630
▁ranks	-4631
▁rming	-4632
▁talks	-4633
Liberty	-4634
holders	-4635
ography	-4636
orships	-4637
ortable	-4638
ovation	-4639
ponents	-4640
present	-4641
rounded	-4642
support	-4643
umerate	-4644
ventors	-4645
versary	-4646
versity	-4647
▁12,000	-4648
▁16-17:	-4649
▁311812	-4650
▁35,000	-4651
▁Africa	-4652
▁Agency	-4653
▁Alaska	-4654
▁Alonzo	-4655
▁Andrew	-4656
▁Austro	-4657
▁BRIEFU	-4658
▁BUREAU	-4659
▁Better	-4660
▁Brandy	-4661
▁Bridge	-4662
▁Canyon	-4663
▁Change	-4664
▁Cibola	-4665
▁Commit	-4666
▁Common	-4667
▁Corpor	-4668
▁County	-4669
▁Custer	-4670
▁Deadly	-4671
▁Debate	-4672
▁Discon	-4673
▁Dwight	-4674
▁Eisenh	-4675
▁Events	-4676
▁Finley	-4677
▁Former	-4678
▁Giovan	-4679
▁Graham	-4680
▁Growth	-4681
▁Harbor	-4682
▁Hawaii	-4683
▁Hemisp	-4684
▁Hirosh	-4685
▁Hoover	-4686
▁Howard	-4687
▁Indian	-4688
▁Inside	-4689
▁Issues	-4690
▁Little	-4691
▁Maggie	-4692
▁Miners	-4693
▁Montre	-4694
▁Moscow	-4695
▁NeelyW	-4696
▁Nether	-4697
▁Nighth	-4698
▁Normal	-4699
...	-4700
MTV	-4701
NATO	-4702
foot	-4703
▁...	-4704
▁50:	-4705
crime	-4706
white	-4707
▁62-6	-4708
▁Show	-4709
▁beef	-4710
▁cuts	-4711
Artist	-4712
TERNAT	-4713
called	-4714
intent	-4715
utants	-4716
vision	-4717
▁1773,	-4718
▁1835,	-4719
▁1918.	-4720
▁Memor	-4721
▁ammun	-4722
▁bombs	-4723
▁polls	-4724
▁roads	-4725
hibited	-4726
ippines	-4727
managed	-4728
slavery	-4729
▁36,000	-4730
▁60,000	-4731
▁62-63:	-4732
▁Arkans	-4733
▁Carbon	-4734
▁Papers	-4735
▁Period	-4736
▁Proper	-4737
▁Public	-4738
▁Rather	-4739
▁Reagan	-4740
▁Relief	-4741
▁Resear	-4742
▁Senate	-4743
▁Sliker	-4744
▁Street	-4745
▁Sweden	-4746
▁Swedes	-4747
▁Turkey	-4748
▁Venice	-4749
▁Verraz	-4750
▁aboard	-4751
▁abrupt	-4752
▁abuses	-4753
▁accept	-4754
▁access	-4755
▁action	-4756
▁actors	-4757
▁aerial	-4758
▁agenda	-4759
▁agricu	-4760
▁allied	-4761
▁allies	-4762
▁altern	-4763
▁althou	-4764
▁amphib	-4765
▁ancest	-4766
▁anyone	-4767
▁appeal	-4768
▁armame	-4769
▁arrest	-4770
▁arrive	-4771
▁artifi	-4772
▁artist	-4773
▁assass	-4774
▁atomic	-4775
▁backfi	-4776
▁basing	-4777
▁behind	-4778
▁better	-4779
▁blacks	-4780
▁bright	-4781
▁camera	-4782
▁career	-4783
▁caused	-4784
▁causes	-4785
▁census	-4786
▁ciency	-4787
▁closed	-4788
▁contro	-4789
▁course	-4790
▁cowboy	-4791
▁create	-4792
▁dating	-4793
▁decide	-4794
▁desire	-4795
▁develo	-4796
▁dissol	-4797
▁dramat	-4798
▁dubbed	-4799
NASA	-4800
point	-4801
▁1801	-4802
▁Hopi	-4803
Finley	-4804
owboys	-4805
▁1836,	-4806
▁1992.	-4807
▁Grand	-4808
▁clear	-4809
▁sheep	-4810
▁worse	-4811
▁Battle	-4812
▁Gloria	-4813
▁dashes	-4814
▁eighth	-4815
▁elimin	-4816
▁empire	-4817
▁ending	-4818
▁endure	-4819
▁engine	-4820
▁entang	-4821
▁escape	-4822
▁essays	-4823
▁ethnic	-4824
▁evenly	-4825
▁expand	-4826
▁export	-4827
▁extent	-4828
▁family	-4829
▁father	-4830
▁geopol	-4831
▁gether	-4832
▁giving	-4833
▁grapes	-4834
▁ground	-4835
▁guided	-4836
▁handed	-4837
▁headqu	-4838
▁health	-4839
▁height	-4840
▁higher	-4841
▁houses	-4842
▁ideals	-4843
▁immune	-4844
▁impact	-4845
▁impose	-4846
▁inevit	-4847
▁infect	-4848
▁insure	-4849
▁intact	-4850
▁interd	-4851
▁killed	-4852
▁lacked	-4853
▁larger	-4854
▁leader	-4855
▁leases	-4856
▁legacy	-4857
▁limits	-4858
▁longer	-4859
▁lumber	-4860
▁making	-4861
▁manage	-4862
▁mapped	-4863
▁marked	-4864
▁matter	-4865
▁melted	-4866
▁modern	-4867
▁mother	-4868
▁motion	-4869
▁mounds	-4870
▁movies	-4871
▁nanced	-4872
▁nearly	-4873
▁nerous	-4874
▁oceans	-4875
▁onomic	-4876
▁opened	-4877
▁ourish	-4878
▁output	-4879
▁parlia	-4880
▁partly	-4881
▁persec	-4882
▁phases	-4883
▁pieces	-4884
▁planes	-4885
▁points	-4886
▁posing	-4887
▁prison	-4888
▁proble	-4889
▁projec	-4890
▁pushin	-4891
▁racial	-4892
▁racism	-4893
▁recent	-4894
▁recipi	-4895
▁regain	-4896
▁reject	-4897
▁repeal	-4898
▁reserv	-4899
▁--	-4900
Plan	-4901
Road	-4902
hole	-4903
lmed	-4904
ophy	-4905
-1695	-4906
820),	-4907
TMENT	-4908
oiced	-4909
royed	-4910
▁(2).	-4911
▁(3).	-4912
▁1539	-4913
▁Bols	-4914
▁Guam	-4915
▁Jews	-4916
▁Mesa	-4917
▁Taft	-4918
▁boom	-4919
▁bulb	-4920
▁burd	-4921
▁http	-4922
▁levy	-4923
▁	-4924
e	-4925
t	-4926
a	-4927
n	-4928
o	-4929
i	-4930
r	-4931
s	-4932
d	-4933
h	-4934
l	-4935
c	-4936
m	-4937
u	-4938
f	-4939
p	-4940
g	-4941
w	-4942
y	-4943
.	-4944
,	-4945
v	-4946
b	-4947
A	-4948
T	-4949
S	-4950
1	-4951
C	-4952
k	-4953
0	-4954
I	-4955
U	-4956
P	-4957
B	-4958
N	-4959
M	-4960
x	-4961
R	-4962
9	-4963
W	-4964
F	-4965
G	-4966
8	-4967
E	-4968
3	-4969
-	-4970
5	-4971
7	-4972
L	-4973
2	-4974
D	-4975
6	-4976
J	-4977
H	-4978
—	-4979
O	-4980
4	-4981
:	-4982
z	-4983
j	-4984
’	-4985
q	-4986
Y	-4987
V	-4988
“	-4989
”	-4990
(	-4991
)	-4992
;	-4993
/	-4994
©	-4995
K	-4996
